<unk>	0.0
<s>	0.0
</s>	0.0
▁the	-3.221012830734253
s	-3.39072585105896
▁to	-3.710930585861206
▁and	-3.849452495574951
▁of	-3.9167003631591797
▁a	-3.9508368968963623
'	-4.176541805267334
▁in	-4.254483699798584
▁I	-4.483297348022461
▁that	-4.563315391540527
▁is	-4.654616832733154
▁you	-4.812567234039307
▁it	-4.846460819244385
t	-4.859748363494873
▁for	-4.893621444702148
▁we	-5.072540283203125
▁was	-5.087306976318359
▁with	-5.115638256072998
▁on	-5.121264934539795
ing	-5.183662414550781
▁be	-5.238967418670654
▁are	-5.279479026794434
▁have	-5.3541460037231445
ed	-5.409370422363281
d	-5.457050323486328
▁as	-5.477323532104492
▁this	-5.492965221405029
▁not	-5.545199394226074
▁our	-5.586667060852051
▁at	-5.695191860198975
▁your	-5.733213901519775
▁can	-5.743109226226807
▁from	-5.774097442626953
▁The	-5.791114330291748
▁or	-5.802607536315918
▁will	-5.844613552093506
▁but	-5.871423721313477
▁he	-5.875990867614746
▁one	-5.92159366607666
▁an	-5.921744346618652
re	-5.922101974487305
▁my	-5.930881023406982
▁by	-5.947596549987793
▁his	-6.010900974273682
▁all	-6.016453266143799
▁they	-6.021847724914551
ly	-6.024855136871338
▁had	-6.049710750579834
▁her	-6.081331729888916
▁me	-6.123044490814209
▁more	-6.127053260803223
I	-6.134072780609131
▁were	-6.1498003005981445
▁about	-6.149838447570801
▁out	-6.164788246154785
▁do	-6.194705009460449
▁so	-6.219300746917725
▁up	-6.228391170501709
m	-6.236544609069824
▁has	-6.2442803382873535
▁what	-6.254096508026123
y	-6.313522815704346
▁there	-6.317856788635254
▁time	-6.318656921386719
▁would	-6.337152004241943
The	-6.339876174926758
▁like	-6.341476917266846
▁their	-6.345109462738037
er	-6.351160526275635
▁It	-6.359388828277588
▁been	-6.400806903839111
▁just	-6.441839694976807
▁if	-6.464245319366455
▁them	-6.471774578094482
▁some	-6.479508399963379
▁which	-6.499040126800537
▁We	-6.506112098693848
▁she	-6.519044876098633
▁He	-6.522024154663086
ve	-6.548537731170654
▁also	-6.5545525550842285
▁when	-6.55629825592041
▁two	-6.5652241706848145
▁into	-6.5700364112854
▁no	-6.605335712432861
▁other	-6.60614013671875
▁get	-6.606424808502197
▁over	-6.665018558502197
ll	-6.667916297912598
▁him	-6.670406341552734
▁us	-6.672920227050781
n	-6.67474365234375
▁And	-6.691148281097412
▁know	-6.69318151473999
▁think	-6.699036598205566
▁who	-6.710354804992676
al	-6.717889308929443
▁could	-6.749331474304199
▁see	-6.758548736572266
▁than	-6.761057376861572
▁A	-6.77475643157959
▁very	-6.780745983123779
▁don	-6.785820960998535
▁back	-6.802036762237549
▁how	-6.806087493896484
e	-6.811458587646484
▁people	-6.811586856842041
▁new	-6.811987400054932
▁these	-6.83978796005249
▁But	-6.841022968292236
r	-6.8509039878845215
▁make	-6.863830089569092
▁any	-6.866076469421387
▁first	-6.872288227081299
We	-6.8732733726501465
▁then	-6.878259658813477
▁only	-6.88698673248291
▁now	-6.908105373382568
▁way	-6.913147926330566
in	-6.9141106605529785
▁You	-6.922033309936523
▁	-6.934973239898682
▁In	-6.9377360343933105
▁year	-6.948896408081055
▁want	-6.949615001678467
▁good	-6.9661431312561035
▁This	-7.000385284423828
▁well	-7.008927822113037
▁need	-7.010216236114502
▁going	-7.013100624084473
▁may	-7.013455867767334
▁work	-7.016110420227051
es	-7.023655414581299
▁because	-7.033505916595459
▁much	-7.059596061706543
▁even	-7.064449787139893
▁through	-7.075309753417969
▁She	-7.079898834228516
▁where	-7.093281269073486
▁go	-7.09450101852417
▁down	-7.09519624710083
▁So	-7.109899520874023
It	-7.11167049407959
A	-7.116226673126221
▁right	-7.117098808288574
▁really	-7.122130870819092
▁those	-7.149600028991699
▁most	-7.157550811767578
▁should	-7.169020175933838
a	-7.169310569763184
In	-7.179037570953369
▁three	-7.1901469230651855
▁did	-7.190488815307617
▁take	-7.221333026885986
▁many	-7.2218852043151855
▁re	-7.2232489585876465
▁twenty	-7.235564708709717
▁here	-7.249058246612549
▁business	-7.250515460968018
▁use	-7.25161075592041
▁still	-7.253935813903809
▁after	-7.2558698654174805
▁too	-7.264423847198486
▁If	-7.285068035125732
▁before	-7.288113594055176
▁made	-7.302184581756592
or	-7.306299209594727
▁They	-7.307225227355957
▁look	-7.317437648773193
▁years	-7.331003665924072
▁around	-7.34977912902832
▁point	-7.365727424621582
ers	-7.3761515617370605
And	-7.380286693572998
▁being	-7.382421493530273
▁day	-7.38875150680542
▁hundred	-7.398654937744141
▁last	-7.400280475616455
▁little	-7.403985500335693
▁didn	-7.406085968017578
▁five	-7.41400146484375
▁said	-7.414176940917969
▁something	-7.418921947479248
▁off	-7.41965913772583
▁things	-7.445986747741699
▁such	-7.4527788162231445
This	-7.456441879272461
▁same	-7.458817958831787
▁help	-7.461441993713379
▁life	-7.467901229858398
S	-7.475435733795166
▁both	-7.476633071899414
▁different	-7.477053165435791
ic	-7.482194423675537
o	-7.48305606842041
▁find	-7.484377861022949
▁never	-7.493577480316162
▁each	-7.49670934677124
▁got	-7.499462604522705
He	-7.5086517333984375
▁quarter	-7.509355068206787
▁come	-7.521876811981201
l	-7.523227691650391
▁lot	-7.529263496398926
▁say	-7.534139156341553
▁own	-7.534251689910889
▁its	-7.537920951843262
▁four	-7.550933361053467
▁That	-7.554076194763184
▁long	-7.571475505828857
▁un	-7.571852207183838
▁again	-7.572626113891602
▁great	-7.5778326988220215
▁used	-7.579029560089111
▁end	-7.579686641693115
▁S	-7.5814127922058105
▁There	-7.581978797912598
▁few	-7.593024253845215
▁better	-7.593359470367432
▁always	-7.595308780670166
▁part	-7.604359149932861
▁while	-7.604612350463867
▁might	-7.613874912261963
But	-7.613953590393066
▁home	-7.617898464202881
▁best	-7.623284816741943
▁between	-7.628398418426514
▁am	-7.64053201675415
le	-7.658716678619385
ation	-7.659101963043213
▁every	-7.661532402038574
▁world	-7.664063930511475
If	-7.664465427398682
T	-7.672987461090088
it	-7.673152923583984
▁feel	-7.676196098327637
▁love	-7.689023017883301
▁place	-7.690077304840088
an	-7.6980299949646
C	-7.703296661376953
▁next	-7.703576564788818
▁market	-7.714548587799072
able	-7.714812755584717
▁B	-7.7231364250183105
ion	-7.726317882537842
▁does	-7.727175235748291
▁s	-7.735840320587158
g	-7.738771915435791
P	-7.755199432373047
▁number	-7.762105464935303
▁found	-7.768066883087158
▁another	-7.769289970397949
▁growth	-7.769474029541016
▁second	-7.775681495666504
▁believe	-7.777260780334473
▁thing	-7.779123783111572
You	-7.781000137329102
▁away	-7.781318664550781
▁put	-7.784145832061768
▁continue	-7.785914897918701
c	-7.79275369644165
▁must	-7.793828964233398
ity	-7.800605773925781
▁results	-7.805548667907715
▁give	-7.806820392608643
ar	-7.806987285614014
▁under	-7.807040214538574
on	-7.809758186340332
il	-7.812771797180176
▁sure	-7.814985275268555
▁thought	-7.820598125457764
▁head	-7.825891971588135
▁hand	-7.827993869781494
▁important	-7.831047058105469
▁thousand	-7.840851306915283
▁man	-7.843175888061523
▁For	-7.8476667404174805
▁without	-7.85032844543457
So	-7.85383415222168
▁data	-7.856370449066162
▁T	-7.859500408172607
▁keep	-7.863938331604004
▁call	-7.864414691925049
▁able	-7.871193885803223
▁As	-7.874720096588135
▁company	-7.884848594665527
▁information	-7.892160892486572
▁bit	-7.892960548400879
▁de	-7.894618034362793
▁What	-7.901821136474609
M	-7.902015686035156
▁let	-7.9029035568237305
▁why	-7.903255462646484
▁E	-7.9054412841796875
▁during	-7.905448913574219
D	-7.912155628204346
▁case	-7.912506103515625
i	-7.915407180786133
▁high	-7.919678211212158
▁six	-7.919681072235107
▁kind	-7.924041748046875
▁When	-7.925851821899414
▁change	-7.927719593048096
▁course	-7.933032989501953
▁nineteen	-7.939711093902588
▁team	-7.942803859710693
▁start	-7.944782733917236
p	-7.950441837310791
and	-7.951425552368164
F	-7.953984260559082
▁set	-7.9568586349487305
▁though	-7.957242965698242
As	-7.9573259353637695
el	-7.957894802093506
B	-7.967270374298096
▁done	-7.968235969543457
▁hard	-7.973994731903076
▁using	-7.9836039543151855
▁against	-7.986587047576904
▁small	-7.991087913513184
E	-7.998166084289551
▁system	-8.002103805541992
▁left	-8.005180358886719
▁doing	-8.012019157409668
th	-8.015076637268066
▁face	-8.016793251037598
▁side	-8.01709270477295
▁water	-8.018756866455078
▁enough	-8.020194053649902
b	-8.023833274841309
▁came	-8.02507209777832
▁F	-8.028393745422363
ch	-8.032472610473633
R	-8.042089462280273
▁fact	-8.043642044067383
▁looking	-8.045101165771484
▁car	-8.054337501525879
▁since	-8.056037902832031
en	-8.056870460510254
▁went	-8.057476997375488
ra	-8.060035705566406
ent	-8.062701225280762
▁took	-8.063699722290039
L	-8.066710472106934
▁order	-8.067777633666992
▁room	-8.06989860534668
▁ten	-8.071054458618164
▁today	-8.074629783630371
▁doesn	-8.078079223632812
ment	-8.080982208251953
▁process	-8.081708908081055
▁non	-8.08203411102295
▁line	-8.086812973022461
▁No	-8.090048789978027
▁past	-8.090063095092773
▁D	-8.0906343460083
▁far	-8.09130573272705
ness	-8.091650009155273
▁family	-8.092143058776855
▁big	-8.093292236328125
▁looked	-8.094239234924316
▁show	-8.094436645507812
ur	-8.09868335723877
▁already	-8.099381446838379
▁support	-8.101090431213379
▁anything	-8.102142333984375
▁experience	-8.102231979370117
▁until	-8.107316970825195
▁My	-8.107593536376953
▁eight	-8.112364768981934
▁tell	-8.115467071533203
▁making	-8.117584228515625
▁strong	-8.121337890625
▁open	-8.12183666229248
▁actually	-8.124341011047363
▁provide	-8.12435245513916
▁play	-8.128270149230957
▁working	-8.133935928344727
▁seven	-8.13516902923584
▁seen	-8.135941505432129
▁game	-8.136309623718262
G	-8.138359069824219
▁care	-8.138374328613281
▁across	-8.138751983642578
▁real	-8.14109992980957
She	-8.142169952392578
▁expect	-8.142950057983398
h	-8.148978233337402
▁eyes	-8.149852752685547
▁customers	-8.156915664672852
▁wanted	-8.158713340759277
▁future	-8.159430503845215
▁mean	-8.15947437286377
▁less	-8.160208702087402
▁value	-8.163634300231934
They	-8.164740562438965
ri	-8.166837692260742
us	-8.171369552612305
▁together	-8.171481132507324
▁night	-8.173967361450195
at	-8.17464828491211
▁free	-8.180434226989746
▁money	-8.181621551513672
▁ever	-8.183865547180176
▁C	-8.184990882873535
est	-8.189212799072266
▁G	-8.192178726196289
k	-8.192249298095703
▁full	-8.19275188446045
te	-8.192930221557617
▁con	-8.193365097045898
▁e	-8.1961088180542
▁getting	-8.197453498840332
▁level	-8.197566032409668
ive	-8.200422286987305
▁days	-8.201436042785645
▁question	-8.206936836242676
is	-8.20701789855957
▁within	-8.207649230957031
as	-8.20847225189209
▁To	-8.210245132446289
▁wasn	-8.210742950439453
▁percent	-8.214645385742188
▁mind	-8.215221405029297
man	-8.218704223632812
▁house	-8.220691680908203
ry	-8.222005844116211
O	-8.222148895263672
▁power	-8.223660469055176
▁large	-8.225019454956055
▁try	-8.23160457611084
▁top	-8.233399391174316
▁understand	-8.234081268310547
▁having	-8.234993934631348
▁study	-8.23857593536377
▁several	-8.23861312866211
lo	-8.240559577941895
▁everything	-8.241168975830078
ro	-8.245965957641602
▁P	-8.247756004333496
▁cost	-8.253983497619629
to	-8.254505157470703
▁nothing	-8.254530906677246
ies	-8.255298614501953
▁light	-8.260275840759277
▁run	-8.261909484863281
▁forward	-8.262873649597168
▁won	-8.263346672058105
ter	-8.263443946838379
▁saw	-8.265908241271973
▁pre	-8.26627254486084
▁started	-8.267229080200195
▁service	-8.26761245727539
▁possible	-8.26812744140625
▁often	-8.268689155578613
▁once	-8.272205352783203
▁control	-8.27379035949707
▁body	-8.277435302734375
▁knew	-8.277947425842285
▁product	-8.278457641601562
▁felt	-8.280497550964355
▁problem	-8.281584739685059
▁talk	-8.283254623413086
▁person	-8.284041404724121
▁become	-8.285494804382324
▁old	-8.290512084960938
▁performance	-8.290542602539062
u	-8.294360160827637
▁group	-8.298154830932617
▁read	-8.29883098602295
▁co	-8.30103588104248
▁state	-8.301935195922852
There	-8.30565071105957
▁half	-8.306811332702637
▁book	-8.309222221374512
▁later	-8.310188293457031
▁nine	-8.313541412353516
▁post	-8.314787864685059
▁thirty	-8.314946174621582
▁turn	-8.316267013549805
▁trying	-8.316567420959473
▁However	-8.318689346313477
ia	-8.318861961364746
▁Re	-8.320618629455566
na	-8.321441650390625
▁per	-8.32193374633789
▁week	-8.322884559631348
For	-8.324872016906738
▁least	-8.325053215026855
▁told	-8.32524585723877
When	-8.326165199279785
▁available	-8.326297760009766
▁yet	-8.327689170837402
N	-8.330121994018555
id	-8.333553314208984
▁move	-8.33487606048584
▁food	-8.342947959899902
ta	-8.350167274475098
▁someone	-8.352334976196289
▁R	-8.354310035705566
▁probably	-8.355323791503906
▁including	-8.355571746826172
▁children	-8.355752944946289
▁share	-8.356854438781738
▁All	-8.35838508605957
ist	-8.360848426818848
▁patients	-8.361551284790039
▁given	-8.362156867980957
▁God	-8.363787651062012
▁higher	-8.364104270935059
▁impact	-8.364212989807129
▁plan	-8.367526054382324
▁quite	-8.37077522277832
▁area	-8.371160507202148
▁example	-8.372697830200195
ted	-8.373359680175781
▁increase	-8.373871803283691
▁school	-8.377646446228027
f	-8.37803840637207
▁close	-8.382862091064453
rs	-8.385839462280273
▁products	-8.386041641235352
▁result	-8.386971473693848
That	-8.390459060668945
▁job	-8.396746635437012
ne	-8.397135734558105
ate	-8.402352333068848
ary	-8.403524398803711
▁name	-8.406161308288574
▁coming	-8.406171798706055
▁live	-8.406765937805176
age	-8.407465934753418
▁local	-8.408974647521973
▁model	-8.409003257751465
ine	-8.411062240600586
et	-8.414412498474121
▁O	-8.416620254516602
▁space	-8.416875839233398
▁terms	-8.416924476623535
▁door	-8.417108535766602
▁Do	-8.420166015625
▁along	-8.421692848205566
▁asked	-8.421943664550781
▁financial	-8.425532341003418
▁further	-8.425549507141113
▁sales	-8.425655364990234
co	-8.4257230758667
▁due	-8.426036834716797
ul	-8.426810264587402
▁whole	-8.43134880065918
se	-8.431780815124512
▁clear	-8.432836532592773
▁pretty	-8.43518352508545
▁moment	-8.436375617980957
▁months	-8.438638687133789
▁matter	-8.441819190979004
▁lower	-8.443288803100586
▁New	-8.445771217346191
▁else	-8.44624137878418
▁early	-8.44658088684082
▁significant	-8.446621894836426
▁whether	-8.446776390075684
▁key	-8.447430610656738
▁present	-8.448958396911621
ling	-8.45173454284668
▁pro	-8.452322006225586
me	-8.452760696411133
▁H	-8.453119277954102
ty	-8.453582763671875
▁based	-8.457550048828125
▁means	-8.459968566894531
▁reason	-8.460978507995605
▁At	-8.461770057678223
▁development	-8.461977005004883
we	-8.463250160217285
▁times	-8.464659690856934
la	-8.465975761413574
▁focus	-8.465975761413574
ie	-8.466022491455078
▁almost	-8.466063499450684
▁easy	-8.46861457824707
▁idea	-8.470120429992676
H	-8.470903396606445
▁heart	-8.471464157104492
▁myself	-8.47369384765625
▁create	-8.475476264953613
▁pay	-8.476655960083008
ism	-8.476813316345215
▁either	-8.477386474609375
▁sense	-8.47821044921875
ating	-8.478670120239258
▁view	-8.48068904876709
ma	-8.481829643249512
▁story	-8.48243522644043
▁design	-8.483129501342773
▁N	-8.484313011169434
▁front	-8.48443603515625
ant	-8.485512733459473
ton	-8.486039161682129
▁bad	-8.487279891967773
▁fifty	-8.488646507263184
▁current	-8.48897647857666
less	-8.489178657531738
▁third	-8.49014949798584
▁K	-8.490447044372559
▁ask	-8.49252986907959
▁His	-8.493589401245117
▁turned	-8.495783805847168
▁project	-8.49735164642334
▁couple	-8.498517990112305
▁rest	-8.499082565307617
▁however	-8.49966049194336
▁position	-8.50102424621582
▁behind	-8.501418113708496
▁p	-8.504510879516602
ce	-8.507461547851562
▁rate	-8.508020401000977
▁dollars	-8.510940551757812
tic	-8.511006355285645
▁couldn	-8.511335372924805
ous	-8.51404094696045
▁country	-8.515201568603516
x	-8.52010726928711
▁makes	-8.520174026489258
ol	-8.521001815795898
▁Then	-8.522771835327148
V	-8.52587604522705
▁price	-8.52604866027832
ally	-8.5269193649292
ance	-8.526983261108398
▁government	-8.529255867004395
▁men	-8.529698371887207
ge	-8.529923439025879
um	-8.530380249023438
▁hope	-8.53569507598877
However	-8.538361549377441
▁certain	-8.540671348571777
▁everyone	-8.542353630065918
▁health	-8.546198844909668
▁isn	-8.549094200134277
▁quality	-8.55118179321289
li	-8.554330825805664
▁others	-8.55687141418457
▁needs	-8.558337211608887
▁short	-8.55837345123291
▁women	-8.55855941772461
ized	-8.559635162353516
▁add	-8.560595512390137
Our	-8.561317443847656
im	-8.569145202636719
▁public	-8.570659637451172
▁stop	-8.571497917175293
▁needed	-8.575209617614746
ial	-8.577208518981934
ated	-8.577486038208008
▁customer	-8.578124046325684
▁taking	-8.579737663269043
ad	-8.580429077148438
ci	-8.581461906433105
▁form	-8.58478832244873
▁services	-8.58739185333252
▁called	-8.589324951171875
▁risk	-8.592497825622559
▁Now	-8.59309196472168
▁friends	-8.594738960266113
▁yourself	-8.596081733703613
▁ago	-8.599245071411133
▁comes	-8.600005149841309
▁dis	-8.600042343139648
▁Not	-8.602008819580078
▁L	-8.604050636291504
▁addition	-8.604691505432129
ian	-8.606468200683594
the	-8.607853889465332
▁true	-8.609707832336426
▁These	-8.611621856689453
▁low	-8.613490104675293
▁cannot	-8.613986015319824
▁f	-8.614703178405762
▁season	-8.621028900146484
▁One	-8.623513221740723
▁After	-8.625494003295898
▁human	-8.62598705291748
▁site	-8.62649917602539
▁capital	-8.627662658691406
▁program	-8.629121780395508
▁table	-8.630228996276855
▁Or	-8.63025951385498
▁amount	-8.631032943725586
▁forty	-8.631316184997559
▁size	-8.63264274597168
▁Our	-8.633810043334961
▁zero	-8.633918762207031
▁opportunity	-8.635139465332031
▁sort	-8.636603355407715
▁maybe	-8.63801097869873
w	-8.639101028442383
▁list	-8.640716552734375
W	-8.644025802612305
▁content	-8.644292831420898
▁longer	-8.644757270812988
▁taken	-8.64558219909668
▁specific	-8.64676284790039
▁minutes	-8.646831512451172
▁W	-8.6480131149292
▁deal	-8.648536682128906
led	-8.648630142211914
▁single	-8.649090766906738
▁revenue	-8.650717735290527
▁potential	-8.651226043701172
▁leave	-8.653226852416992
▁mother	-8.654033660888672
▁How	-8.656105995178223
▁inside	-8.660234451293945
▁questions	-8.662147521972656
▁drive	-8.663497924804688
▁above	-8.664041519165039
▁treatment	-8.664292335510254
▁remember	-8.664604187011719
▁stay	-8.664787292480469
▁changes	-8.664862632751465
▁wrong	-8.665771484375
▁simple	-8.668951034545898
▁especially	-8.6696138381958
▁positive	-8.671548843383789
▁similar	-8.67216968536377
▁court	-8.673789024353027
▁outside	-8.675491333007812
▁interest	-8.675529479980469
▁words	-8.680087089538574
▁offer	-8.680293083190918
un	-8.681422233581543
▁young	-8.684205055236816
▁tried	-8.686421394348145
▁hands	-8.68718433380127
▁bring	-8.688413619995117
▁rather	-8.688706398010254
▁ninety	-8.694991111755371
▁social	-8.695534706115723
To	-8.695931434631348
▁seems	-8.69677448272705
▁website	-8.700519561767578
▁industry	-8.701170921325684
ck	-8.703654289245605
▁phone	-8.705471992492676
▁black	-8.707906723022461
▁type	-8.708616256713867
▁grow	-8.710078239440918
▁answer	-8.710380554199219
▁learn	-8.710714340209961
▁buy	-8.71073055267334
▁access	-8.712641716003418
▁issue	-8.71422004699707
▁energy	-8.71671199798584
▁known	-8.716874122619629
▁build	-8.719687461853027
▁air	-8.720625877380371
▁demand	-8.721148490905762
son	-8.722095489501953
▁research	-8.72215461730957
▁morning	-8.726156234741211
▁building	-8.726652145385742
▁heard	-8.734536170959473
▁additional	-8.736234664916992
▁period	-8.736248016357422
▁sub	-8.740265846252441
▁white	-8.74291706085205
▁hear	-8.74520206451416
line	-8.74542236328125
▁general	-8.74608325958252
▁voice	-8.747693061828613
am	-8.749157905578613
▁difficult	-8.750100135803223
▁check	-8.750519752502441
ful	-8.753060340881348
▁simply	-8.753337860107422
▁effect	-8.754800796508789
▁approach	-8.755290985107422
▁gave	-8.757719039916992
▁expected	-8.758316040039062
▁M	-8.760342597961426
▁likely	-8.762223243713379
▁en	-8.765178680419922
▁age	-8.765387535095215
▁include	-8.768542289733887
▁De	-8.772834777832031
▁happy	-8.775555610656738
▁hair	-8.777782440185547
▁major	-8.779253005981445
▁special	-8.781108856201172
▁soon	-8.781501770019531
▁opportunities	-8.781625747680664
▁cash	-8.78574275970459
▁Co	-8.785796165466309
de	-8.786044120788574
▁hours	-8.786870002746582
▁woman	-8.787283897399902
ization	-8.788175582885742
▁test	-8.789410591125488
▁personal	-8.789606094360352
▁lost	-8.789848327636719
▁online	-8.792180061340332
▁On	-8.79306411743164
▁quickly	-8.793758392333984
▁media	-8.79546070098877
▁anyone	-8.798500061035156
▁himself	-8.798714637756348
▁role	-8.799570083618164
▁child	-8.8007173538208
▁return	-8.801536560058594
▁environment	-8.802764892578125
▁fun	-8.80501937866211
▁management	-8.805883407592773
min	-8.80760383605957
▁continued	-8.80768871307373
ping	-8.80842399597168
▁range	-8.808472633361816
▁began	-8.808588981628418
▁war	-8.809308052062988
▁cut	-8.809396743774414
▁Some	-8.811066627502441
ver	-8.811814308166504
▁win	-8.811976432800293
▁ground	-8.812247276306152
▁improve	-8.814847946166992
▁wouldn	-8.81583023071289
▁happen	-8.815932273864746
▁city	-8.81661605834961
▁US	-8.817320823669434
▁step	-8.818079948425293
▁technology	-8.819540023803711
▁hit	-8.820282936096191
be	-8.821003913879395
▁U	-8.823180198669434
▁With	-8.828768730163574
▁perfect	-8.82901382446289
What	-8.830363273620605
▁meet	-8.833937644958496
ut	-8.834150314331055
▁sixty	-8.834949493408203
▁American	-8.835281372070312
▁history	-8.83594799041748
▁father	-8.8369140625
▁law	-8.838351249694824
These	-8.838621139526367
▁levels	-8.839377403259277
▁particular	-8.839469909667969
ir	-8.840522766113281
▁review	-8.840693473815918
▁music	-8.84250545501709
▁community	-8.846001625061035
▁anti	-8.846004486083984
▁office	-8.84617805480957
▁allow	-8.847296714782715
▁paper	-8.848665237426758
▁ability	-8.848795890808105
▁field	-8.850868225097656
▁increased	-8.851011276245117
▁thinking	-8.851775169372559
▁chance	-8.852643966674805
▁Her	-8.854609489440918
▁talking	-8.857294082641602
▁cause	-8.860349655151367
up	-8.863797187805176
▁running	-8.864248275756836
▁death	-8.864897727966309
▁living	-8.865151405334473
▁w	-8.865232467651367
▁seeing	-8.86650562286377
▁flow	-8.866890907287598
▁Le	-8.869036674499512
▁issues	-8.872208595275879
▁gone	-8.872232437133789
▁happened	-8.872284889221191
▁nice	-8.8748779296875
▁hold	-8.876883506774902
ish	-8.877400398254395
op	-8.877519607543945
▁seemed	-8.878748893737793
▁success	-8.880816459655762
▁held	-8.882128715515137
▁various	-8.8838529586792
▁evidence	-8.88502311706543
▁contact	-8.886910438537598
▁st	-8.886916160583496
ac	-8.888265609741211
▁account	-8.88862419128418
▁companies	-8.889626502990723
▁progress	-8.890868186950684
▁seem	-8.891290664672852
ities	-8.89338493347168
▁eighty	-8.89366340637207
▁An	-8.895330429077148
z	-8.896357536315918
▁pain	-8.897379875183105
▁among	-8.898667335510254
U	-8.901521682739258
▁main	-8.901754379272461
▁b	-8.901926040649414
▁areas	-8.902198791503906
▁common	-8.902313232421875
con	-8.903358459472656
di	-8.903395652770996
▁sound	-8.905732154846191
▁walk	-8.906558990478516
▁consider	-8.907142639160156
▁following	-8.909357070922852
▁activity	-8.909403800964355
▁class	-8.909649848937988
per	-8.909897804260254
▁strategy	-8.910014152526855
▁complete	-8.91066837310791
▁itself	-8.911422729492188
▁red	-8.912140846252441
▁act	-8.91285514831543
ite	-8.91398811340332
ize	-8.914023399353027
▁color	-8.91744613647461
▁Just	-8.918998718261719
▁upon	-8.920676231384277
▁friend	-8.92316722869873
ative	-8.924302101135254
ti	-8.92452621459961
▁related	-8.925660133361816
ni	-8.92650032043457
▁ready	-8.928775787353516
▁operating	-8.930120468139648
▁below	-8.93014144897461
▁beautiful	-8.931746482849121
▁blood	-8.933876037597656
▁V	-8.934475898742676
vi	-8.934802055358887
▁seventy	-8.934877395629883
▁month	-8.936290740966797
▁break	-8.936320304870605
▁cases	-8.936861991882324
pe	-8.9370756149292
▁alone	-8.937686920166016
▁lead	-8.939208030700684
▁fourth	-8.940343856811523
▁attention	-8.941145896911621
▁entire	-8.941646575927734
▁near	-8.9420747756958
▁bar	-8.944287300109863
▁weeks	-8.945008277893066
ner	-8.945530891418457
▁dark	-8.945745468139648
▁fall	-8.946085929870605
▁students	-8.946386337280273
▁costs	-8.9469575881958
ig	-8.948236465454102
▁cr	-8.948297500610352
▁required	-8.94831657409668
▁Ma	-8.948838233947754
▁Well	-8.95052719116211
▁date	-8.950547218322754
▁remain	-8.951186180114746
▁final	-8.951416969299316
▁action	-8.953153610229492
po	-8.953710556030273
▁road	-8.954126358032227
▁worked	-8.954855918884277
▁function	-8.955721855163574
▁fire	-8.956979751586914
▁La	-8.957415580749512
ard	-8.957942008972168
▁problems	-8.957996368408203
▁individual	-8.958251953125
▁stuff	-8.958815574645996
▁base	-8.961629867553711
go	-8.962295532226562
▁floor	-8.963366508483887
▁writing	-8.964757919311523
▁feeling	-8.964882850646973
▁skin	-8.967132568359375
▁became	-8.967320442199707
▁eighteen	-8.967534065246582
▁production	-8.969568252563477
▁page	-8.970063209533691
▁situation	-8.970524787902832
At	-8.97108268737793
sh	-8.973320007324219
mo	-8.974077224731445
▁film	-8.974183082580566
▁markets	-8.975740432739258
▁benefit	-8.976560592651367
▁decision	-8.978949546813965
▁deep	-8.979765892028809
▁recent	-8.979949951171875
▁term	-8.980487823486328
▁certainly	-8.98050594329834
▁art	-8.981318473815918
▁tax	-8.982601165771484
My	-8.984703063964844
va	-8.984808921813965
ning	-8.986510276794434
▁ex	-8.986832618713379
▁credit	-8.987690925598145
After	-8.987692832946777
▁toward	-8.989052772521973
▁normal	-8.98923110961914
▁kids	-8.989712715148926
▁cell	-8.99116325378418
▁report	-8.991490364074707
▁watch	-8.993006706237793
▁clean	-8.99317741394043
▁usually	-8.996113777160645
▁enjoy	-8.996213912963867
▁total	-8.996703147888184
▁o	-8.99683666229248
▁write	-8.996906280517578
▁moving	-8.99720287322998
K	-8.997252464294434
▁please	-8.997913360595703
▁visit	-9.000447273254395
▁track	-9.002161979675293
▁decided	-9.002223014831543
▁late	-9.002229690551758
▁analysis	-9.005196571350098
▁follow	-9.005692481994629
▁fifteen	-9.005804061889648
▁exactly	-9.008003234863281
No	-9.008248329162598
▁subject	-9.00839614868164
▁goes	-9.00862979888916
v	-9.01268196105957
▁fine	-9.013708114624023
▁Ro	-9.013823509216309
▁United	-9.014283180236816
With	-9.017121315002441
▁network	-9.019694328308105
▁guess	-9.02096939086914
▁sometimes	-9.021164894104004
▁store	-9.021554946899414
▁completely	-9.021965026855469
▁oil	-9.0228271484375
▁choose	-9.026419639587402
▁investment	-9.029200553894043
▁structure	-9.029656410217285
▁fear	-9.029777526855469
ny	-9.029922485351562
▁bed	-9.03017520904541
▁d	-9.030488014221191
▁ways	-9.030634880065918
▁speak	-9.031291007995605
▁looks	-9.031414985656738
▁cross	-9.032261848449707
ow	-9.033699989318848
▁growing	-9.034296035766602
On	-9.034668922424316
ide	-9.035690307617188
our	-9.036490440368652
▁app	-9.037586212158203
▁begin	-9.037795066833496
▁overall	-9.03782844543457
▁release	-9.038235664367676
▁conditions	-9.038442611694336
▁method	-9.038576126098633
▁practice	-9.039318084716797
ors	-9.040189743041992
▁material	-9.040234565734863
▁record	-9.041022300720215
▁code	-9.041402816772461
▁natural	-9.042373657226562
▁factors	-9.042455673217773
▁basis	-9.04255199432373
he	-9.042829513549805
▁unique	-9.04349136352539
▁cells	-9.04384994506836
▁pressure	-9.044132232666016
ex	-9.044721603393555
▁feet	-9.044961929321289
▁event	-9.045313835144043
▁members	-9.04532241821289
no	-9.045724868774414
▁events	-9.046407699584961
▁balance	-9.047109603881836
▁twelve	-9.047873497009277
▁statements	-9.047996520996094
▁address	-9.049616813659668
▁themselves	-9.050763130187988
▁moved	-9.051769256591797
▁knowledge	-9.052037239074707
▁relationship	-9.052607536315918
▁Be	-9.052657127380371
om	-9.052757263183594
ber	-9.053689956665039
▁video	-9.055590629577637
▁word	-9.055703163146973
▁Ba	-9.056832313537598
▁center	-9.057174682617188
▁party	-9.057209014892578
▁response	-9.057575225830078
▁Sa	-9.057779312133789
▁path	-9.060260772705078
▁changed	-9.062718391418457
▁Con	-9.062888145446777
out	-9.062955856323242
▁difference	-9.065526962280273
▁wait	-9.066162109375
▁safe	-9.068219184875488
ence	-9.068360328674316
▁choice	-9.071955680847168
ot	-9.073736190795898
bb	-9.074084281921387
▁training	-9.074644088745117
▁fit	-9.0750732421875
▁studies	-9.075599670410156
▁Me	-9.07638931274414
▁fast	-9.076455116271973
▁kept	-9.0765962600708
Now	-9.077540397644043
▁sat	-9.077980041503906
▁patient	-9.079553604125977
▁Mo	-9.080622673034668
▁eye	-9.083431243896484
ster	-9.084266662597656
▁land	-9.086034774780273
▁email	-9.08607006072998
▁instead	-9.086719512939453
▁works	-9.089128494262695
▁spend	-9.09030818939209
▁Even	-9.090448379516602
▁takes	-9.09058666229248
▁lives	-9.090919494628906
▁points	-9.092453002929688
▁weight	-9.094164848327637
▁associated	-9.094367027282715
ha	-9.094374656677246
▁throughout	-9.095017433166504
▁interesting	-9.09505558013916
▁touch	-9.095544815063477
▁avoid	-9.095552444458008
▁global	-9.095565795898438
land	-9.095698356628418
▁travel	-9.096771240234375
▁towards	-9.098821640014648
▁parents	-9.100693702697754
▁mentioned	-9.102211952209473
▁dead	-9.102920532226562
▁necessary	-9.102977752685547
▁says	-9.10336685180664
▁Ca	-9.103702545166016
▁brand	-9.10418701171875
▁ca	-9.106893539428711
bo	-9.106914520263672
▁Your	-9.10720157623291
▁board	-9.10727310180664
one	-9.107793807983398
▁beginning	-9.108917236328125
hi	-9.109561920166016
▁Li	-9.111393928527832
way	-9.111531257629395
▁million	-9.111750602722168
▁multiple	-9.11208438873291
▁Q	-9.114168167114258
▁political	-9.114510536193848
▁ahead	-9.115668296813965
▁police	-9.115984916687012
▁c	-9.116399765014648
▁brought	-9.117345809936523
▁earlier	-9.118107795715332
▁respect	-9.118727684020996
▁t	-9.118962287902832
ten	-9.119970321655273
os	-9.120656967163086
▁Ra	-9.121208190917969
▁included	-9.121458053588867
ical	-9.12186336517334
▁met	-9.12237548828125
▁focused	-9.123270988464355
▁provided	-9.123370170593262
▁involved	-9.12412166595459
▁considered	-9.126982688903809
▁huge	-9.127280235290527
▁v	-9.128901481628418
▁section	-9.130605697631836
▁cool	-9.131034851074219
▁blog	-9.132284164428711
▁particularly	-9.132919311523438
▁stand	-9.135016441345215
While	-9.135579109191895
▁multi	-9.135714530944824
▁Don	-9.137218475341797
▁games	-9.139162063598633
▁extra	-9.139732360839844
▁systems	-9.140408515930176
▁playing	-9.140678405761719
▁economic	-9.140767097473145
nt	-9.14271068572998
▁reading	-9.143413543701172
▁sign	-9.144187927246094
▁search	-9.145021438598633
▁pick	-9.145244598388672
▁image	-9.145580291748047
▁direction	-9.146232604980469
▁easily	-9.147619247436523
ward	-9.147964477539062
les	-9.148043632507324
ron	-9.153335571289062
▁worth	-9.15385627746582
▁language	-9.154398918151855
▁features	-9.154803276062012
▁nature	-9.155993461608887
▁ra	-9.1564302444458
▁rates	-9.156756401062012
mi	-9.15697193145752
ag	-9.159100532531738
ho	-9.159831047058105
▁professional	-9.160904884338379
▁finally	-9.162623405456543
▁goal	-9.163439750671387
ga	-9.165597915649414
▁details	-9.166306495666504
do	-9.166691780090332
▁strength	-9.167176246643066
▁beyond	-9.167901992797852
▁received	-9.169049263000488
▁mix	-9.169161796569824
▁hospital	-9.171574592590332
▁Can	-9.173285484313965
▁advantage	-9.173941612243652
▁property	-9.174270629882812
▁average	-9.175146102905273
▁girl	-9.176199913024902
▁disease	-9.17630672454834
▁haven	-9.17673397064209
▁Bo	-9.177088737487793
▁effects	-9.177793502807617
und	-9.178144454956055
▁players	-9.178789138793945
▁standard	-9.180183410644531
▁hot	-9.18160629272461
▁ensure	-9.184082984924316
▁sleep	-9.184686660766602
▁America	-9.184865951538086
▁deliver	-9.185235023498535
▁Let	-9.185508728027344
▁style	-9.185693740844727
▁saying	-9.18585205078125
▁prior	-9.186640739440918
▁clients	-9.187456130981445
king	-9.188356399536133
dy	-9.189778327941895
▁culture	-9.189794540405273
▁eat	-9.190607070922852
▁di	-9.193279266357422
▁created	-9.193856239318848
▁town	-9.194279670715332
▁compared	-9.196785926818848
em	-9.200785636901855
All	-9.200858116149902
▁super	-9.201762199401855
mer	-9.203787803649902
▁staff	-9.204059600830078
▁security	-9.204141616821289
▁sit	-9.204352378845215
▁private	-9.20480728149414
ley	-9.205636024475098
▁cold	-9.207096099853516
ring	-9.207206726074219
▁Why	-9.20769214630127
▁truth	-9.209190368652344
ak	-9.210597038269043
▁fully	-9.210958480834961
▁solution	-9.211678504943848
▁currently	-9.21406364440918
▁round	-9.214239120483398
▁shows	-9.217106819152832
▁reach	-9.217602729797363
ions	-9.219377517700195
▁Po	-9.220008850097656
▁computer	-9.220454216003418
▁platform	-9.220829010009766
lu	-9.221309661865234
▁businesses	-9.221561431884766
▁China	-9.22292709350586
▁starting	-9.22407054901123
▁St	-9.224159240722656
▁lack	-9.226099967956543
▁slow	-9.226428985595703
by	-9.226673126220703
ff	-9.226850509643555
▁added	-9.227705955505371
▁loved	-9.227957725524902
▁save	-9.228710174560547
▁previous	-9.22909164428711
▁projects	-9.231302261352539
end	-9.231998443603516
▁guy	-9.232382774353027
▁medical	-9.232547760009766
▁cover	-9.234000205993652
▁serve	-9.235353469848633
▁Al	-9.2355375289917
ably	-9.236568450927734
▁mo	-9.238011360168457
▁States	-9.238964080810547
▁fight	-9.23913288116455
▁effective	-9.239288330078125
▁directly	-9.239349365234375
▁loss	-9.239731788635254
iv	-9.239887237548828
▁showed	-9.24007511138916
▁population	-9.240303993225098
▁source	-9.240545272827148
ap	-9.240883827209473
▁explain	-9.24106502532959
▁learning	-9.242542266845703
▁portfolio	-9.243864059448242
▁By	-9.244741439819336
▁contract	-9.245318412780762
▁application	-9.245551109313965
▁warm	-9.246170043945312
▁mid	-9.247237205505371
▁picture	-9.247333526611328
▁physical	-9.247631072998047
▁la	-9.248059272766113
▁commercial	-9.248221397399902
▁wish	-9.248804092407227
▁stood	-9.249431610107422
▁count	-9.249661445617676
▁groups	-9.249773025512695
ger	-9.250032424926758
▁First	-9.250845909118652
▁original	-9.251830101013184
▁Mar	-9.251903533935547
ip	-9.252108573913574
▁piece	-9.25240707397461
▁guys	-9.25243854522705
▁imp	-9.252751350402832
▁surface	-9.253294944763184
▁clinical	-9.253369331359863
▁arm	-9.25457763671875
▁reported	-9.257145881652832
▁Maybe	-9.257844924926758
▁version	-9.259017944335938
▁wide	-9.259749412536621
▁condition	-9.259893417358398
▁recently	-9.260092735290527
▁ran	-9.26019287109375
▁negative	-9.260929107666016
▁spent	-9.261228561401367
▁reduce	-9.261868476867676
▁series	-9.261927604675293
▁stopped	-9.262492179870605
der	-9.263162612915039
▁actual	-9.264620780944824
▁existing	-9.265445709228516
▁summer	-9.265503883361816
▁hour	-9.266851425170898
▁brain	-9.2691011428833
▁wall	-9.269678115844727
ship	-9.27063274383545
▁Trump	-9.271560668945312
▁X	-9.272157669067383
▁giving	-9.272207260131836
▁clearly	-9.272592544555664
▁shape	-9.27273941040039
▁items	-9.273880004882812
▁news	-9.275364875793457
▁limited	-9.276786804199219
▁successful	-9.277477264404297
▁ball	-9.27804183959961
▁national	-9.278332710266113
▁trust	-9.279162406921387
ise	-9.279598236083984
ee	-9.280129432678223
▁stage	-9.28045654296875
▁sent	-9.282045364379883
▁card	-9.283472061157227
▁direct	-9.284272193908691
▁income	-9.284521102905273
▁receive	-9.28466510772705
▁note	-9.285640716552734
▁quick	-9.286651611328125
▁hurt	-9.288019180297852
▁trial	-9.289422988891602
▁built	-9.28944206237793
▁spot	-9.289783477783203
ub	-9.290059089660645
▁While	-9.29024887084961
▁green	-9.290287971496582
com	-9.29279613494873
▁inter	-9.293018341064453
time	-9.295182228088379
▁gas	-9.295427322387695
▁policy	-9.295574188232422
▁benefits	-9.296290397644043
▁Because	-9.296348571777344
▁although	-9.296401977539062
▁books	-9.296941757202148
▁force	-9.297499656677246
bi	-9.297698974609375
▁followed	-9.298550605773926
ab	-9.298935890197754
▁lose	-9.29928207397461
▁screen	-9.299908638000488
▁expression	-9.299935340881348
▁po	-9.300152778625488
▁options	-9.30041217803955
▁effort	-9.300901412963867
▁perhaps	-9.301300048828125
▁Yes	-9.301902770996094
▁sp	-9.302532196044922
▁numbers	-9.303069114685059
ca	-9.303228378295898
▁heat	-9.303815841674805
▁countries	-9.303829193115234
▁organization	-9.304267883300781
▁immediately	-9.30594253540039
▁played	-9.307157516479492
▁seat	-9.30797290802002
▁highly	-9.308159828186035
ud	-9.30834674835205
▁Z	-9.308466911315918
▁lines	-9.308999061584473
▁text	-9.309168815612793
▁larger	-9.3098726272583
▁press	-9.310992240905762
▁understanding	-9.31200122833252
▁agree	-9.31274700164795
▁opened	-9.31387710571289
▁doubt	-9.314868927001953
▁stock	-9.315619468688965
▁movement	-9.315997123718262
tro	-9.316733360290527
▁mouth	-9.316764831542969
One	-9.317487716674805
lin	-9.317502975463867
▁trade	-9.317822456359863
▁activities	-9.318480491638184
▁marketing	-9.318662643432617
let	-9.319684028625488
▁sell	-9.319792747497559
▁walked	-9.320128440856934
▁trip	-9.322787284851074
▁window	-9.322869300842285
▁figure	-9.323201179504395
▁soft	-9.323420524597168
▁fresh	-9.323432922363281
▁wife	-9.323488235473633
▁son	-9.323790550231934
▁character	-9.324891090393066
▁smile	-9.325878143310547
▁host	-9.326271057128906
▁prevent	-9.326676368713379
▁send	-9.327789306640625
▁thank	-9.32806396484375
▁plans	-9.32824420928955
tri	-9.329668998718262
mon	-9.330827713012695
▁whatever	-9.33126163482666
▁Pro	-9.331354141235352
▁blue	-9.331950187683105
▁box	-9.33199405670166
▁gun	-9.332023620605469
▁gives	-9.334410667419434
▁digital	-9.334794998168945
▁affect	-9.33498764038086
ations	-9.335553169250488
▁complex	-9.336756706237793
side	-9.336847305297852
▁speed	-9.336945533752441
▁ho	-9.337342262268066
▁user	-9.338160514831543
▁comment	-9.33912181854248
▁greater	-9.339585304260254
▁Europe	-9.339704513549805
ke	-9.340507507324219
▁straight	-9.340538024902344
▁waiting	-9.341344833374023
▁definitely	-9.342202186584473
Then	-9.342578887939453
▁aren	-9.342781066894531
ging	-9.344524383544922
fe	-9.34591007232666
▁guidance	-9.345918655395508
▁onto	-9.34665584564209
▁remains	-9.346949577331543
▁York	-9.347989082336426
▁Go	-9.34846019744873
▁breath	-9.348713874816895
▁scale	-9.350408554077148
▁target	-9.350615501403809
▁reached	-9.35068416595459
▁im	-9.350930213928223
ect	-9.352499008178711
▁prices	-9.353949546813965
▁closed	-9.354192733764648
▁meeting	-9.354921340942383
ens	-9.355224609375
▁damage	-9.355266571044922
▁led	-9.355658531188965
▁pulled	-9.356043815612793
ight	-9.357335090637207
ang	-9.358683586120605
▁distribution	-9.358735084533691
da	-9.358964920043945
▁attack	-9.359869003295898
▁notice	-9.359969139099121
▁driving	-9.360588073730469
▁sixteen	-9.361918449401855
▁supply	-9.36197280883789
▁tend	-9.362151145935059
▁happens	-9.36215877532959
▁core	-9.363235473632812
ice	-9.364052772521973
▁provides	-9.364805221557617
▁shot	-9.36662769317627
tor	-9.366937637329102
▁claim	-9.367058753967285
▁volume	-9.367399215698242
que	-9.368123054504395
▁develop	-9.368241310119629
▁significantly	-9.368348121643066
▁bo	-9.368695259094238
▁efforts	-9.369409561157227
▁shown	-9.37149715423584
▁vi	-9.374475479125977
▁comments	-9.374483108520508
▁ideas	-9.375184059143066
▁cancer	-9.375377655029297
▁resources	-9.37569808959961
▁match	-9.376679420471191
▁web	-9.37690258026123
▁solid	-9.378040313720703
cing	-9.378747940063477
tion	-9.379764556884766
ped	-9.380178451538086
▁allowed	-9.383825302124023
▁herself	-9.384720802307129
▁shop	-9.384980201721191
fi	-9.386270523071289
▁purpose	-9.386880874633789
▁reasons	-9.387168884277344
ick	-9.387200355529785
▁international	-9.387528419494629
▁purchase	-9.387646675109863
▁written	-9.387951850891113
▁fair	-9.38888931274414
▁according	-9.38929557800293
▁May	-9.39040470123291
▁amazing	-9.390771865844727
▁brother	-9.390897750854492
▁appear	-9.391203880310059
▁healthy	-9.39196491241455
▁slightly	-9.392057418823242
izing	-9.392983436584473
▁bottom	-9.393777847290039
▁mine	-9.39545726776123
pa	-9.397199630737305
▁edge	-9.397500038146973
▁legal	-9.397533416748047
▁operations	-9.398469924926758
▁race	-9.399693489074707
▁J	-9.39976978302002
▁therefore	-9.400009155273438
▁sun	-9.400651931762695
▁drink	-9.400778770446777
ious	-9.401473999023438
▁Vi	-9.401628494262695
▁John	-9.401884078979492
▁article	-9.40215015411377
▁g	-9.402345657348633
▁types	-9.404766082763672
▁k	-9.405683517456055
▁pass	-9.406025886535645
▁Of	-9.406548500061035
▁insurance	-9.407103538513184
▁learned	-9.407305717468262
act	-9.407686233520508
oc	-9.407748222351074
▁capacity	-9.407751083374023
▁flat	-9.409321784973145
▁talked	-9.41000747680664
▁require	-9.411092758178711
▁margin	-9.411233901977539
▁designed	-9.411356925964355
▁scene	-9.411463737487793
▁serious	-9.411959648132324
▁paid	-9.4121675491333
ea	-9.414348602294922
▁easier	-9.414655685424805
▁plant	-9.417147636413574
▁arms	-9.418623924255371
▁nearly	-9.418676376342773
▁ourselves	-9.41935920715332
bu	-9.419500350952148
▁interested	-9.419919967651367
▁hadn	-9.420393943786621
▁stories	-9.420733451843262
▁correct	-9.421256065368652
▁Ha	-9.421525001525879
▁allows	-9.42156982421875
▁software	-9.421608924865723
▁behavior	-9.42204761505127
▁passed	-9.422333717346191
Some	-9.422554969787598
▁solutions	-9.423105239868164
▁middle	-9.423758506774902
ph	-9.42529010772705
lic	-9.426338195800781
▁shift	-9.42663860321045
▁region	-9.427032470703125
ey	-9.428112030029297
▁improvement	-9.42821979522705
▁discuss	-9.430672645568848
▁Court	-9.430954933166504
▁spread	-9.431303977966309
▁option	-9.43181037902832
▁eleven	-9.432363510131836
▁update	-9.432374000549316
▁appropriate	-9.433126449584961
▁Most	-9.433130264282227
▁expectations	-9.434133529663086
Not	-9.434250831604004
▁file	-9.435748100280762
▁drop	-9.436022758483887
▁generally	-9.436613082885742
▁husband	-9.437790870666504
▁produce	-9.438657760620117
▁includes	-9.439204216003418
▁developed	-9.440290451049805
▁stick	-9.440302848815918
▁charge	-9.440963745117188
ology	-9.441035270690918
▁poor	-9.441043853759766
▁favorite	-9.441655158996582
▁State	-9.441832542419434
▁excited	-9.442636489868164
▁Ho	-9.442981719970703
▁campaign	-9.444170951843262
▁mis	-9.444428443908691
▁Here	-9.44467830657959
▁comp	-9.444927215576172
▁comfortable	-9.445503234863281
▁leading	-9.446390151977539
nd	-9.44678020477295
▁achieve	-9.446858406066895
ft	-9.448502540588379
ier	-9.448582649230957
▁kitchen	-9.44875717163086
▁performed	-9.448908805847168
▁yes	-9.44948673248291
▁request	-9.449888229370117
gu	-9.450387001037598
▁English	-9.451751708984375
ified	-9.45296859741211
▁trouble	-9.453042984008789
▁Pa	-9.453057289123535
ath	-9.453383445739746
▁stress	-9.45385456085205
▁dog	-9.454329490661621
▁traditional	-9.454507827758789
▁mark	-9.454524040222168
▁suggest	-9.45519733428955
▁challenge	-9.45630931854248
▁message	-9.457006454467773
▁wind	-9.457195281982422
▁manage	-9.458195686340332
▁career	-9.45834732055664
▁chair	-9.45849609375
▁ma	-9.459375381469727
▁baby	-9.459492683410645
ction	-9.459906578063965
▁parts	-9.461257934570312
▁Lo	-9.461697578430176
▁strategic	-9.46212387084961
▁increasing	-9.462295532226562
▁programs	-9.4627046585083
▁conference	-9.463689804077148
▁Car	-9.46458625793457
▁critical	-9.46485710144043
▁watching	-9.465089797973633
▁em	-9.465258598327637
▁died	-9.467202186584473
that	-9.467326164245605
▁Ta	-9.467610359191895
mb	-9.468790054321289
▁worse	-9.46985912322998
ries	-9.47001838684082
▁location	-9.471492767333984
▁detail	-9.471529006958008
▁education	-9.471941947937012
ah	-9.472478866577148
▁click	-9.472550392150879
▁dry	-9.474591255187988
▁safety	-9.475911140441895
▁protect	-9.476656913757324
▁extremely	-9.476844787597656
▁taste	-9.478456497192383
▁perspective	-9.47898006439209
▁fourteen	-9.479291915893555
io	-9.479991912841797
ble	-9.480109214782715
ual	-9.480253219604492
▁improved	-9.480995178222656
▁helped	-9.481178283691406
▁boy	-9.481291770935059
▁corner	-9.481553077697754
▁bill	-9.481674194335938
▁band	-9.482199668884277
ile	-9.482294082641602
▁dream	-9.482648849487305
▁competitive	-9.483230590820312
oo	-9.484750747680664
▁pull	-9.485336303710938
ability	-9.485342025756836
ple	-9.485373497009277
▁bank	-9.485440254211426
▁earnings	-9.486143112182617
▁presence	-9.486443519592285
His	-9.486809730529785
▁steps	-9.487508773803711
▁device	-9.48825454711914
▁Once	-9.488933563232422
▁sc	-9.489640235900879
▁worry	-9.490947723388672
▁train	-9.491278648376465
ru	-9.492051124572754
▁seventeen	-9.492171287536621
▁obviously	-9.49291706085205
▁agreement	-9.493257522583008
▁meant	-9.494194030761719
▁pleased	-9.494424819946289
▁useful	-9.495477676391602
▁net	-9.495637893676758
▁rule	-9.495723724365234
ator	-9.496336936950684
▁truly	-9.496798515319824
▁th	-9.497084617614746
▁ro	-9.498037338256836
▁debt	-9.498139381408691
▁Ne	-9.498784065246582
Re	-9.498858451843262
▁prepared	-9.499272346496582
uff	-9.50009536743164
J	-9.500762939453125
▁initial	-9.501382827758789
▁active	-9.501631736755371
▁users	-9.501782417297363
▁accept	-9.501985549926758
ba	-9.502754211425781
▁player	-9.502995491027832
▁South	-9.50318431854248
▁guide	-9.5037841796875
ible	-9.50803279876709
▁determine	-9.51032829284668
▁variety	-9.510486602783203
▁dollar	-9.510805130004883
▁modern	-9.51089096069336
▁excellent	-9.510931015014648
▁sitting	-9.51203727722168
▁retail	-9.514431953430176
▁secret	-9.514904975891113
▁glass	-9.515236854553223
▁continues	-9.516239166259766
▁ship	-9.516504287719727
nc	-9.51667594909668
▁values	-9.5173921585083
▁Ka	-9.517674446105957
ill	-9.51862621307373
▁investments	-9.519630432128906
▁gl	-9.519743919372559
▁primary	-9.519972801208496
▁memory	-9.520354270935059
▁gets	-9.520523071289062
▁equipment	-9.520764350891113
▁fl	-9.522168159484863
▁tools	-9.523978233337402
▁cl	-9.524128913879395
▁Please	-9.525474548339844
▁sex	-9.52650260925293
▁basic	-9.526886940002441
▁segment	-9.527484893798828
▁catch	-9.528844833374023
▁respond	-9.534034729003906
qui	-9.534080505371094
▁Also	-9.534709930419922
ach	-9.534732818603516
▁lo	-9.535408020019531
▁sheet	-9.536564826965332
▁exercise	-9.536609649658203
▁temperature	-9.536789894104004
▁factor	-9.537064552307129
▁daily	-9.537367820739746
▁block	-9.538104057312012
▁maintain	-9.538667678833008
▁City	-9.539138793945312
for	-9.539582252502441
▁handle	-9.540543556213379
▁street	-9.542570114135742
▁vote	-9.54257583618164
▁wonderful	-9.5426607131958
▁decide	-9.543288230895996
men	-9.543622016906738
▁combination	-9.54379653930664
▁assets	-9.544400215148926
▁die	-9.544876098632812
▁rock	-9.544930458068848
ear	-9.545615196228027
▁se	-9.545625686645508
▁hotel	-9.546890258789062
ign	-9.547223091125488
▁Thank	-9.54745864868164
▁counter	-9.548599243164062
▁micro	-9.54862117767334
▁providing	-9.548686981201172
▁popular	-9.549903869628906
mp	-9.550313949584961
▁Sp	-9.550323486328125
▁reality	-9.550888061523438
tter	-9.5521879196167
▁experienced	-9.552318572998047
▁h	-9.552738189697266
▁star	-9.552776336669922
▁fell	-9.552862167358398
gg	-9.5530424118042
▁sweet	-9.553352355957031
▁motion	-9.553611755371094
▁standing	-9.553894996643066
▁Like	-9.554832458496094
▁machine	-9.555370330810547
▁smaller	-9.555550575256348
▁apply	-9.555880546569824
▁sea	-9.556057929992676
▁profit	-9.556337356567383
▁length	-9.557214736938477
▁bi	-9.557326316833496
▁Gr	-9.55760669708252
▁display	-9.557830810546875
▁offers	-9.558544158935547
▁regular	-9.558650016784668
▁generation	-9.558686256408691
▁unit	-9.559295654296875
▁foot	-9.55991268157959
▁perform	-9.560108184814453
▁movie	-9.56037712097168
au	-9.560697555541992
ure	-9.560962677001953
▁link	-9.56108570098877
▁pricing	-9.561164855957031
▁planning	-9.561388969421387
▁finding	-9.561677932739258
ists	-9.561753273010254
▁heavy	-9.562033653259277
▁club	-9.562050819396973
▁methods	-9.562395095825195
▁client	-9.56290340423584
▁daughter	-9.563468933105469
▁TV	-9.56458854675293
cur	-9.565478324890137
▁listen	-9.566657066345215
▁majority	-9.567079544067383
▁concept	-9.567421913146973
▁models	-9.567788124084473
▁powerful	-9.567842483520508
▁partner	-9.568026542663574
▁driven	-9.568531036376953
▁states	-9.568758964538574
▁distance	-9.569584846496582
▁observed	-9.569770812988281
▁skills	-9.569791793823242
▁weather	-9.57036304473877
▁photo	-9.571488380432129
ever	-9.57174015045166
ient	-9.572081565856934
▁farm	-9.574246406555176
▁kill	-9.574492454528809
▁via	-9.574895858764648
▁thirteen	-9.576066970825195
▁interview	-9.576309204101562
▁suit	-9.576970100402832
▁influence	-9.577033042907715
▁bright	-9.577608108520508
▁firm	-9.578392028808594
ric	-9.579488754272461
aw	-9.579851150512695
▁creating	-9.580342292785645
▁rules	-9.581687927246094
▁realize	-9.582011222839355
▁wants	-9.582165718078613
ler	-9.582907676696777
▁spoke	-9.583500862121582
▁War	-9.583876609802246
▁park	-9.584189414978027
ps	-9.585494041442871
▁instance	-9.58726978302002
▁Jesus	-9.587743759155273
▁wonder	-9.588713645935059
port	-9.588805198669434
▁station	-9.588948249816895
▁Are	-9.589282989501953
▁closer	-9.590034484863281
▁places	-9.59005069732666
pt	-9.590156555175781
▁older	-9.590350151062012
▁holding	-9.591254234313965
▁wood	-9.591815948486328
▁University	-9.59270191192627
▁European	-9.592720031738281
▁cycle	-9.593494415283203
ium	-9.59414291381836
▁launch	-9.595041275024414
▁collection	-9.596379280090332
▁images	-9.59756088256836
▁phase	-9.597587585449219
Well	-9.598270416259766
▁tu	-9.598492622375488
▁college	-9.599220275878906
▁actions	-9.599254608154297
▁trans	-9.599390029907227
dge	-9.599482536315918
ory	-9.600619316101074
▁forget	-9.60157585144043
▁caught	-9.601834297180176
▁aware	-9.602455139160156
▁camera	-9.603679656982422
▁previously	-9.603720664978027
▁finished	-9.604569435119629
▁returned	-9.606340408325195
▁pair	-9.607458114624023
▁custom	-9.609095573425293
▁map	-9.609248161315918
▁signal	-9.610067367553711
▁El	-9.611422538757324
▁teams	-9.611451148986816
board	-9.612713813781738
▁leaving	-9.614075660705566
wa	-9.61415958404541
▁cloud	-9.614466667175293
▁communication	-9.61469841003418
▁Na	-9.615625381469727
form	-9.617192268371582
▁coffee	-9.618691444396973
ned	-9.619256973266602
ition	-9.619528770446777
av	-9.619928359985352
▁drug	-9.620485305786133
▁draw	-9.62177562713623
▁discussed	-9.62226390838623
▁presentation	-9.623250007629395
▁realized	-9.623858451843262
▁supposed	-9.624133110046387
▁North	-9.624722480773926
▁slowly	-9.625316619873047
▁raised	-9.625459671020508
▁shut	-9.626029968261719
▁church	-9.626964569091797
By	-9.628180503845215
▁Ga	-9.62829875946045
lan	-9.628305435180664
▁member	-9.628631591796875
▁acquisition	-9.628641128540039
▁despite	-9.629263877868652
▁opinion	-9.629425048828125
che	-9.629796981811523
▁rich	-9.630576133728027
▁tough	-9.630623817443848
▁wear	-9.631043434143066
▁imagine	-9.631141662597656
▁consistent	-9.631631851196289
vo	-9.631632804870605
▁killed	-9.632343292236328
▁regarding	-9.633443832397461
ose	-9.633837699890137
▁properties	-9.634163856506348
▁sister	-9.634244918823242
▁employees	-9.634710311889648
▁described	-9.635595321655273
▁West	-9.636178016662598
nk	-9.63650894165039
▁rain	-9.63652515411377
▁treat	-9.636909484863281
▁appeal	-9.637039184570312
▁conversation	-9.637097358703613
▁internal	-9.637475967407227
▁relative	-9.63801097869873
▁measures	-9.63811206817627
ological	-9.638212203979492
▁traffic	-9.638510704040527
▁ta	-9.638550758361816
▁push	-9.638565063476562
ged	-9.640364646911621
▁crowd	-9.641237258911133
ng	-9.642189979553223
light	-9.642267227172852
▁finish	-9.644256591796875
uc	-9.645136833190918
▁reference	-9.645499229431152
▁construction	-9.645685195922852
▁confidence	-9.647333145141602
▁degree	-9.647346496582031
▁goals	-9.647500038146973
▁former	-9.648283958435059
▁audience	-9.648550987243652
but	-9.649163246154785
Even	-9.649483680725098
gen	-9.649953842163086
den	-9.650364875793457
ade	-9.651473045349121
▁cat	-9.65158748626709
▁mass	-9.651901245117188
▁smooth	-9.652523040771484
▁lay	-9.653301239013672
▁relatively	-9.653623580932617
ase	-9.653675079345703
▁setting	-9.653800010681152
▁Pe	-9.653839111328125
▁Di	-9.654074668884277
▁Many	-9.654260635375977
▁confident	-9.654653549194336
▁doctor	-9.655191421508789
▁thoughts	-9.656920433044434
ification	-9.658283233642578
▁From	-9.65850830078125
▁happening	-9.659415245056152
How	-9.660848617553711
▁statement	-9.660848617553711
over	-9.661016464233398
▁spending	-9.661029815673828
▁thus	-9.66114616394043
od	-9.664338111877441
▁Per	-9.665202140808105
▁separate	-9.66611385345459
▁minute	-9.6663236618042
▁roll	-9.667359352111816
▁garden	-9.668000221252441
▁chain	-9.668391227722168
▁alternative	-9.66877555847168
▁enter	-9.670198440551758
▁covered	-9.671281814575195
▁watched	-9.672061920166016
ki	-9.67230224609375
ren	-9.672411918640137
▁anyway	-9.673694610595703
▁absolutely	-9.673741340637207
▁judge	-9.673872947692871
right	-9.674211502075195
▁completed	-9.675253868103027
▁walking	-9.675966262817383
back	-9.67625617980957
▁forwardlooking	-9.676578521728516
▁frame	-9.676637649536133
▁science	-9.676640510559082
▁changing	-9.676860809326172
▁ch	-9.677254676818848
Although	-9.677486419677734
▁becomes	-9.678373336791992
▁mostly	-9.678385734558105
lar	-9.678465843200684
▁pan	-9.678559303283691
▁Man	-9.67856216430664
▁reduction	-9.678613662719727
▁House	-9.67984676361084
▁budget	-9.680339813232422
▁gain	-9.68067741394043
▁Se	-9.681739807128906
▁ring	-9.681936264038086
▁background	-9.681967735290527
▁rise	-9.682321548461914
▁increases	-9.68286418914795
▁People	-9.683889389038086
▁independent	-9.68403434753418
▁Who	-9.684494972229004
ep	-9.685770988464355
▁requires	-9.68577766418457
X	-9.685894966125488
▁presented	-9.686478614807129
▁tea	-9.686911582946777
▁carry	-9.68700885772705
▁bag	-9.687227249145508
▁na	-9.688339233398438
▁profile	-9.68901252746582
▁putting	-9.68915843963623
▁stream	-9.689787864685059
▁Mc	-9.689900398254395
▁discussion	-9.690666198730469
▁smart	-9.690677642822266
▁Ar	-9.690771102905273
▁transition	-9.69095516204834
▁gr	-9.6919527053833
▁ha	-9.69198226928711
Yes	-9.692020416259766
▁India	-9.693124771118164
▁mobile	-9.693475723266602
▁offered	-9.693943977355957
ral	-9.69415283203125
▁pe	-9.694639205932617
▁li	-9.694805145263672
▁feature	-9.695348739624023
▁fix	-9.696118354797363
fa	-9.696430206298828
▁election	-9.696434020996094
▁Oh	-9.697617530822754
▁London	-9.698662757873535
▁opening	-9.698740005493164
▁Although	-9.699840545654297
▁sounds	-9.700368881225586
▁cap	-9.70157527923584
▁asking	-9.701871871948242
▁recommend	-9.701889038085938
▁World	-9.702095031738281
▁reflect	-9.702523231506348
▁double	-9.703981399536133
tan	-9.70401382446289
▁task	-9.704298973083496
▁camp	-9.70449161529541
▁hate	-9.704500198364258
▁differ	-9.704963684082031
of	-9.705046653747559
▁tree	-9.70577335357666
▁dinner	-9.705955505371094
▁sh	-9.706857681274414
▁fish	-9.707830429077148
tting	-9.70836353302002
▁challenges	-9.709002494812012
▁bus	-9.710806846618652
▁Sha	-9.711169242858887
▁sold	-9.711556434631348
▁lu	-9.7118558883667
▁caused	-9.712414741516113
ze	-9.712966918945312
▁engine	-9.715396881103516
▁exist	-9.71605110168457
▁load	-9.716172218322754
ay	-9.717156410217285
▁applications	-9.717398643493652
▁military	-9.717706680297852
▁lived	-9.717903137207031
▁exchange	-9.718128204345703
▁noticed	-9.71837043762207
▁nor	-9.718415260314941
▁weekend	-9.718582153320312
▁January	-9.719939231872559
▁advice	-9.720065116882324
▁smell	-9.720953941345215
▁identify	-9.721007347106934
ened	-9.721625328063965
▁driver	-9.721631050109863
▁filled	-9.722797393798828
▁Jo	-9.723010063171387
Do	-9.723027229309082
▁smiled	-9.723186492919922
▁eventually	-9.723275184631348
ris	-9.72433853149414
▁Bar	-9.725099563598633
▁keeping	-9.725292205810547
▁title	-9.72541332244873
▁economy	-9.72619915008545
▁determined	-9.726311683654785
▁biggest	-9.726751327514648
▁Ki	-9.727577209472656
▁mu	-9.728072166442871
▁quiet	-9.728216171264648
low	-9.728277206420898
▁sa	-9.729248046875
▁battle	-9.729936599731445
▁hearing	-9.731945037841797
▁desire	-9.732080459594727
▁announced	-9.732148170471191
ther	-9.732404708862305
▁assume	-9.73255443572998
▁context	-9.732754707336426
▁society	-9.733139038085938
▁join	-9.7333402633667
▁materials	-9.734896659851074
▁offering	-9.735259056091309
▁cha	-9.735565185546875
▁trend	-9.736011505126953
▁meaning	-9.73648738861084
▁glance	-9.737654685974121
▁vision	-9.737710952758789
▁pen	-9.738253593444824
▁Christian	-9.738449096679688
▁sites	-9.738760948181152
▁advance	-9.738791465759277
▁object	-9.739055633544922
▁explore	-9.739704132080078
off	-9.739812850952148
▁vehicle	-9.739922523498535
▁expand	-9.739985466003418
▁families	-9.740386009216309
▁except	-9.74074935913086
▁fan	-9.742051124572754
▁March	-9.742400169372559
▁primarily	-9.743261337280273
▁relevant	-9.74327278137207
▁fat	-9.744893074035645
▁nation	-9.745139122009277
▁radio	-9.74618911743164
▁student	-9.746813774108887
▁evening	-9.747036933898926
▁sample	-9.747448921203613
▁managed	-9.749194145202637
▁welcome	-9.751072883605957
▁Ri	-9.751127243041992
az	-9.751407623291016
▁reduced	-9.751498222351074
▁devices	-9.7518310546875
▁limit	-9.752485275268555
▁relationships	-9.753188133239746
▁faster	-9.755358695983887
row	-9.755803108215332
▁weak	-9.75584888458252
▁proud	-9.755892753601074
▁ob	-9.756559371948242
▁essential	-9.756876945495605
▁shared	-9.756951332092285
▁repair	-9.757094383239746
▁beat	-9.75760555267334
▁enable	-9.757650375366211
ments	-9.758070945739746
▁Pi	-9.758430480957031
▁measure	-9.758538246154785
▁fill	-9.759021759033203
▁released	-9.759360313415527
▁continuing	-9.759371757507324
▁sta	-9.76008129119873
ult	-9.760781288146973
▁placed	-9.762045860290527
▁remove	-9.762121200561523
▁girls	-9.762469291687012
gi	-9.76280403137207
▁shook	-9.762919425964355
▁differences	-9.76311206817627
▁responsible	-9.763458251953125
▁sale	-9.763492584228516
tu	-9.764745712280273
▁competition	-9.76486873626709
▁metal	-9.764938354492188
▁decline	-9.76496696472168
ised	-9.765145301818848
tra	-9.766121864318848
▁reaction	-9.766427040100098
▁fruit	-9.766815185546875
▁error	-9.767430305480957
▁individuals	-9.768472671508789
▁select	-9.76974868774414
▁connection	-9.770050048828125
▁rec	-9.770118713378906
▁initiatives	-9.770514488220215
▁none	-9.771103858947754
▁Since	-9.7713041305542
▁stores	-9.77205753326416
▁tool	-9.772492408752441
▁grew	-9.77253532409668
▁California	-9.772616386413574
▁Christ	-9.772644996643066
▁central	-9.772829055786133
▁mention	-9.773283004760742
▁fe	-9.773329734802246
▁president	-9.773494720458984
cent	-9.774166107177734
▁pieces	-9.774728775024414
▁novel	-9.774868965148926
▁par	-9.774988174438477
▁prefer	-9.775101661682129
▁appears	-9.777502059936523
▁parties	-9.777528762817383
▁Every	-9.778036117553711
▁picked	-9.778216361999512
▁status	-9.778371810913086
▁Christmas	-9.778419494628906
vis	-9.779091835021973
▁identified	-9.779350280761719
▁holiday	-9.780738830566406
▁surprise	-9.78082275390625
▁delivery	-9.781694412231445
▁June	-9.782248497009277
▁letter	-9.782407760620117
▁decisions	-9.783609390258789
cc	-9.78366756439209
▁telling	-9.784317970275879
ran	-9.784345626831055
▁ba	-9.78493881225586
▁failure	-9.785064697265625
▁plenty	-9.785499572753906
▁package	-9.785605430603027
▁Chinese	-9.78640079498291
▁suddenly	-9.786694526672363
▁miss	-9.786725997924805
▁bigger	-9.78752613067627
▁ended	-9.787689208984375
Of	-9.788349151611328
▁becoming	-9.788387298583984
▁pattern	-9.788434982299805
▁President	-9.788614273071289
▁foreign	-9.78862190246582
▁largest	-9.788680076599121
▁testing	-9.790297508239746
Be	-9.790688514709473
▁helps	-9.791425704956055
▁plate	-9.792436599731445
▁Pre	-9.79247760772705
▁gift	-9.792583465576172
▁journey	-9.792638778686523
▁describe	-9.792810440063477
▁channel	-9.79343032836914
▁promise	-9.793521881103516
med	-9.793529510498047
An	-9.793976783752441
▁born	-9.794000625610352
▁horse	-9.794645309448242
pi	-9.794971466064453
▁established	-9.79587459564209
▁chest	-9.796097755432129
▁helpful	-9.796875953674316
ery	-9.797883987426758
▁consumer	-9.798027038574219
part	-9.798081398010254
▁knows	-9.798111915588379
▁author	-9.798235893249512
▁defendant	-9.79839038848877
▁elements	-9.798848152160645
▁mode	-9.799208641052246
▁British	-9.799783706665039
▁proceed	-9.799878120422363
▁ride	-9.799986839294434
▁arrived	-9.800000190734863
▁fingers	-9.800206184387207
▁cup	-9.801182746887207
▁failed	-9.80225658416748
▁Mi	-9.802417755126953
▁bought	-9.802436828613281
uck	-9.802592277526855
▁recipe	-9.802986145019531
rk	-9.803393363952637
▁jump	-9.803519248962402
fer	-9.803633689880371
▁applied	-9.803857803344727
▁missing	-9.804017066955566
▁wine	-9.804168701171875
▁schedule	-9.804413795471191
▁broken	-9.804546356201172
▁winter	-9.805207252502441
▁appeared	-9.805317878723145
istic	-9.805377006530762
▁selling	-9.80545425415039
▁organic	-9.806097030639648
▁shoulder	-9.806232452392578
▁dress	-9.806904792785645
▁mission	-9.807805061340332
▁partners	-9.80803394317627
▁highest	-9.808927536010742
▁expansion	-9.810066223144531
▁leg	-9.81027889251709
▁pool	-9.810786247253418
▁whose	-9.81091022491455
▁annual	-9.812040328979492
▁shall	-9.81241512298584
▁afternoon	-9.813070297241211
▁otherwise	-9.813464164733887
▁September	-9.813995361328125
▁solve	-9.814556121826172
▁comfort	-9.814657211303711
▁Park	-9.81612777709961
▁Sc	-9.816856384277344
▁pop	-9.816926956176758
▁rep	-9.817256927490234
▁seek	-9.817432403564453
▁Gu	-9.817681312561035
▁San	-9.818069458007812
▁prove	-9.818552017211914
▁raise	-9.818562507629395
▁nu	-9.818896293640137
▁Ex	-9.81920337677002
bs	-9.819480895996094
ug	-9.819727897644043
ox	-9.820304870605469
▁typically	-9.821117401123047
▁processes	-9.821264266967773
▁download	-9.821533203125
▁risks	-9.822164535522461
▁pictures	-9.822637557983398
▁guard	-9.823019027709961
▁generate	-9.823147773742676
▁animals	-9.82315731048584
work	-9.823699951171875
gan	-9.823968887329102
hy	-9.82523250579834
▁National	-9.825506210327148
▁leadership	-9.825878143310547
▁fixed	-9.82593059539795
▁December	-9.826252937316895
str	-9.826835632324219
▁master	-9.82723617553711
her	-9.827348709106445
▁ideal	-9.828445434570312
par	-9.829060554504395
▁portion	-9.829078674316406
▁spring	-9.829156875610352
pp	-9.829496383666992
▁faith	-9.83005142211914
ina	-9.83037281036377
▁expenses	-9.831259727478027
▁sight	-9.83135986328125
▁requirements	-9.831416130065918
▁lock	-9.831453323364258
▁bio	-9.831661224365234
▁ci	-9.831738471984863
▁snow	-9.832416534423828
Just	-9.832921028137207
▁Google	-9.833454132080078
▁weren	-9.833480834960938
▁ice	-9.833539009094238
▁surprised	-9.834121704101562
▁Da	-9.834521293640137
▁command	-9.8349609375
Because	-9.834962844848633
▁efficiency	-9.835108757019043
▁showing	-9.835153579711914
▁invest	-9.835223197937012
▁sha	-9.835545539855957
kin	-9.835734367370605
▁eating	-9.83594036102295
▁leader	-9.836087226867676
▁operation	-9.836569786071777
▁legs	-9.838163375854492
ake	-9.838165283203125
▁tight	-9.838597297668457
▁offset	-9.8390474319458
▁sick	-9.839437484741211
▁pa	-9.839441299438477
▁Will	-9.839578628540039
▁committed	-9.839698791503906
▁button	-9.839849472045898
▁theory	-9.840095520019531
rc	-9.84111213684082
▁federal	-9.841136932373047
nce	-9.841341018676758
val	-9.842185020446777
▁Paul	-9.84295654296875
▁married	-9.84351921081543
▁random	-9.844608306884766
▁technical	-9.844714164733887
▁empty	-9.845046043395996
▁wrote	-9.845380783081055
▁latest	-9.845414161682129
▁visual	-9.845719337463379
pro	-9.846360206604004
▁neck	-9.846755981445312
▁sector	-9.847955703735352
pl	-9.84830379486084
Or	-9.848947525024414
▁recognize	-9.849557876586914
▁truck	-9.850260734558105
▁tissue	-9.850316047668457
▁okay	-9.85062026977539
▁accident	-9.851181030273438
▁efficient	-9.851375579833984
▁Did	-9.851426124572754
▁noise	-9.851531028747559
▁aim	-9.851542472839355
▁Ben	-9.851686477661133
▁clothes	-9.85183048248291
▁Indian	-9.851967811584473
▁Cor	-9.85224437713623
cy	-9.852291107177734
▁timing	-9.853792190551758
▁stronger	-9.854373931884766
▁photos	-9.854413986206055
▁commitment	-9.854472160339355
▁April	-9.855131149291992
my	-9.855719566345215
▁remind	-9.856142044067383
▁leverage	-9.856576919555664
Also	-9.857837677001953
ically	-9.857864379882812
▁margins	-9.858025550842285
▁honest	-9.858297348022461
▁obvious	-9.858338356018066
▁afraid	-9.858418464660645
▁Obama	-9.858521461486816
mark	-9.858933448791504
▁published	-9.859232902526855
First	-9.860086441040039
▁stone	-9.860213279724121
▁served	-9.861705780029297
▁appreciate	-9.862467765808105
▁pet	-9.862655639648438
▁document	-9.86317253112793
▁murder	-9.864004135131836
▁sad	-9.864042282104492
▁helping	-9.865097045898438
▁expensive	-9.865416526794434
▁busy	-9.865509033203125
▁bone	-9.865616798400879
use	-9.86622428894043
▁familiar	-9.866294860839844
wi	-9.867040634155273
▁French	-9.86717414855957
▁loan	-9.868273735046387
▁Y	-9.868908882141113
▁David	-9.869179725646973
▁protection	-9.869487762451172
cr	-9.870221138000488
▁located	-9.872536659240723
▁therapy	-9.872539520263672
Once	-9.873032569885254
▁Each	-9.873311042785645
▁treated	-9.873868942260742
▁specifically	-9.873881340026855
▁conclusion	-9.87393856048584
▁claims	-9.87448501586914
▁gra	-9.8745756149292
▁kid	-9.875896453857422
▁trees	-9.876346588134766
▁song	-9.876980781555176
▁collect	-9.877057075500488
▁earth	-9.877179145812988
▁selection	-9.878474235534668
▁switch	-9.878595352172852
▁transfer	-9.87887954711914
▁characters	-9.879120826721191
▁somewhere	-9.87932300567627
▁peace	-9.879448890686035
▁England	-9.881046295166016
▁throw	-9.881190299987793
▁DNA	-9.881719589233398
▁buying	-9.883084297180176
▁strange	-9.88311767578125
▁Sunday	-9.883249282836914
▁bottle	-9.884428024291992
▁gold	-9.884883880615234
▁route	-9.885307312011719
▁connect	-9.885856628417969
▁mail	-9.886394500732422
▁species	-9.886725425720215
ched	-9.886759757995605
▁August	-9.887557029724121
▁attempt	-9.887855529785156
▁protein	-9.888795852661133
▁reports	-9.888826370239258
▁impossible	-9.88955307006836
▁improving	-9.889852523803711
▁auto	-9.8905611038208
▁football	-9.890644073486328
▁slide	-9.891200065612793
▁Su	-9.8916597366333
▁boat	-9.892163276672363
app	-9.893416404724121
▁Internet	-9.893527030944824
▁developing	-9.893767356872559
▁fuel	-9.89422607421875
▁removed	-9.894707679748535
▁totally	-9.895544052124023
▁Sometimes	-9.895709037780762
▁unless	-9.896303176879883
▁fans	-9.896591186523438
▁threat	-9.896618843078613
▁remained	-9.896895408630371
▁proper	-9.897250175476074
▁crack	-9.89742660522461
▁October	-9.897427558898926
▁argument	-9.897680282592773
▁mental	-9.897759437561035
▁anymore	-9.897984504699707
▁Day	-9.898200988769531
▁element	-9.898408889770508
▁liked	-9.90077018737793
ute	-9.900784492492676
▁pocket	-9.900857925415039
▁root	-9.900995254516602
▁More	-9.901046752929688
▁cast	-9.901144981384277
▁dance	-9.901885032653809
▁Act	-9.902234077453613
ec	-9.902297973632812
▁Where	-9.902433395385742
▁En	-9.902534484863281
▁combined	-9.903535842895508
▁defense	-9.904058456420898
▁carried	-9.905017852783203
▁wild	-9.905609130859375
▁nodded	-9.90617847442627
▁label	-9.906421661376953
▁represent	-9.906786918640137
ration	-9.909138679504395
▁pace	-9.909430503845215
▁server	-9.909582138061523
▁soul	-9.91057014465332
▁female	-9.911116600036621
▁thick	-9.911450386047363
▁mom	-9.912025451660156
▁expense	-9.912481307983398
▁thin	-9.913087844848633
▁Instead	-9.91362190246582
▁fundamental	-9.914183616638184
▁spirit	-9.914514541625977
▁operational	-9.914798736572266
▁concerned	-9.915135383605957
fully	-9.91523265838623
▁carefully	-9.915467262268066
▁lots	-9.915648460388184
Since	-9.917031288146973
▁decrease	-9.917315483093262
▁sharp	-9.917536735534668
▁regard	-9.917754173278809
▁laugh	-9.918128967285156
▁coach	-9.918638229370117
▁conduct	-9.919026374816895
▁speaking	-9.919533729553223
ture	-9.919628143310547
▁adding	-9.919637680053711
rus	-9.919702529907227
▁calm	-9.919759750366211
ency	-9.920209884643555
▁connected	-9.920214653015137
ney	-9.920230865478516
▁feels	-9.920670509338379
eg	-9.920809745788574
▁crime	-9.9216890335083
▁emotional	-9.921957015991211
▁contrast	-9.92226505279541
▁su	-9.922676086425781
▁Black	-9.92390251159668
amp	-9.924710273742676
▁dropped	-9.92477798461914
▁sorry	-9.925652503967285
▁manner	-9.92624282836914
▁promote	-9.926623344421387
▁exciting	-9.926706314086914
St	-9.926803588867188
▁July	-9.927519798278809
ome	-9.927674293518066
ern	-9.927896499633789
ctor	-9.928258895874023
ker	-9.928298950195312
rate	-9.928922653198242
▁UK	-9.92894458770752
▁leaves	-9.92905044555664
▁creative	-9.929197311401367
▁investigation	-9.92982006072998
▁infection	-9.930342674255371
▁produced	-9.930574417114258
za	-9.931510925292969
▁Their	-9.933082580566406
▁sexual	-9.933862686157227
▁obtained	-9.933924674987793
▁lips	-9.934191703796387
▁lie	-9.93554973602295
▁leaders	-9.93618392944336
▁workers	-9.937779426574707
▁entirely	-9.938969612121582
car	-9.939046859741211
▁secure	-9.939081192016602
▁estate	-9.939148902893066
▁willing	-9.939664840698242
From	-9.940067291259766
▁sharing	-9.940397262573242
▁Mu	-9.940619468688965
▁Hu	-9.941165924072266
ane	-9.941267013549805
▁layer	-9.942285537719727
▁November	-9.942434310913086
▁Facebook	-9.942855834960938
▁German	-9.943140983581543
▁Dr	-9.94343376159668
▁odd	-9.943544387817383
▁affected	-9.945131301879883
▁Have	-9.945517539978027
▁PC	-9.94632339477539
▁findings	-9.94658374786377
▁escape	-9.946596145629883
▁fail	-9.946600914001465
▁turning	-9.946911811828613
▁crazy	-9.946921348571777
so	-9.947301864624023
cu	-9.947305679321289
▁pushed	-9.948431015014648
▁capabilities	-9.948456764221191
field	-9.94970703125
ham	-9.949821472167969
▁loud	-9.950186729431152
▁severe	-9.95020866394043
▁anywhere	-9.950264930725098
▁plants	-9.950498580932617
▁score	-9.950530052185059
▁East	-9.951388359069824
ants	-9.951687812805176
▁bear	-9.95235824584961
lf	-9.952617645263672
▁fund	-9.95266342163086
tain	-9.9530029296875
ew	-9.953582763671875
▁obtain	-9.953842163085938
▁possibly	-9.954036712646484
har	-9.954106330871582
▁discover	-9.95428466796875
▁ti	-9.95439624786377
▁freedom	-9.954913139343262
▁mistake	-9.955145835876465
▁strategies	-9.956063270568848
▁pipeline	-9.956462860107422
▁miles	-9.956883430480957
▁shouldn	-9.957052230834961
Your	-9.957181930541992
▁prison	-9.957987785339355
▁everybody	-9.95811653137207
▁cur	-9.958345413208008
nu	-9.958488464355469
▁brief	-9.958796501159668
▁classes	-9.958884239196777
▁sky	-9.959207534790039
▁inventory	-9.959433555603027
▁missed	-9.96008014678955
▁innovation	-9.960505485534668
▁apart	-9.960853576660156
▁comparison	-9.962223052978516
▁Ju	-9.96230411529541
▁entered	-9.962384223937988
▁planned	-9.962908744812012
▁Therefore	-9.963249206542969
serv	-9.963273048400879
▁percentage	-9.963465690612793
▁calls	-9.964213371276855
▁beside	-9.964295387268066
▁usual	-9.965118408203125
▁Mon	-9.965243339538574
▁occur	-9.96569538116455
▁transaction	-9.966354370117188
▁sources	-9.966602325439453
▁properly	-9.967010498046875
▁Good	-9.967480659484863
fo	-9.967633247375488
▁wearing	-9.967696189880371
▁delivered	-9.968096733093262
▁print	-9.968270301818848
During	-9.968448638916016
▁express	-9.969022750854492
▁corporate	-9.969069480895996
▁exposure	-9.969069480895996
▁lunch	-9.969293594360352
ces	-9.96963882446289
▁male	-9.969944953918457
▁refer	-9.9702730178833
▁understood	-9.97118091583252
▁knowing	-9.971184730529785
▁believed	-9.971445083618164
▁remaining	-9.971687316894531
fin	-9.971753120422363
▁Two	-9.971765518188477
▁constant	-9.973174095153809
▁Sam	-9.973517417907715
▁dad	-9.97391128540039
▁internet	-9.974019050598145
▁flash	-9.9750337600708
▁tour	-9.97551155090332
▁mountain	-9.975909233093262
▁dangerous	-9.976055145263672
▁pack	-9.976136207580566
▁Before	-9.97624683380127
▁ongoing	-9.976380348205566
▁twice	-9.976398468017578
▁Other	-9.976921081542969
ai	-9.977655410766602
▁license	-9.978580474853516
▁demonstrate	-9.978632926940918
▁mi	-9.979547500610352
▁Tra	-9.980076789855957
▁wedding	-9.980177879333496
iness	-9.98051643371582
comp	-9.981012344360352
▁fairly	-9.981555938720703
▁forced	-9.981821060180664
if	-9.98189640045166
▁stable	-9.982232093811035
pped	-9.9822359085083
▁yield	-9.983343124389648
▁trends	-9.983997344970703
▁jobs	-9.984314918518066
▁functions	-9.984569549560547
wn	-9.984830856323242
▁surgery	-9.984966278076172
▁harm	-9.985071182250977
▁animal	-9.985564231872559
▁Those	-9.987194061279297
▁returns	-9.987330436706543
▁Col	-9.987468719482422
▁broad	-9.987592697143555
ates	-9.98769474029541
Before	-9.98888874053955
▁Both	-9.98912525177002
which	-9.989219665527344
▁Great	-9.989276885986328
▁smoke	-9.98940372467041
▁cook	-9.989704132080078
▁apartment	-9.990133285522461
▁earn	-9.99028491973877
ja	-9.990482330322266
▁White	-9.990509986877441
▁recovery	-9.990948677062988
ace	-9.992443084716797
▁circumstances	-9.993213653564453
cus	-9.993378639221191
▁Fa	-9.993800163269043
▁alive	-9.993963241577148
▁marriage	-9.994600296020508
▁extend	-9.994766235351562
▁brown	-9.995404243469238
▁challenging	-9.99543285369873
▁belong	-9.99548053741455
▁operate	-9.995680809020996
Let	-9.99582290649414
press	-9.996403694152832
ue	-9.996410369873047
▁intention	-9.996468544006348
Most	-9.997179985046387
▁rose	-9.99778938293457
▁contain	-9.997977256774902
▁talent	-9.99875259399414
▁attractive	-9.999378204345703
▁colour	-10.00048542022705
▁reasonable	-10.00061321258545
▁necessarily	-10.000778198242188
▁payment	-10.000887870788574
▁glad	-10.00200366973877
▁concern	-10.002208709716797
▁whom	-10.002266883850098
▁symptoms	-10.002646446228027
▁Americans	-10.002832412719727
▁cards	-10.004137992858887
ify	-10.004385948181152
▁degrees	-10.004844665527344
air	-10.004851341247559
▁sugar	-10.00490665435791
▁coverage	-10.005123138427734
▁flight	-10.005874633789062
▁importance	-10.006047248840332
▁fashion	-10.006321907043457
▁infrastructure	-10.006378173828125
▁responsibility	-10.007389068603516
▁turns	-10.009044647216797
▁director	-10.009727478027344
▁tired	-10.009922981262207
▁assist	-10.010129928588867
▁storage	-10.011219024658203
▁components	-10.011442184448242
▁Washington	-10.012008666992188
ians	-10.012947082519531
▁hell	-10.013427734375
▁enjoyed	-10.013481140136719
ole	-10.013628005981445
top	-10.013965606689453
▁See	-10.01407527923584
▁waste	-10.014385223388672
qu	-10.014448165893555
▁insight	-10.01507568359375
▁bowl	-10.015181541442871
ix	-10.015579223632812
▁pounds	-10.015731811523438
▁bedroom	-10.015771865844727
▁concentration	-10.016082763671875
▁salt	-10.016090393066406
▁wave	-10.016206741333008
▁mess	-10.016797065734863
▁organ	-10.017343521118164
▁techniques	-10.017882347106934
Her	-10.018488883972168
▁speech	-10.01858139038086
▁basically	-10.020787239074707
▁versus	-10.021148681640625
▁sin	-10.021188735961914
▁copy	-10.021739959716797
▁quarters	-10.022180557250977
ctic	-10.022273063659668
▁predict	-10.022284507751465
▁Red	-10.022767066955566
▁Har	-10.023138046264648
▁tumor	-10.023774147033691
▁reveal	-10.024085998535156
▁administration	-10.024566650390625
▁accounts	-10.025289535522461
▁enhance	-10.025827407836914
▁coat	-10.026605606079102
▁Ja	-10.026763916015625
▁restaurant	-10.026904106140137
▁largely	-10.027466773986816
▁drugs	-10.027488708496094
▁spin	-10.028223991394043
▁bringing	-10.028312683105469
▁lift	-10.028837203979492
▁trail	-10.028919219970703
▁department	-10.029193878173828
▁struggle	-10.029662132263184
▁topic	-10.02968978881836
▁Cha	-10.02994155883789
▁shareholders	-10.030303001403809
▁detailed	-10.03062629699707
▁birth	-10.030782699584961
▁teach	-10.031256675720215
▁sequence	-10.031278610229492
▁Friday	-10.03140926361084
▁input	-10.032062530517578
hu	-10.032794952392578
▁Che	-10.032797813415527
▁sports	-10.033069610595703
▁narrow	-10.033198356628418
▁deposit	-10.034781455993652
▁self	-10.035043716430664
house	-10.035365104675293
▁deserve	-10.035691261291504
▁February	-10.035721778869629
▁judgment	-10.035837173461914
▁rights	-10.036094665527344
ered	-10.036333084106445
▁silence	-10.036879539489746
mate	-10.037582397460938
▁log	-10.037610054016113
▁item	-10.038333892822266
▁leads	-10.03853988647461
▁friendly	-10.038673400878906
ax	-10.038729667663574
▁feed	-10.038737297058105
▁selected	-10.04008674621582
▁tail	-10.040220260620117
▁sufficient	-10.040590286254883
bar	-10.041053771972656
du	-10.04111099243164
▁cream	-10.041526794433594
▁Ch	-10.041975975036621
room	-10.042017936706543
▁perfectly	-10.042263984680176
▁teeth	-10.042693138122559
▁extent	-10.042694091796875
▁achieved	-10.043426513671875
▁underlying	-10.043449401855469
▁boys	-10.043703079223633
Y	-10.043731689453125
▁beach	-10.044027328491211
▁proposed	-10.044334411621094
▁encourage	-10.044623374938965
▁Canada	-10.046862602233887
▁circle	-10.046943664550781
▁le	-10.047741889953613
▁rent	-10.047760963439941
▁plastic	-10.048646926879883
▁asset	-10.048901557922363
▁paying	-10.049051284790039
▁High	-10.050054550170898
▁facility	-10.050399780273438
▁outcome	-10.051291465759277
▁paint	-10.051773071289062
▁debate	-10.052474021911621
▁desk	-10.052494049072266
▁wondering	-10.052721977233887
▁equal	-10.052818298339844
▁prop	-10.053205490112305
▁participants	-10.05323314666748
▁manager	-10.053376197814941
▁kick	-10.053521156311035
▁France	-10.053963661193848
▁panel	-10.054315567016602
ash	-10.05432415008545
▁fighting	-10.054564476013184
▁shoot	-10.055240631103516
down	-10.055305480957031
▁schools	-10.055503845214844
▁joy	-10.055929183959961
▁Lord	-10.056543350219727
▁flavor	-10.056638717651367
▁square	-10.056978225708008
▁row	-10.057291984558105
▁meat	-10.057478904724121
▁concerns	-10.057962417602539
▁names	-10.058412551879883
▁suggested	-10.058451652526855
▁outlook	-10.058711051940918
▁thanks	-10.058863639831543
ties	-10.059022903442383
▁depend	-10.059077262878418
▁matters	-10.06015396118164
▁district	-10.060856819152832
▁favor	-10.061325073242188
▁views	-10.061530113220215
lor	-10.061562538146973
▁studied	-10.061729431152344
▁establish	-10.061736106872559
▁signs	-10.061858177185059
▁starts	-10.062324523925781
Here	-10.062822341918945
▁opposite	-10.06291675567627
▁da	-10.06350040435791
▁fiscal	-10.064285278320312
▁worst	-10.064407348632812
▁Ru	-10.064616203308105
▁adjust	-10.064663887023926
▁mar	-10.064701080322266
▁Another	-10.064719200134277
▁sentence	-10.064719200134277
▁teaching	-10.064794540405273
▁acid	-10.064943313598633
all	-10.065241813659668
▁possibility	-10.065415382385254
▁execution	-10.065594673156738
▁indeed	-10.065654754638672
▁joint	-10.065693855285645
▁rid	-10.065973281860352
yn	-10.066123008728027
▁injury	-10.067208290100098
▁Street	-10.067923545837402
▁conflict	-10.068458557128906
ky	-10.068818092346191
win	-10.068939208984375
▁regions	-10.069021224975586
▁bond	-10.069658279418945
▁reward	-10.069883346557617
▁pitch	-10.070168495178223
▁laws	-10.071243286132812
▁laughed	-10.071314811706543
▁communities	-10.071510314941406
cor	-10.071976661682129
▁du	-10.07298755645752
▁somewhat	-10.073429107666016
▁Only	-10.073461532592773
▁river	-10.074371337890625
▁billion	-10.07508373260498
▁County	-10.07514762878418
▁discovered	-10.075220108032227
▁argue	-10.075505256652832
▁qua	-10.07577896118164
▁samples	-10.076828002929688
▁Nor	-10.07726001739502
▁Yet	-10.077615737915039
▁category	-10.077987670898438
▁survey	-10.078727722167969
▁named	-10.07952880859375
▁official	-10.079846382141113
illa	-10.080501556396484
▁facilities	-10.080842018127441
▁component	-10.081147193908691
▁rare	-10.081462860107422
▁effectively	-10.081550598144531
▁advanced	-10.082542419433594
nie	-10.082599639892578
▁parent	-10.082609176635742
▁angry	-10.08267879486084
▁gap	-10.083240509033203
▁roof	-10.083314895629883
▁install	-10.083795547485352
▁foundation	-10.083844184875488
▁tri	-10.084689140319824
▁occurred	-10.084738731384277
late	-10.084869384765625
gged	-10.086221694946289
nal	-10.086395263671875
▁strike	-10.087058067321777
▁agreed	-10.087581634521484
▁Si	-10.08784294128418
▁border	-10.088188171386719
▁defend	-10.088483810424805
▁filter	-10.089348793029785
▁ultimately	-10.089427947998047
▁ne	-10.089583396911621
▁sand	-10.090031623840332
▁meaningful	-10.090084075927734
▁procedure	-10.090197563171387
ject	-10.090441703796387
▁Thus	-10.090962409973145
▁experiment	-10.091814041137695
oma	-10.091992378234863
▁massive	-10.092019081115723
▁stuck	-10.092344284057617
ju	-10.092351913452148
ening	-10.093006134033203
▁careful	-10.094799041748047
▁tiny	-10.095616340637207
▁intended	-10.095739364624023
▁During	-10.096202850341797
▁Pri	-10.096538543701172
▁finger	-10.096720695495605
point	-10.096933364868164
▁century	-10.097002029418945
▁shopping	-10.097005844116211
▁beauty	-10.09761905670166
▁depending	-10.097668647766113
▁introduced	-10.09814453125
log	-10.098340034484863
▁spa	-10.099773406982422
▁Ti	-10.100423812866211
▁calling	-10.100849151611328
▁Second	-10.101184844970703
▁pot	-10.10175895690918
ters	-10.102287292480469
▁stepped	-10.102313041687012
▁cars	-10.10274600982666
rr	-10.102816581726074
▁App	-10.102945327758789
▁investors	-10.103002548217773
▁Str	-10.10312271118164
▁hi	-10.103670120239258
▁Cl	-10.104937553405762
▁hall	-10.104999542236328
▁protest	-10.105165481567383
rry	-10.105269432067871
▁fi	-10.105374336242676
▁closely	-10.105554580688477
▁broke	-10.10566234588623
▁Was	-10.10598373413086
▁grown	-10.106086730957031
▁labor	-10.106330871582031
▁Take	-10.106807708740234
▁Jack	-10.107026100158691
▁worried	-10.107197761535645
▁cu	-10.107322692871094
▁adapt	-10.107996940612793
▁medium	-10.108022689819336
▁Perhaps	-10.108515739440918
▁neither	-10.10875129699707
▁routine	-10.10875129699707
▁m	-10.108932495117188
▁patterns	-10.109180450439453
▁feelings	-10.109334945678711
▁experiences	-10.111157417297363
ob	-10.111437797546387
▁appearance	-10.111522674560547
▁forms	-10.112374305725098
▁abuse	-10.112739562988281
▁gotten	-10.11292839050293
▁bike	-10.112974166870117
▁nose	-10.113041877746582
tive	-10.113116264343262
▁diet	-10.11318588256836
can	-10.11328411102295
▁x	-10.113472938537598
▁dynamic	-10.113787651062012
▁listening	-10.114354133605957
▁explained	-10.114523887634277
▁mod	-10.114715576171875
▁units	-10.114822387695312
▁shock	-10.114958763122559
▁wheel	-10.115304946899414
▁Tom	-10.115389823913574
▁ear	-10.115585327148438
▁pointed	-10.115864753723145
▁admit	-10.11600399017334
yl	-10.116056442260742
▁allowing	-10.11679744720459
▁monitor	-10.117250442504883
lation	-10.117341995239258
▁adult	-10.117609977722168
▁Make	-10.118069648742676
▁King	-10.118900299072266
▁Saturday	-10.119068145751953
▁habit	-10.119216918945312
▁blow	-10.121118545532227
▁brands	-10.121575355529785
▁constantly	-10.121601104736328
▁harder	-10.122200012207031
Therefore	-10.122339248657227
▁burn	-10.12271785736084
▁contains	-10.122749328613281
▁grade	-10.123116493225098
▁Ad	-10.1235933303833
▁chemical	-10.123991012573242
▁Fi	-10.124462127685547
▁momentum	-10.124773025512695
▁files	-10.125269889831543
▁stayed	-10.126117706298828
▁string	-10.126404762268066
▁contribute	-10.126429557800293
▁milk	-10.126494407653809
▁database	-10.126660346984863
▁island	-10.126862525939941
▁everywhere	-10.128411293029785
▁orders	-10.128992080688477
▁tomorrow	-10.129364967346191
▁exact	-10.12971305847168
▁agent	-10.129999160766602
book	-10.130209922790527
▁delay	-10.13043212890625
▁religious	-10.130444526672363
▁silent	-10.130637168884277
▁bound	-10.13063907623291
▁chart	-10.13099479675293
ulation	-10.131178855895996
▁losing	-10.131217956542969
▁strengthen	-10.131775856018066
▁tests	-10.132437705993652
▁fees	-10.133621215820312
▁defined	-10.133967399597168
▁numerous	-10.134075164794922
eration	-10.134665489196777
rop	-10.134865760803223
▁split	-10.135262489318848
▁gu	-10.135416984558105
▁Finally	-10.135504722595215
Many	-10.135550498962402
▁Earth	-10.135736465454102
▁moral	-10.136434555053711
▁seriously	-10.136537551879883
▁standards	-10.136672019958496
▁Russian	-10.137669563293457
▁external	-10.13803768157959
▁planet	-10.13824462890625
▁recognized	-10.13853645324707
▁supported	-10.138594627380371
▁tro	-10.138923645019531
▁Michael	-10.13972282409668
▁funny	-10.140361785888672
▁James	-10.140615463256836
▁fabric	-10.14098834991455
uring	-10.141009330749512
▁bra	-10.14161205291748
▁walls	-10.141871452331543
▁hang	-10.142036437988281
▁Am	-10.142354965209961
▁integration	-10.142982482910156
▁feedback	-10.143889427185059
▁iron	-10.144824028015137
▁maintenance	-10.145108222961426
▁Fo	-10.145840644836426
roll	-10.146450996398926
▁vary	-10.14657211303711
▁conclude	-10.146661758422852
▁pages	-10.146828651428223
▁plane	-10.147610664367676
ets	-10.147727012634277
▁funds	-10.148032188415527
▁mainly	-10.148093223571777
▁closing	-10.148523330688477
▁transformation	-10.148740768432617
▁Tri	-10.149275779724121
▁considering	-10.150912284851074
▁reserve	-10.151426315307617
▁mini	-10.151823043823242
▁cheap	-10.152273178100586
▁gate	-10.152823448181152
▁occasion	-10.153684616088867
▁storm	-10.153707504272461
▁signed	-10.154006004333496
▁forces	-10.154297828674316
▁plus	-10.154688835144043
▁manufacturing	-10.154701232910156
▁transport	-10.154803276062012
vent	-10.154925346374512
▁instrument	-10.155092239379883
▁depends	-10.155510902404785
▁curve	-10.15594482421875
▁bathroom	-10.156105995178223
han	-10.156424522399902
▁joined	-10.156535148620605
Con	-10.157034873962402
▁recall	-10.15714168548584
▁valuable	-10.157309532165527
▁aspects	-10.157556533813477
▁capture	-10.158029556274414
▁shirt	-10.15914249420166
▁Israel	-10.159751892089844
▁consumers	-10.160045623779297
▁proof	-10.160480499267578
▁accepted	-10.160503387451172
▁improvements	-10.160520553588867
▁revealed	-10.160969734191895
▁decades	-10.161234855651855
▁unable	-10.161445617675781
▁owner	-10.161876678466797
lk	-10.162240028381348
▁react	-10.162402153015137
▁ratio	-10.162708282470703
▁grand	-10.162830352783203
▁somehow	-10.163023948669434
ators	-10.163079261779785
▁association	-10.163138389587402
▁craft	-10.164961814880371
▁description	-10.165112495422363
▁format	-10.165413856506348
▁Ser	-10.166420936584473
Thank	-10.166451454162598
▁fer	-10.16680908203125
▁blame	-10.167179107666016
▁compare	-10.167381286621094
▁tall	-10.167975425720215
▁bread	-10.16833782196045
▁Texas	-10.168340682983398
cal	-10.168375968933105
▁forever	-10.169259071350098
▁Time	-10.169515609741211
rie	-10.169798851013184
▁parameters	-10.170097351074219
▁School	-10.170220375061035
▁aside	-10.170564651489258
▁shadow	-10.170787811279297
▁bodies	-10.170857429504395
▁gene	-10.171061515808105
▁Bu	-10.171514511108398
ack	-10.173614501953125
▁winning	-10.173760414123535
▁Russia	-10.1738862991333
▁evolution	-10.174034118652344
▁ph	-10.174267768859863
how	-10.174422264099121
▁recorded	-10.174572944641113
▁resulting	-10.174814224243164
▁colors	-10.174956321716309
▁incident	-10.175186157226562
▁para	-10.175533294677734
▁surrounding	-10.176188468933105
▁gaze	-10.177152633666992
▁practical	-10.177489280700684
▁stared	-10.17856216430664
▁cities	-10.178656578063965
▁television	-10.178893089294434
Ma	-10.179027557373047
▁chicken	-10.179160118103027
lon	-10.179198265075684
▁taught	-10.179280281066895
▁Wi	-10.179540634155273
ister	-10.179936408996582
▁def	-10.180387496948242
ung	-10.180752754211426
ement	-10.180893898010254
some	-10.180978775024414
▁folks	-10.18104076385498
▁hasn	-10.181299209594727
▁processing	-10.181527137756348
▁moments	-10.181581497192383
▁brush	-10.18171501159668
▁Fe	-10.181772232055664
▁Which	-10.181967735290527
▁hoping	-10.182211875915527
▁indicate	-10.182439804077148
▁tears	-10.182629585266113
▁stretch	-10.182731628417969
▁al	-10.182891845703125
▁dig	-10.182989120483398
▁pray	-10.183387756347656
▁repeat	-10.183615684509277
▁script	-10.183892250061035
▁electronic	-10.185030937194824
▁senior	-10.185050964355469
▁Mac	-10.185404777526855
▁Fl	-10.186285972595215
▁historical	-10.187198638916016
▁windows	-10.187715530395508
ford	-10.188446998596191
▁Any	-10.188631057739258
▁afford	-10.188645362854004
▁episode	-10.189087867736816
▁Air	-10.190045356750488
▁policies	-10.190706253051758
▁z	-10.190825462341309
▁magic	-10.191263198852539
▁terrible	-10.191313743591309
▁substantial	-10.191410064697266
Finally	-10.191649436950684
▁answers	-10.191834449768066
atory	-10.192015647888184
▁pin	-10.192174911499023
▁thousands	-10.19245719909668
Q	-10.192625999450684
▁consideration	-10.192742347717285
ana	-10.193379402160645
with	-10.193631172180176
▁measured	-10.193741798400879
uch	-10.194260597229004
Please	-10.194356918334961
▁profitability	-10.194502830505371
▁Joe	-10.194619178771973
▁runs	-10.194777488708496
▁peak	-10.195133209228516
▁r	-10.19521427154541
cho	-10.195694923400879
▁funding	-10.195778846740723
▁guarantee	-10.196413040161133
▁flu	-10.196578025817871
▁Get	-10.196578979492188
▁tested	-10.196608543395996
▁Germany	-10.196664810180664
▁honor	-10.196805000305176
▁Still	-10.197016716003418
oid	-10.197315216064453
▁relief	-10.197684288024902
▁Department	-10.197820663452148
Don	-10.198559761047363
▁rat	-10.198904991149902
af	-10.19964599609375
▁teacher	-10.199774742126465
▁potentially	-10.200119018554688
▁counsel	-10.20061206817627
well	-10.201003074645996
matic	-10.201299667358398
ef	-10.201545715332031
ken	-10.2019624710083
▁sweat	-10.202265739440918
▁indicated	-10.203716278076172
▁photograph	-10.204083442687988
▁semi	-10.205183982849121
try	-10.2052583694458
▁filed	-10.205288887023926
▁Japan	-10.20539379119873
▁shoes	-10.205528259277344
▁prepare	-10.20607852935791
▁blind	-10.206289291381836
ette	-10.206429481506348
load	-10.206506729125977
▁alcohol	-10.206836700439453
▁drove	-10.208280563354492
day	-10.208677291870117
▁climate	-10.2094087600708
▁Africa	-10.209613800048828
▁trick	-10.209654808044434
lam	-10.209969520568848
▁Comp	-10.21016788482666
▁records	-10.210800170898438
▁deals	-10.210819244384766
▁violence	-10.211236953735352
▁advertising	-10.21130657196045
▁vast	-10.211453437805176
read	-10.212271690368652
▁expressed	-10.212371826171875
▁functional	-10.212438583374023
▁technique	-10.212705612182617
▁barely	-10.212932586669922
nes	-10.21370792388916
emp	-10.213838577270508
▁increasingly	-10.214325904846191
▁definition	-10.214412689208984
▁Congress	-10.214432716369629
▁Australia	-10.214447021484375
▁partnership	-10.21445369720459
▁politics	-10.215034484863281
▁Florida	-10.215173721313477
▁Add	-10.216294288635254
▁creation	-10.216774940490723
▁plaintiff	-10.216904640197754
▁adjusted	-10.218295097351074
▁assessment	-10.218362808227539
▁greatest	-10.218381881713867
▁industrial	-10.218708038330078
▁cop	-10.219249725341797
▁environmental	-10.219552993774414
lay	-10.21985149383545
pon	-10.220674514770508
▁algorithm	-10.220724105834961
▁breakfast	-10.22086238861084
▁diagnosis	-10.220932006835938
▁entry	-10.222497940063477
Like	-10.222622871398926
▁loose	-10.22281551361084
▁lean	-10.222858428955078
▁Look	-10.223135948181152
▁George	-10.223161697387695
▁Center	-10.223170280456543
▁upper	-10.223541259765625
▁motor	-10.223756790161133
▁frequently	-10.223926544189453
▁agents	-10.224638938903809
▁approximately	-10.224749565124512
▁Monday	-10.224814414978027
De	-10.225198745727539
▁neuro	-10.225595474243164
nder	-10.225947380065918
▁stupid	-10.226164817810059
▁younger	-10.227396965026855
▁Western	-10.227458000183105
▁Use	-10.227704048156738
▁fly	-10.227750778198242
▁passion	-10.228181838989258
▁Church	-10.228547096252441
▁j	-10.228715896606445
▁nervous	-10.22875690460205
len	-10.229121208190918
▁Com	-10.22921371459961
▁William	-10.229809761047363
Ex	-10.229988098144531
▁mirror	-10.230722427368164
lly	-10.231304168701172
▁typical	-10.231622695922852
▁sport	-10.231756210327148
ied	-10.231786727905273
▁generated	-10.231816291809082
▁symbol	-10.231818199157715
▁cheese	-10.232129096984863
▁ski	-10.232245445251465
▁yesterday	-10.232269287109375
▁assess	-10.23323917388916
▁Over	-10.233738899230957
ular	-10.235414505004883
bil	-10.235420227050781
▁ease	-10.235747337341309
▁contribution	-10.23613452911377
▁Thanks	-10.236745834350586
▁disorder	-10.237137794494629
▁chosen	-10.237223625183105
▁hide	-10.237682342529297
▁fee	-10.238134384155273
▁choices	-10.238197326660156
▁village	-10.238696098327637
▁fantastic	-10.239261627197266
aries	-10.239404678344727
▁accurate	-10.239481925964355
Maybe	-10.239516258239746
▁session	-10.23974895477295
▁Ed	-10.240407943725586
▁trigger	-10.240610122680664
▁dogs	-10.240976333618164
▁causes	-10.24101734161377
▁fifth	-10.24117660522461
▁throat	-10.241390228271484
▁pla	-10.241666793823242
▁fo	-10.241897583007812
▁sides	-10.242077827453613
▁revenues	-10.242547035217285
▁den	-10.243118286132812
▁extended	-10.243122100830078
des	-10.243200302124023
▁luck	-10.243255615234375
▁painting	-10.243354797363281
▁division	-10.24338150024414
ising	-10.24356746673584
▁waited	-10.24377155303955
▁medicine	-10.24402141571045
ump	-10.244564056396484
mic	-10.24460506439209
▁resolution	-10.244629859924316
ka	-10.244714736938477
▁criminal	-10.24494743347168
▁successfully	-10.244979858398438
▁provision	-10.245019912719727
▁materially	-10.24502182006836
▁output	-10.24570369720459
▁extensive	-10.245803833007812
▁fellow	-10.245828628540039
▁capable	-10.24608039855957
▁peer	-10.246191024780273
▁savings	-10.24625301361084
▁technologies	-10.246374130249023
▁Green	-10.246557235717773
▁skill	-10.247114181518555
▁religion	-10.247374534606934
▁nurse	-10.247403144836426
tel	-10.247709274291992
▁arrive	-10.247754096984863
cept	-10.247859001159668
▁Today	-10.247905731201172
▁chi	-10.248259544372559
▁album	-10.24837589263916
▁compete	-10.248735427856445
▁forth	-10.24969482421875
▁Everyone	-10.250036239624023
▁ver	-10.250062942504883
▁Peter	-10.250527381896973
▁notes	-10.250751495361328
Thus	-10.253110885620117
▁str	-10.253129959106445
gue	-10.253288269042969
▁chose	-10.253388404846191
▁fault	-10.25418472290039
▁genetic	-10.254220008850098
▁kiss	-10.254631042480469
▁relax	-10.254898071289062
▁locations	-10.255072593688965
▁anger	-10.255256652832031
▁dedicated	-10.255480766296387
▁Lu	-10.255751609802246
ttle	-10.256461143493652
▁conservative	-10.256922721862793
▁neighbor	-10.25717830657959
▁scenario	-10.257210731506348
▁Pat	-10.257527351379395
▁stated	-10.257918357849121
pri	-10.257935523986816
▁complicated	-10.258079528808594
▁engagement	-10.258315086364746
▁domain	-10.258596420288086
▁stars	-10.259283065795898
▁volumes	-10.259480476379395
fu	-10.25970458984375
▁chat	-10.26007080078125
▁hole	-10.260075569152832
▁evaluate	-10.260109901428223
▁bomb	-10.260177612304688
rac	-10.26019287109375
▁exception	-10.260333061218262
▁approval	-10.260536193847656
▁muscle	-10.260738372802734
▁posted	-10.26082992553711
▁somebody	-10.26135540008545
▁identity	-10.261549949645996
dding	-10.261552810668945
▁comm	-10.262598991394043
▁fields	-10.262717247009277
▁Cr	-10.26286792755127
▁mechanism	-10.262877464294434
▁dozen	-10.262922286987305
▁longterm	-10.263080596923828
▁domestic	-10.263436317443848
vol	-10.264670372009277
▁library	-10.264962196350098
ale	-10.26497745513916
▁minimum	-10.265034675598145
▁brings	-10.265073776245117
long	-10.265226364135742
▁According	-10.265685081481934
▁bridge	-10.265762329101562
jo	-10.266094207763672
▁demonstrated	-10.26700210571289
▁lawyer	-10.267210960388184
▁shake	-10.26731014251709
▁lucky	-10.267744064331055
▁highlight	-10.268338203430176
▁premium	-10.268678665161133
▁suspect	-10.26879596710205
▁conducted	-10.268798828125
▁retain	-10.269538879394531
▁drawing	-10.269641876220703
▁cultural	-10.269721984863281
▁origin	-10.269767761230469
▁Art	-10.26995849609375
phy	-10.27013874053955
▁officer	-10.270263671875
▁stomach	-10.270430564880371
zz	-10.270718574523926
▁frequency	-10.270723342895508
▁famous	-10.270869255065918
▁succeed	-10.271821022033691
▁pure	-10.27204704284668
▁define	-10.272208213806152
▁dimension	-10.272773742675781
▁Does	-10.272932052612305
▁owners	-10.274031639099121
▁liquid	-10.274270057678223
According	-10.27453899383545
cycl	-10.275050163269043
▁objects	-10.275176048278809
▁facts	-10.275452613830566
▁agency	-10.275796890258789
▁variation	-10.275930404663086
cer	-10.276052474975586
▁doors	-10.27612018585205
▁officers	-10.27619743347168
▁reform	-10.276898384094238
▁charges	-10.277220726013184
▁outcomes	-10.277402877807617
▁facing	-10.278289794921875
▁replace	-10.279645919799805
▁nobody	-10.280099868774414
▁column	-10.280572891235352
▁practices	-10.281316757202148
gra	-10.281816482543945
▁intervention	-10.281828880310059
▁dust	-10.2822847366333
▁formal	-10.282661437988281
▁drivers	-10.28270435333252
gar	-10.283381462097168
▁explanation	-10.283827781677246
▁cheek	-10.283975601196289
▁north	-10.284062385559082
struct	-10.284259796142578
▁danger	-10.28459358215332
▁expert	-10.284780502319336
▁i	-10.28493881225586
▁represents	-10.285514831542969
▁confirmed	-10.28598690032959
▁Bill	-10.286019325256348
▁bother	-10.286802291870117
▁south	-10.286822319030762
nic	-10.287034034729004
▁height	-10.287044525146484
▁serving	-10.28754711151123
▁cry	-10.287592887878418
▁hyper	-10.287694931030273
▁objective	-10.287810325622559
▁wire	-10.288023948669434
▁Mary	-10.288162231445312
▁minor	-10.288444519042969
▁recover	-10.288557052612305
lia	-10.288829803466797
▁resistance	-10.289481163024902
▁existence	-10.289830207824707
▁hardly	-10.290310859680176
ugh	-10.291302680969238
ons	-10.29152774810791
▁guests	-10.291990280151367
▁meal	-10.2919921875
ray	-10.292015075683594
▁plays	-10.292967796325684
wood	-10.293289184570312
▁ramp	-10.29361629486084
▁MM	-10.29380989074707
▁witness	-10.294093132019043
▁acquisitions	-10.294121742248535
▁readers	-10.294273376464844
▁lights	-10.294302940368652
▁collected	-10.294478416442871
▁depth	-10.294706344604492
▁officials	-10.295071601867676
pers	-10.2953519821167
▁Gi	-10.295363426208496
▁thread	-10.295537948608398
▁spiritual	-10.295794486999512
▁cho	-10.295977592468262
▁crew	-10.296380996704102
▁crash	-10.29651927947998
▁mad	-10.29686450958252
▁Un	-10.29690170288086
itive	-10.297419548034668
▁cake	-10.297717094421387
mar	-10.297961235046387
▁award	-10.298063278198242
osis	-10.298465728759766
▁Sal	-10.29849910736084
▁cluster	-10.298608779907227
duct	-10.29869556427002
▁tie	-10.298956871032715
▁implementation	-10.299481391906738
▁Mark	-10.299612998962402
ov	-10.29995059967041
▁dealing	-10.300086975097656
▁poll	-10.30013656616211
▁contracts	-10.30044937133789
▁pleasure	-10.300514221191406
▁experts	-10.3007230758667
▁discount	-10.301037788391113
▁quote	-10.30114459991455
▁landscape	-10.301797866821289
▁colon	-10.301830291748047
ock	-10.302170753479004
▁delivering	-10.302443504333496
▁wondered	-10.302693367004395
▁steel	-10.302996635437012
ez	-10.3032808303833
▁Commission	-10.30466079711914
▁butter	-10.304855346679688
▁communicate	-10.30487060546875
▁strain	-10.305442810058594
▁breast	-10.305476188659668
▁awesome	-10.305557250976562
▁yellow	-10.30562686920166
▁crisis	-10.305704116821289
▁tip	-10.306747436523438
▁attitude	-10.306777000427246
ella	-10.307347297668457
▁suffer	-10.307703971862793
▁et	-10.308237075805664
▁confirm	-10.308509826660156
▁links	-10.309128761291504
old	-10.309772491455078
▁automatically	-10.309966087341309
▁documents	-10.30997371673584
▁uses	-10.310320854187012
▁blend	-10.31110954284668
▁squ	-10.311505317687988
▁false	-10.311630249023438
▁lung	-10.312010765075684
▁attend	-10.312254905700684
▁incredible	-10.312314987182617
▁expertise	-10.313098907470703
▁approved	-10.314024925231934
hood	-10.314077377319336
▁strongly	-10.31459903717041
▁joke	-10.314674377441406
▁shower	-10.314772605895996
▁categories	-10.31483268737793
▁disc	-10.315104484558105
rg	-10.315301895141602
▁Frank	-10.316147804260254
▁Ni	-10.316254615783691
▁draft	-10.316364288330078
▁shoulders	-10.31644344329834
▁supplement	-10.316595077514648
▁evil	-10.316825866699219
mal	-10.317554473876953
▁Reg	-10.317824363708496
▁lovely	-10.31790828704834
▁port	-10.317947387695312
▁deeply	-10.318073272705078
▁visitors	-10.318405151367188
▁purposes	-10.318702697753906
ches	-10.319435119628906
▁unknown	-10.319891929626465
▁tips	-10.320008277893066
▁sets	-10.3202543258667
▁Je	-10.320826530456543
▁Bank	-10.321480751037598
sp	-10.321950912475586
▁channels	-10.322396278381348
▁deeper	-10.32243824005127
aving	-10.322553634643555
▁summary	-10.322815895080566
▁rev	-10.322903633117676
ev	-10.32312297821045
▁literature	-10.323123931884766
ya	-10.323151588439941
▁tonight	-10.323511123657227
▁pi	-10.323776245117188
▁General	-10.32398796081543
▁plot	-10.324217796325684
▁rank	-10.324283599853516
▁Nothing	-10.324478149414062
▁flexibility	-10.324827194213867
▁scheme	-10.325362205505371
▁formed	-10.32538890838623
▁pursue	-10.32544231414795
▁suffering	-10.325891494750977
▁n	-10.326061248779297
▁laid	-10.326764106750488
▁raw	-10.32688045501709
▁Dan	-10.327293395996094
▁sensor	-10.327618598937988
ivity	-10.328892707824707
▁Apple	-10.329451560974121
▁authority	-10.32961368560791
▁Last	-10.329732894897461
▁Min	-10.330178260803223
▁Bi	-10.330260276794434
▁obligation	-10.330472946166992
▁weird	-10.330802917480469
▁checked	-10.331074714660645
▁personally	-10.331181526184082
▁mixed	-10.331478118896484
▁lying	-10.331646919250488
▁gear	-10.33182144165039
▁shooting	-10.331860542297363
▁uncertainties	-10.331969261169434
▁commission	-10.332493782043457
▁cooking	-10.332502365112305
▁god	-10.334023475646973
▁forest	-10.334376335144043
▁exit	-10.334524154663086
▁Ter	-10.334637641906738
▁grip	-10.334811210632324
▁Again	-10.334856986999512
▁wh	-10.335610389709473
▁regulatory	-10.335777282714844
▁maximum	-10.336000442504883
▁angle	-10.336345672607422
▁coast	-10.336624145507812
▁curious	-10.336980819702148
▁drinking	-10.336991310119629
▁ingredients	-10.337298393249512
▁normally	-10.338233947753906
▁zone	-10.338874816894531
▁complain	-10.339372634887695
▁taxes	-10.339388847351074
▁ordered	-10.33940315246582
mat	-10.339408874511719
▁investing	-10.339494705200195
▁suppose	-10.339644432067871
▁Cla	-10.3411865234375
▁Japanese	-10.341592788696289
▁menu	-10.341804504394531
▁seeking	-10.342076301574707
▁currency	-10.342423439025879
▁forecast	-10.342507362365723
▁exceed	-10.342825889587402
atic	-10.342952728271484
▁publish	-10.343047142028809
ib	-10.343061447143555
ked	-10.343637466430664
Instead	-10.343915939331055
▁Cal	-10.344375610351562
▁reliable	-10.345022201538086
Every	-10.345463752746582
▁integrated	-10.345673561096191
rant	-10.346038818359375
▁chip	-10.346065521240234
bal	-10.347345352172852
▁writer	-10.347433090209961
▁Mr	-10.347732543945312
gy	-10.348045349121094
Go	-10.349204063415527
▁remarks	-10.349797248840332
▁formation	-10.349807739257812
box	-10.349837303161621
▁executive	-10.349837303161621
▁sauce	-10.34996509552002
ily	-10.350489616394043
▁grabbed	-10.350492477416992
lie	-10.350748062133789
▁Would	-10.350994110107422
▁Muslim	-10.35102653503418
▁positions	-10.351211547851562
▁robust	-10.35134220123291
▁volunteer	-10.351659774780273
▁civil	-10.351790428161621
nda	-10.351794242858887
rous	-10.352249145507812
▁humans	-10.352391242980957
▁execute	-10.352398872375488
▁convert	-10.352513313293457
▁Asia	-10.352675437927246
▁bunch	-10.352910041809082
▁alter	-10.353280067443848
▁decade	-10.353285789489746
▁suggests	-10.353292465209961
▁boost	-10.353343963623047
Co	-10.353736877441406
▁slip	-10.353975296020508
▁tells	-10.35411548614502
▁Right	-10.354236602783203
▁organizations	-10.354430198669434
▁permanent	-10.354598999023438
▁homes	-10.355203628540039
▁Keep	-10.355391502380371
▁attorney	-10.35539436340332
▁finance	-10.355793952941895
▁classic	-10.356040000915527
▁bath	-10.356537818908691
▁wake	-10.3569974899292
▁hip	-10.357142448425293
▁equity	-10.357344627380371
▁ill	-10.357587814331055
▁mono	-10.357686996459961
lit	-10.357852935791016
▁poly	-10.357935905456543
▁rush	-10.358049392700195
▁unusual	-10.358183860778809
▁rapidly	-10.359598159790039
▁Mike	-10.35988712310791
▁epi	-10.35995101928711
▁attract	-10.36051082611084
▁decor	-10.360917091369629
▁tank	-10.360970497131348
▁nearby	-10.361069679260254
▁aspect	-10.362000465393066
▁electric	-10.362151145935059
▁falling	-10.362719535827637
▁apparently	-10.362774848937988
▁grass	-10.362848281860352
▁neighborhood	-10.362861633300781
▁trained	-10.36339282989502
▁strip	-10.363539695739746
▁priority	-10.363595962524414
▁anticipate	-10.36450481414795
▁encouraged	-10.364914894104004
state	-10.365012168884277
▁Mor	-10.365165710449219
▁characteristics	-10.365365028381348
▁upgrade	-10.365365028381348
▁complaint	-10.365790367126465
▁prayer	-10.366046905517578
▁leaned	-10.366374015808105
▁cleaning	-10.366650581359863
▁Star	-10.366676330566406
▁launched	-10.367576599121094
▁tap	-10.367653846740723
▁teachers	-10.367680549621582
▁Big	-10.36796760559082
▁flag	-10.368034362792969
▁productivity	-10.368072509765625
▁reducing	-10.368617057800293
▁Ken	-10.368931770324707
rup	-10.369081497192383
otic	-10.369751930236816
▁plain	-10.370126724243164
▁extract	-10.371037483215332
▁passing	-10.371217727661133
▁hill	-10.37144660949707
▁lies	-10.37192153930664
gr	-10.372550010681152
▁justice	-10.37304973602295
▁aid	-10.37337589263916
▁sum	-10.373547554016113
▁rolled	-10.373651504516602
▁recommended	-10.373830795288086
cl	-10.373887062072754
▁introduce	-10.374150276184082
▁exc	-10.374156951904297
▁lit	-10.374285697937012
vin	-10.37447452545166
▁regularly	-10.374518394470215
▁celebrate	-10.374602317810059
▁proposal	-10.374602317810059
▁array	-10.374788284301758
▁Hi	-10.375000953674316
▁mood	-10.37604808807373
een	-10.376413345336914
▁supporting	-10.376726150512695
▁tradition	-10.377091407775879
▁index	-10.377201080322266
▁transform	-10.377397537231445
▁saved	-10.377616882324219
▁hidden	-10.377934455871582
▁attribute	-10.378911972045898
▁targets	-10.37906551361084
▁medication	-10.379157066345215
pha	-10.3798189163208
▁dev	-10.379958152770996
▁Mer	-10.380020141601562
▁memories	-10.380136489868164
▁evaluation	-10.380216598510742
▁Rob	-10.380762100219727
▁exp	-10.381366729736328
▁pump	-10.38143539428711
▁slight	-10.381793975830078
▁adults	-10.38251781463623
erson	-10.382705688476562
▁compound	-10.382749557495117
▁shit	-10.382837295532227
hen	-10.382938385009766
▁warrant	-10.383336067199707
▁adjustment	-10.383997917175293
lies	-10.386124610900879
▁circuit	-10.386191368103027
▁dish	-10.386920928955078
▁articles	-10.38752269744873
lock	-10.387588500976562
▁chocolate	-10.387752532958984
turn	-10.387835502624512
▁latter	-10.387970924377441
▁eliminate	-10.387999534606934
▁posts	-10.388547897338867
▁sensitive	-10.388739585876465
▁scientific	-10.388986587524414
▁chapter	-10.389069557189941
▁virus	-10.38911247253418
▁engage	-10.389148712158203
are	-10.389640808105469
bit	-10.390056610107422
net	-10.390660285949707
▁physician	-10.391046524047852
cap	-10.391779899597168
▁merely	-10.391837120056152
▁wound	-10.391921997070312
▁fu	-10.392095565795898
▁examples	-10.392258644104004
▁wrap	-10.392306327819824
▁segments	-10.392379760742188
bl	-10.392601013183594
▁CD	-10.392900466918945
▁banks	-10.393383026123047
▁nuclear	-10.393442153930664
▁movies	-10.393743515014648
▁deck	-10.393786430358887
▁Health	-10.393795013427734
lect	-10.394078254699707
▁ju	-10.394586563110352
▁dose	-10.39492130279541
gging	-10.395096778869629
▁positioned	-10.396289825439453
not	-10.396525382995605
▁Te	-10.396916389465332
▁destroy	-10.39773941040039
▁wing	-10.398375511169434
▁variable	-10.398406028747559
▁Unfortunately	-10.398598670959473
▁representative	-10.398797988891602
▁intra	-10.398908615112305
▁genes	-10.399107933044434
ook	-10.399300575256348
▁dividend	-10.399445533752441
▁Mexico	-10.399496078491211
▁listed	-10.399860382080078
tz	-10.399921417236328
dent	-10.399978637695312
▁survive	-10.400649070739746
▁br	-10.400819778442383
▁scan	-10.400824546813965
▁refused	-10.400825500488281
▁emergency	-10.401078224182129
▁hat	-10.401546478271484
▁parking	-10.401911735534668
▁acknowledge	-10.402161598205566
▁silver	-10.402246475219727
itch	-10.402338027954102
▁Everything	-10.402698516845703
ddle	-10.40274715423584
flow	-10.40294075012207
▁estimate	-10.402941703796387
▁syn	-10.403058052062988
▁rely	-10.403420448303223
▁Win	-10.40382194519043
▁enterprise	-10.403831481933594
▁graduate	-10.404584884643555
▁payments	-10.40478801727295
ica	-10.404891967773438
rb	-10.405136108398438
▁Alex	-10.405218124389648
▁y	-10.405414581298828
▁touched	-10.405484199523926
▁uniform	-10.406341552734375
▁decent	-10.406902313232422
vic	-10.40797233581543
▁Part	-10.40927505493164
▁noted	-10.409832954406738
▁disagree	-10.4100341796875
▁importantly	-10.41003704071045
▁framework	-10.410146713256836
▁resource	-10.410276412963867
▁outdoor	-10.410468101501465
van	-10.410508155822754
▁beer	-10.411046981811523
▁follows	-10.411060333251953
▁participate	-10.411076545715332
▁Roman	-10.411125183105469
▁intend	-10.412022590637207
▁intense	-10.412211418151855
while	-10.41245174407959
vy	-10.412757873535156
▁exhibit	-10.41353702545166
ino	-10.413595199584961
▁defeat	-10.41369915008545
▁tone	-10.414064407348633
tract	-10.414142608642578
▁Robert	-10.415095329284668
▁songs	-10.415512084960938
▁loans	-10.415594100952148
stand	-10.415692329406738
▁experiments	-10.416189193725586
▁updated	-10.416261672973633
bel	-10.41653823852539
▁incredibly	-10.41669750213623
▁awareness	-10.416723251342773
▁River	-10.41682243347168
▁Sch	-10.417043685913086
▁interests	-10.417129516601562
▁Super	-10.417230606079102
▁reverse	-10.417598724365234
chan	-10.417609214782715
▁centre	-10.418377876281738
▁situations	-10.418469429016113
▁examination	-10.418731689453125
▁enemy	-10.418816566467285
▁Canadian	-10.41932487487793
▁artist	-10.41984748840332
▁begins	-10.420184135437012
▁Union	-10.420331001281738
▁flowers	-10.421333312988281
▁suck	-10.421394348144531
ography	-10.421459197998047
▁examine	-10.421517372131348
▁receiving	-10.421533584594727
▁mask	-10.421940803527832
▁furniture	-10.422128677368164
▁anybody	-10.4227933883667
▁loop	-10.423121452331543
▁charged	-10.423240661621094
▁limitations	-10.423282623291016
▁engaged	-10.423471450805664
▁reporting	-10.423720359802246
▁superior	-10.423748016357422
graph	-10.424030303955078
▁expecting	-10.424710273742676
cle	-10.424715042114258
eth	-10.42531967163086
▁Bay	-10.425691604614258
▁correlation	-10.425880432128906
▁interaction	-10.42616081237793
▁permit	-10.426226615905762
stone	-10.426521301269531
▁belief	-10.427301406860352
▁messages	-10.42764949798584
▁steady	-10.4276762008667
▁Life	-10.427730560302734
▁Ph	-10.427824020385742
ong	-10.427926063537598
▁cent	-10.427955627441406
▁duty	-10.428169250488281
▁mal	-10.42831802368164
▁newspaper	-10.428445816040039
▁crucial	-10.428446769714355
xi	-10.42846393585205
▁conversion	-10.42847728729248
▁housing	-10.429139137268066
▁ga	-10.429442405700684
▁vital	-10.429532051086426
▁drawn	-10.42979621887207
▁remote	-10.431021690368652
bri	-10.431086540222168
▁killing	-10.432079315185547
fl	-10.432443618774414
equ	-10.432652473449707
▁immediate	-10.4327392578125
Can	-10.43295669555664
▁inform	-10.433674812316895
▁EU	-10.433935165405273
▁tremendous	-10.434200286865234
▁vehicles	-10.434524536132812
pen	-10.434956550598145
ional	-10.435178756713867
▁essentially	-10.435401916503906
▁candidate	-10.435439109802246
▁stands	-10.435771942138672
▁lease	-10.435914993286133
▁mechanisms	-10.435983657836914
▁streets	-10.436159133911133
▁trading	-10.436205863952637
list	-10.436612129211426
▁exists	-10.436873435974121
▁literally	-10.43729019165039
▁rising	-10.437371253967285
▁saving	-10.437885284423828
▁pur	-10.4379301071167
▁Du	-10.438202857971191
▁intelligence	-10.438343048095703
▁Sun	-10.438509941101074
OS	-10.438729286193848
▁era	-10.438746452331543
▁warning	-10.439031600952148
Each	-10.439247131347656
▁remembered	-10.439338684082031
▁academic	-10.439469337463379
▁creature	-10.439727783203125
ote	-10.440037727355957
path	-10.440230369567871
ith	-10.440496444702148
bin	-10.441128730773926
▁contained	-10.441533088684082
pir	-10.442100524902344
▁Hol	-10.442152976989746
▁implement	-10.442159652709961
▁Inter	-10.442550659179688
▁absolute	-10.442964553833008
▁Tuesday	-10.44328498840332
▁manufacturer	-10.443374633789062
▁scared	-10.4439115524292
▁pilot	-10.444069862365723
▁damn	-10.444348335266113
▁proportion	-10.444592475891113
▁ref	-10.444658279418945
▁delicious	-10.44476318359375
ball	-10.44554615020752
▁bias	-10.44572639465332
▁emotions	-10.446044921875
▁drain	-10.446158409118652
▁Home	-10.446283340454102
▁league	-10.446331024169922
▁prompt	-10.446430206298828
▁employee	-10.446479797363281
▁visible	-10.446687698364258
▁rear	-10.44684886932373
▁Up	-10.44735336303711
ville	-10.447370529174805
Ca	-10.448613166809082
▁rarely	-10.448959350585938
▁bull	-10.449309349060059
▁extreme	-10.449518203735352
▁fulfill	-10.449736595153809
▁performing	-10.450057029724121
▁studio	-10.450089454650879
▁videos	-10.450091361999512
▁naturally	-10.450098991394043
▁bug	-10.45011043548584
▁burden	-10.450224876403809
ware	-10.450575828552246
▁pal	-10.451114654541016
▁impacted	-10.451116561889648
▁structures	-10.451302528381348
▁ignore	-10.451432228088379
▁knee	-10.451741218566895
▁Though	-10.451859474182129
▁inner	-10.451859474182129
▁recognition	-10.452101707458496
▁League	-10.452277183532715
▁Yeah	-10.452937126159668
▁cutting	-10.453112602233887
▁critic	-10.45323371887207
▁authors	-10.45358657836914
▁Twitter	-10.45394515991211
▁figures	-10.453991889953613
▁informed	-10.454028129577637
▁ancient	-10.454132080078125
▁grab	-10.454219818115234
▁comprehensive	-10.454472541809082
▁anxiety	-10.454560279846191
▁regional	-10.454716682434082
▁Bro	-10.455132484436035
▁variables	-10.455184936523438
▁managing	-10.456072807312012
▁residents	-10.45632553100586
▁Board	-10.456425666809082
▁Bea	-10.456557273864746
▁whenever	-10.457412719726562
▁approaches	-10.457710266113281
▁carrying	-10.457794189453125
▁tra	-10.458091735839844
▁filing	-10.458596229553223
▁extension	-10.459229469299316
▁subjects	-10.45947265625
▁node	-10.4595947265625
▁suitable	-10.459854125976562
▁adventure	-10.460555076599121
▁losses	-10.461057662963867
▁Under	-10.461095809936523
▁Very	-10.46135139465332
▁headed	-10.461383819580078
shed	-10.46142864227295
▁hook	-10.461523056030273
▁gentle	-10.462267875671387
▁Work	-10.462315559387207
bble	-10.462568283081055
▁upset	-10.462594032287598
▁rum	-10.462933540344238
▁ri	-10.46420669555664
▁controlled	-10.46436882019043
▁knock	-10.464941024780273
▁struck	-10.465773582458496
▁lap	-10.46606159210205
▁equation	-10.466144561767578
▁replaced	-10.466221809387207
▁expanding	-10.46662425994873
▁attacks	-10.467086791992188
▁universe	-10.467209815979004
don	-10.467586517333984
▁anticipated	-10.467659950256348
▁ban	-10.468284606933594
▁initially	-10.46845817565918
▁proteins	-10.46847152709961
igh	-10.468487739562988
head	-10.468981742858887
▁Read	-10.469361305236816
▁joining	-10.46937084197998
▁flood	-10.469389915466309
▁hero	-10.46943187713623
▁wage	-10.469454765319824
▁scar	-10.469732284545898
▁Shi	-10.469828605651855
▁rooms	-10.46984577178955
chi	-10.470311164855957
▁causing	-10.471497535705566
▁seconds	-10.471678733825684
tail	-10.471709251403809
gress	-10.471800804138184
▁kinds	-10.471868515014648
▁stack	-10.471991539001465
onic	-10.472139358520508
▁privacy	-10.47230052947998
bra	-10.472506523132324
▁Web	-10.4729642868042
▁Group	-10.473634719848633
▁weapons	-10.473769187927246
▁tag	-10.474284172058105
▁detect	-10.474557876586914
▁buildings	-10.47463607788086
▁survival	-10.474804878234863
▁Plan	-10.475205421447754
▁spell	-10.475285530090332
▁threw	-10.475434303283691
▁Ke	-10.4767484664917
▁kit	-10.477935791015625
▁letting	-10.477983474731445
ese	-10.47840404510498
▁settings	-10.47843074798584
▁discipline	-10.478459358215332
▁networks	-10.47848892211914
▁sustainable	-10.478601455688477
itis	-10.478954315185547
▁clinic	-10.479378700256348
lig	-10.479583740234375
▁holds	-10.479701042175293
▁acquired	-10.479714393615723
▁Ab	-10.480005264282227
▁tape	-10.480106353759766
▁paused	-10.480208396911621
▁stability	-10.48066234588623
▁exposed	-10.481143951416016
▁searching	-10.482177734375
▁rating	-10.482261657714844
▁reviews	-10.482534408569336
▁Lake	-10.48255443572998
▁mixture	-10.482824325561523
▁cookies	-10.482831954956055
▁guilty	-10.483295440673828
▁inhibit	-10.483381271362305
▁installed	-10.484150886535645
Any	-10.484918594360352
▁letters	-10.485058784484863
▁interact	-10.485115051269531
▁rational	-10.48537826538086
▁cor	-10.485523223876953
▁Republican	-10.485757827758789
▁wealth	-10.486102104187012
▁chronic	-10.48690128326416
▁MS	-10.487605094909668
▁fluid	-10.48776626586914
▁breaking	-10.488715171813965
▁African	-10.488858222961426
▁soil	-10.489707946777344
▁l	-10.489897727966309
▁Brazil	-10.49044418334961
lea	-10.490543365478516
▁hire	-10.490671157836914
▁involve	-10.491143226623535
▁focusing	-10.491260528564453
▁dreams	-10.491585731506348
▁Va	-10.49207592010498
ough	-10.492646217346191
▁default	-10.492724418640137
▁stain	-10.49279499053955
▁procedures	-10.493552207946777
▁Love	-10.4942626953125
▁grant	-10.494535446166992
ulated	-10.494543075561523
▁Tu	-10.494556427001953
▁assistance	-10.494600296020508
▁heavily	-10.494648933410645
▁millions	-10.495232582092285
▁Em	-10.495789527893066
▁experimental	-10.495891571044922
▁density	-10.49631118774414
▁favorable	-10.496430397033691
▁bow	-10.497084617614746
▁atmosphere	-10.49730110168457
▁conventional	-10.497426986694336
Okay	-10.497453689575195
▁assumptions	-10.4984130859375
▁id	-10.49856948852539
ili	-10.498771667480469
▁attached	-10.498932838439941
▁candidates	-10.499011993408203
▁illegal	-10.499046325683594
▁AM	-10.499163627624512
▁distinct	-10.499345779418945
▁interpret	-10.499648094177246
▁discussions	-10.49972915649414
▁arch	-10.499780654907227
▁beneath	-10.499876976013184
▁Next	-10.500205993652344
▁locked	-10.500566482543945
▁swing	-10.500578880310059
▁native	-10.5006103515625
▁Wednesday	-10.501070022583008
▁absorb	-10.501070022583008
▁moon	-10.501298904418945
oe	-10.501439094543457
▁breathing	-10.50146484375
▁clock	-10.502036094665527
▁instructions	-10.502126693725586
▁u	-10.502557754516602
▁faced	-10.503149032592773
▁franchise	-10.50328254699707
▁revolution	-10.50328254699707
▁mon	-10.503399848937988
▁mortgage	-10.50365161895752
▁birthday	-10.504264831542969
▁Tru	-10.504472732543945
sure	-10.504560470581055
pre	-10.504703521728516
▁consequences	-10.505064010620117
▁confused	-10.505778312683105
▁Come	-10.506649017333984
▁preparation	-10.506888389587402
▁Smith	-10.507261276245117
▁hum	-10.507506370544434
▁statistical	-10.508000373840332
▁recording	-10.508901596069336
▁boss	-10.508990287780762
▁pushing	-10.509093284606934
▁Despite	-10.509533882141113
play	-10.509696960449219
▁aggressive	-10.509868621826172
▁linear	-10.510053634643555
▁issued	-10.510481834411621
▁AC	-10.510612487792969
uous	-10.510973930358887
zy	-10.511025428771973
▁pathway	-10.511159896850586
▁Island	-10.51253604888916
▁register	-10.512706756591797
▁everyday	-10.513012886047363
▁proven	-10.513319969177246
▁reader	-10.513875961303711
▁widely	-10.51443862915039
▁Britain	-10.514466285705566
▁investigate	-10.514730453491211
▁magazine	-10.515165328979492
▁van	-10.51537799835205
▁soldiers	-10.515469551086426
▁scratch	-10.515539169311523
▁moves	-10.515793800354004
▁Op	-10.515880584716797
▁reputation	-10.51609992980957
ria	-10.516286849975586
pher	-10.516329765319824
▁impressive	-10.516358375549316
py	-10.516487121582031
fall	-10.516555786132812
▁marketplace	-10.51678466796875
▁minimal	-10.516836166381836
▁Bible	-10.516846656799316
▁linked	-10.517143249511719
▁sink	-10.5171480178833
▁Chicago	-10.517596244812012
▁consult	-10.518377304077148
▁container	-10.518664360046387
▁restaurants	-10.51892375946045
wo	-10.519015312194824
▁import	-10.519172668457031
▁responses	-10.519433975219727
▁regardless	-10.519665718078613
▁pad	-10.519811630249023
▁resulted	-10.52000617980957
▁Such	-10.520342826843262
▁differently	-10.520355224609375
▁Dad	-10.520687103271484
▁acting	-10.520933151245117
▁eggs	-10.52112865447998
▁university	-10.521160125732422
▁secondary	-10.521430969238281
ching	-10.521665573120117
▁rough	-10.521711349487305
Both	-10.521827697753906
▁assumed	-10.521987915039062
pper	-10.522624969482422
▁dec	-10.522711753845215
oke	-10.522948265075684
▁lifted	-10.523481369018555
▁gonna	-10.523615837097168
▁recruit	-10.523847579956055
▁Bri	-10.523911476135254
▁reflected	-10.524114608764648
▁Clinton	-10.52417278289795
▁possess	-10.524768829345703
▁etc	-10.524852752685547
▁arrangement	-10.52511215209961
▁organized	-10.525230407714844
▁profitable	-10.525249481201172
▁union	-10.526080131530762
▁intent	-10.526318550109863
▁mat	-10.52766227722168
▁jury	-10.528160095214844
met	-10.528244018554688
▁Something	-10.528481483459473
▁absence	-10.528615951538086
▁destination	-10.528705596923828
▁embrace	-10.529462814331055
▁employer	-10.530049324035645
▁consistently	-10.530624389648438
where	-10.53104305267334
▁appointment	-10.531169891357422
▁combine	-10.531415939331055
▁tasks	-10.531947135925293
mination	-10.532422065734863
die	-10.532630920410156
▁examined	-10.53279972076416
▁carrier	-10.533010482788086
▁borrow	-10.534211158752441
▁shipping	-10.534347534179688
cra	-10.534400939941406
▁provider	-10.534449577331543
▁competitors	-10.534637451171875
▁transactions	-10.534710884094238
▁resist	-10.534923553466797
dia	-10.53507137298584
▁army	-10.535233497619629
▁Bob	-10.536386489868164
▁knees	-10.53674030303955
▁leak	-10.536791801452637
▁PM	-10.536848068237305
▁flying	-10.536856651306152
▁grateful	-10.53707218170166
▁targeted	-10.537116050720215
▁op	-10.537415504455566
▁incremental	-10.537452697753906
rated	-10.537869453430176
▁opt	-10.53805160522461
arch	-10.538714408874512
▁melt	-10.53872013092041
ancy	-10.538830757141113
▁limits	-10.53892993927002
▁gender	-10.538982391357422
▁staying	-10.539043426513672
▁giant	-10.53927993774414
meter	-10.53942584991455
ux	-10.540709495544434
▁sleeping	-10.54074478149414
▁formula	-10.54075813293457
▁trace	-10.540946960449219
▁replacement	-10.541155815124512
▁consent	-10.542251586914062
put	-10.542348861694336
▁submit	-10.542545318603516
▁darkness	-10.542896270751953
▁settled	-10.543107986450195
▁airport	-10.54315185546875
Second	-10.54321002960205
▁valid	-10.543238639831543
▁Him	-10.54337215423584
▁maintaining	-10.54338264465332
▁sounded	-10.544373512268066
Se	-10.544638633728027
▁expanded	-10.544678688049316
▁victim	-10.544761657714844
▁Jewish	-10.544968605041504
rating	-10.545578956604004
▁hanging	-10.545703887939453
▁citizens	-10.545897483825684
▁cable	-10.545930862426758
▁visiting	-10.546442031860352
▁Dar	-10.546487808227539
▁slid	-10.546709060668945
▁Thursday	-10.546854972839355
▁Sta	-10.547476768493652
▁Adam	-10.547887802124023
▁Council	-10.548012733459473
▁occurs	-10.54899787902832
▁encounter	-10.549012184143066
▁outstanding	-10.54928207397461
position	-10.550103187561035
▁criteria	-10.5502347946167
▁protocol	-10.550719261169434
▁inspired	-10.551127433776855
▁immune	-10.551202774047852
▁boil	-10.551457405090332
▁commit	-10.551583290100098
▁denied	-10.551655769348145
ene	-10.551827430725098
▁youth	-10.55185317993164
▁stroke	-10.552023887634277
▁indication	-10.552659034729004
▁impression	-10.552850723266602
▁diseases	-10.553460121154785
▁depression	-10.55362606048584
▁Paris	-10.554019927978516
▁fri	-10.554327011108398
▁platforms	-10.554463386535645
▁excuse	-10.554516792297363
▁instant	-10.554971694946289
▁vessel	-10.555180549621582
▁sal	-10.555777549743652
table	-10.556404113769531
▁Brown	-10.55640697479248
▁Four	-10.556621551513672
▁rapid	-10.556659698486328
▁Trans	-10.556687355041504
▁fleet	-10.556814193725586
▁principle	-10.55695629119873
▁loving	-10.557226181030273
▁vertical	-10.557845115661621
lish	-10.558143615722656
range	-10.55838394165039
▁crystal	-10.5595703125
▁dynamics	-10.559613227844238
▁Iraq	-10.56005573272705
▁exceptional	-10.560541152954102
▁browser	-10.56080436706543
▁graphic	-10.561003684997559
▁guest	-10.561577796936035
▁authorities	-10.561810493469238
▁partially	-10.562265396118164
▁implemented	-10.56257152557373
▁Service	-10.56274127960205
▁doctors	-10.563490867614746
▁Dis	-10.563874244689941
More	-10.56406021118164
▁lifestyle	-10.564163208007812
▁Grand	-10.56424617767334
▁sudden	-10.564310073852539
▁desired	-10.564339637756348
▁battery	-10.56448745727539
▁originally	-10.56521224975586
▁burst	-10.56549072265625
▁suffered	-10.565642356872559
▁engineering	-10.565735816955566
▁supplier	-10.566126823425293
▁optimize	-10.566129684448242
▁Without	-10.566330909729004
▁Government	-10.566618919372559
Other	-10.567465782165527
▁completion	-10.56789779663086
like	-10.56794261932373
▁sending	-10.567957878112793
▁Could	-10.56805419921875
▁dear	-10.56818962097168
hor	-10.56867790222168
rov	-10.568693161010742
▁mount	-10.568822860717773
▁settle	-10.568920135498047
▁wash	-10.569023132324219
▁dealer	-10.56912899017334
▁engineer	-10.569171905517578
▁sixth	-10.569278717041016
▁staring	-10.569296836853027
▁dependent	-10.569396018981934
own	-10.569525718688965
aging	-10.569574356079102
ett	-10.56998062133789
▁knife	-10.570756912231445
▁hunt	-10.571197509765625
Another	-10.571414947509766
▁ID	-10.571434020996094
▁diverse	-10.57143783569336
▁household	-10.571451187133789
▁owned	-10.572087287902832
ologist	-10.572155952453613
new	-10.572317123413086
▁interpretation	-10.572684288024902
▁equally	-10.572818756103516
▁scrap	-10.572962760925293
▁emerge	-10.574136734008789
▁wise	-10.574228286743164
▁moderate	-10.574499130249023
▁disappear	-10.574761390686035
▁passenger	-10.574813842773438
▁drew	-10.575013160705566
▁preferred	-10.575047492980957
▁inflation	-10.575620651245117
▁installation	-10.576469421386719
▁ocean	-10.576499938964844
▁patch	-10.5765380859375
▁calculation	-10.576698303222656
▁Play	-10.576787948608398
▁juice	-10.577048301696777
▁lady	-10.577292442321777
▁figured	-10.577353477478027
▁spark	-10.57758903503418
▁cheer	-10.577629089355469
▁pit	-10.577975273132324
▁div	-10.57869815826416
▁pepper	-10.578948020935059
▁Sea	-10.579740524291992
▁consumption	-10.579781532287598
▁pretend	-10.57987117767334
▁Amazon	-10.58008098602295
▁shade	-10.580440521240234
▁alarm	-10.580469131469727
▁granted	-10.580511093139648
uction	-10.580592155456543
▁professionals	-10.580702781677246
▁committee	-10.580780982971191
▁supplies	-10.580878257751465
wise	-10.581060409545898
iff	-10.581336975097656
Despite	-10.581524848937988
▁essay	-10.581677436828613
▁weakness	-10.582294464111328
▁corresponding	-10.582633972167969
▁reflects	-10.582725524902344
▁Sure	-10.58285140991211
▁speaker	-10.58301067352295
▁excess	-10.583024024963379
PS	-10.58310317993164
▁stairs	-10.58331298828125
▁Party	-10.583503723144531
▁Steve	-10.583511352539062
iz	-10.58360481262207
▁ruin	-10.583826065063477
▁painful	-10.584280014038086
▁Italian	-10.584300994873047
▁interface	-10.584526062011719
▁Richard	-10.584717750549316
▁rental	-10.584831237792969
▁casual	-10.58488655090332
▁Ge	-10.585097312927246
▁subsequent	-10.585477828979492
▁providers	-10.585588455200195
▁estimated	-10.586567878723145
▁hardware	-10.586775779724121
▁marked	-10.586976051330566
▁Catholic	-10.586980819702148
▁institutions	-10.58728313446045
▁injuries	-10.587384223937988
▁sought	-10.587708473205566
▁papers	-10.587908744812012
▁plea	-10.58797550201416
▁Cu	-10.588275909423828
▁childhood	-10.588383674621582
▁king	-10.588706016540527
▁International	-10.588788986206055
▁programme	-10.588842391967773
▁answered	-10.58910083770752
▁jo	-10.589138984680176
▁hung	-10.589471817016602
▁clo	-10.589526176452637
char	-10.59017562866211
▁innovative	-10.590498924255371
▁Jim	-10.59058666229248
oon	-10.590651512145996
Today	-10.590906143188477
▁mill	-10.590973854064941
ital	-10.5917387008667
▁accuracy	-10.592111587524414
▁Middle	-10.592682838439941
umb	-10.592845916748047
▁nerve	-10.594548225402832
▁branch	-10.594736099243164
▁stages	-10.596096992492676
ore	-10.596820831298828
▁tear	-10.597219467163086
gle	-10.597355842590332
▁pink	-10.597491264343262
▁ears	-10.597557067871094
▁fiber	-10.597779273986816
▁panic	-10.597888946533203
▁modest	-10.597982406616211
▁relation	-10.598318099975586
▁updates	-10.59864330291748
fil	-10.599626541137695
▁bird	-10.599628448486328
▁enhanced	-10.599745750427246
gene	-10.59980297088623
▁pulling	-10.599960327148438
▁compensation	-10.600111961364746
▁regret	-10.600317001342773
▁capability	-10.600605964660645
▁lens	-10.600605964660645
▁wore	-10.600774765014648
▁bat	-10.600911140441895
▁Whether	-10.601351737976074
▁comparable	-10.601434707641602
▁snap	-10.601597785949707
▁ir	-10.602435111999512
pot	-10.602916717529297
▁bake	-10.6029634475708
▁Old	-10.603306770324707
▁inspiration	-10.603900909423828
▁CS	-10.603955268859863
▁gently	-10.604100227355957
▁Democrats	-10.604334831237793
isation	-10.604656219482422
▁principles	-10.605489730834961
▁illness	-10.605709075927734
IS	-10.606117248535156
▁steal	-10.606146812438965
▁seal	-10.607370376586914
▁Windows	-10.607664108276367
loc	-10.607821464538574
▁disturb	-10.607869148254395
▁interior	-10.607973098754883
rick	-10.608297348022461
▁charm	-10.608404159545898
▁nail	-10.608689308166504
▁winner	-10.608728408813477
cut	-10.609411239624023
▁vacation	-10.609851837158203
place	-10.610089302062988
▁pressed	-10.612137794494629
Li	-10.61229419708252
Their	-10.612508773803711
▁introduction	-10.61290168762207
▁shame	-10.612998962402344
▁Chris	-10.613018035888672
▁correctly	-10.613393783569336
sha	-10.613628387451172
▁collapse	-10.614654541015625
PA	-10.614768981933594
omic	-10.614813804626465
▁Martin	-10.61486530303955
▁satisfaction	-10.61496353149414
▁structural	-10.615067481994629
▁decreased	-10.615163803100586
vari	-10.615254402160645
▁Pan	-10.61616325378418
▁respectively	-10.616231918334961
▁Hill	-10.617173194885254
▁fewer	-10.617246627807617
▁advise	-10.617505073547363
▁grace	-10.617514610290527
▁leather	-10.617547035217285
▁representation	-10.617758750915527
▁barrier	-10.617874145507812
▁Moreover	-10.617939949035645
▁pound	-10.61811351776123
▁insert	-10.618474006652832
▁satisfied	-10.618789672851562
▁enormous	-10.61941146850586
lash	-10.619507789611816
▁convenient	-10.620448112487793
▁satisfy	-10.62044906616211
▁Jeff	-10.620792388916016
nge	-10.621469497680664
▁heading	-10.621650695800781
fr	-10.621766090393066
▁composition	-10.62179946899414
▁export	-10.623213768005371
▁protected	-10.623573303222656
Pa	-10.62382698059082
▁handed	-10.623993873596191
▁begun	-10.624123573303223
▁visited	-10.624180793762207
▁awful	-10.624274253845215
ulate	-10.624335289001465
▁scope	-10.62441349029541
▁clothing	-10.625548362731934
▁preference	-10.625714302062988
▁chief	-10.625908851623535
▁biological	-10.626276016235352
▁arise	-10.627259254455566
▁Ly	-10.627357482910156
▁pu	-10.627588272094727
Lo	-10.627819061279297
▁transmission	-10.62799072265625
▁audio	-10.628107070922852
water	-10.62812614440918
▁grave	-10.628137588500977
Com	-10.628267288208008
▁yard	-10.628646850585938
▁fold	-10.629060745239258
▁dressed	-10.629571914672852
ero	-10.629658699035645
▁pride	-10.629938125610352
icle	-10.630651473999023
▁errors	-10.63117790222168
▁artists	-10.631328582763672
▁tied	-10.63148307800293
▁restore	-10.631732940673828
▁hoped	-10.631911277770996
▁logic	-10.631956100463867
▁flexible	-10.632165908813477
direct	-10.632335662841797
▁prim	-10.63309383392334
Those	-10.633183479309082
▁overcome	-10.63321590423584
cro	-10.633469581604004
▁Harry	-10.633604049682617
▁preserve	-10.633904457092285
▁ordinary	-10.634134292602539
▁accounting	-10.634746551513672
▁returning	-10.635137557983398
▁tune	-10.63539981842041
iding	-10.63553524017334
▁mild	-10.635622024536133
▁sponsor	-10.635924339294434
▁liver	-10.635932922363281
▁Sw	-10.635971069335938
▁invited	-10.63599967956543
▁permission	-10.6362943649292
Over	-10.636442184448242
▁rang	-10.63673210144043
▁maintained	-10.636780738830566
elle	-10.637040138244629
▁adequate	-10.637084007263184
▁Bra	-10.637106895446777
▁consume	-10.637186050415039
▁ray	-10.637310981750488
▁blocks	-10.63752269744873
ively	-10.63757610321045
▁periods	-10.63774299621582
▁scheduled	-10.637804985046387
▁editor	-10.637866973876953
▁authentic	-10.638139724731445
nne	-10.638766288757324
▁monthly	-10.638792991638184
▁represented	-10.638812065124512
▁lifetime	-10.639063835144043
▁unexpected	-10.639090538024902
▁involves	-10.639352798461914
▁spectrum	-10.639618873596191
▁prediction	-10.639839172363281
▁jacket	-10.640411376953125
▁announcement	-10.640663146972656
▁forgotten	-10.640960693359375
▁Ko	-10.640985488891602
▁pleasant	-10.641002655029297
▁bid	-10.64113998413086
▁tension	-10.641244888305664
▁Pla	-10.641404151916504
▁texture	-10.641792297363281
▁Three	-10.641940116882324
▁legacy	-10.642319679260254
▁personality	-10.642797470092773
▁mistakes	-10.642863273620605
▁punch	-10.643855094909668
▁victory	-10.64428424835205
▁Matt	-10.644566535949707
▁orange	-10.644803047180176
▁pile	-10.644843101501465
▁estimates	-10.645216941833496
▁crossed	-10.645350456237793
zo	-10.645637512207031
▁participation	-10.645878791809082
▁Wa	-10.64593505859375
▁pie	-10.646276473999023
▁designer	-10.64682388305664
▁opposed	-10.64714527130127
▁ni	-10.647468566894531
▁sail	-10.647965431213379
▁sighed	-10.648215293884277
▁Queen	-10.64907455444336
▁lake	-10.649304389953613
▁gray	-10.649428367614746
▁fallen	-10.649435043334961
hal	-10.649492263793945
▁greatly	-10.649517059326172
▁radical	-10.649681091308594
▁module	-10.649859428405762
▁tongue	-10.65019416809082
▁Bur	-10.650219917297363
Yet	-10.65046501159668
▁carbon	-10.65061092376709
▁clip	-10.651046752929688
▁Out	-10.65163803100586
▁detection	-10.652168273925781
▁edit	-10.652323722839355
▁reaching	-10.652398109436035
body	-10.652504920959473
▁regulation	-10.65303897857666
▁destroyed	-10.653478622436523
▁venture	-10.653687477111816
▁evaluated	-10.6539888381958
▁icon	-10.654077529907227
▁DC	-10.65418529510498
▁OK	-10.654186248779297
▁weapon	-10.65418815612793
nate	-10.65442943572998
▁detected	-10.654558181762695
▁Ste	-10.654902458190918
▁Furthermore	-10.654951095581055
▁actively	-10.655205726623535
▁simulation	-10.655289649963379
▁render	-10.655342102050781
▁opponent	-10.65550422668457
▁entertainment	-10.656429290771484
▁ticket	-10.656487464904785
hel	-10.656834602355957
▁expectation	-10.656928062438965
▁affordable	-10.6572904586792
▁adopt	-10.657367706298828
▁jumped	-10.65754222869873
▁slice	-10.657879829406738
▁Remember	-10.657889366149902
▁rolling	-10.658208847045898
▁College	-10.658302307128906
▁agencies	-10.658523559570312
▁happiness	-10.658733367919922
▁accelerate	-10.658785820007324
▁publication	-10.659196853637695
▁investigated	-10.659343719482422
▁chill	-10.659370422363281
▁Miss	-10.660106658935547
arian	-10.660219192504883
▁seventh	-10.660794258117676
▁crop	-10.660967826843262
▁tech	-10.661108016967773
Z	-10.661124229431152
▁screw	-10.661221504211426
▁graph	-10.661626815795898
▁Game	-10.661852836608887
▁muscles	-10.66199779510498
▁convinced	-10.662006378173828
AC	-10.662088394165039
▁purchased	-10.662093162536621
▁Australian	-10.662135124206543
▁tube	-10.662208557128906
▁continuous	-10.662273406982422
▁scores	-10.662583351135254
▁signals	-10.662789344787598
▁concrete	-10.663163185119629
▁dining	-10.66321849822998
ature	-10.663433074951172
▁Rock	-10.66384220123291
▁brilliant	-10.664138793945312
▁Try	-10.66642951965332
▁Gar	-10.666457176208496
▁pipe	-10.666620254516602
▁ought	-10.66675853729248
▁meetings	-10.667020797729492
▁Thomas	-10.66728687286377
Furthermore	-10.66798210144043
▁promotion	-10.668113708496094
▁proved	-10.668180465698242
▁fired	-10.668404579162598
▁corn	-10.66901969909668
▁unlikely	-10.669387817382812
▁Mom	-10.670464515686035
▁invention	-10.670570373535156
▁surgical	-10.67066478729248
▁birds	-10.670853614807129
cast	-10.671164512634277
j	-10.671558380126953
▁boxes	-10.673283576965332
▁trials	-10.673373222351074
▁calculated	-10.673442840576172
▁violent	-10.673832893371582
▁Chi	-10.673930168151855
▁asleep	-10.674604415893555
▁Luc	-10.67542552947998
▁gains	-10.675925254821777
Sometimes	-10.6759614944458
▁availability	-10.67613410949707
▁construct	-10.676376342773438
▁Los	-10.676432609558105
▁weigh	-10.676520347595215
▁employment	-10.676637649536133
▁translate	-10.67673110961914
ele	-10.676807403564453
ache	-10.67733383178711
▁observation	-10.67756175994873
▁Er	-10.677945137023926
▁architecture	-10.678576469421387
▁choosing	-10.67888069152832
▁claimed	-10.67892837524414
▁producing	-10.67920970916748
▁Bel	-10.679265022277832
▁tin	-10.68042278289795
▁monitoring	-10.680525779724121
▁powder	-10.68053150177002
▁Think	-10.680784225463867
▁Ver	-10.681044578552246
ocyte	-10.6812105178833
▁deny	-10.681220054626465
you	-10.68155288696289
▁contributed	-10.681777000427246
▁healing	-10.681915283203125
▁Slide	-10.681971549987793
wing	-10.682283401489258
print	-10.68239688873291
▁climb	-10.682524681091309
▁audit	-10.682588577270508
▁acquire	-10.682891845703125
▁Mil	-10.682971000671387
▁CT	-10.68298625946045
▁crush	-10.683009147644043
claim	-10.683070182800293
▁analyzed	-10.68313217163086
▁elsewhere	-10.683208465576172
▁Men	-10.683417320251465
▁gut	-10.683423042297363
▁lab	-10.683652877807617
▁confront	-10.683882713317871
▁bars	-10.68438720703125
▁shell	-10.68448257446289
▁Had	-10.684642791748047
▁Law	-10.685394287109375
cious	-10.685467720031738
▁cancel	-10.685776710510254
▁difficulty	-10.686040878295898
▁IP	-10.686149597167969
berg	-10.686559677124023
▁highlights	-10.687800407409668
▁Scott	-10.687812805175781
▁ceiling	-10.687943458557129
▁Henry	-10.688517570495605
Oh	-10.688590049743652
▁uncertainty	-10.688749313354492
▁rail	-10.68890380859375
▁belt	-10.68891429901123
▁duration	-10.689149856567383
▁struggling	-10.689163208007812
▁promised	-10.689558982849121
▁molecular	-10.689719200134277
▁awake	-10.68974781036377
Ch	-10.690046310424805
▁crying	-10.690642356872559
▁prime	-10.690878868103027
▁producer	-10.690972328186035
▁alleged	-10.69108772277832
▁west	-10.691267967224121
▁parallel	-10.691390037536621
▁fiction	-10.691643714904785
▁Hall	-10.691788673400879
cker	-10.691932678222656
▁immuno	-10.692001342773438
▁molecule	-10.692056655883789
Moreover	-10.692182540893555
▁Central	-10.692391395568848
emia	-10.692798614501953
war	-10.693416595458984
▁cigarette	-10.693730354309082
▁suppress	-10.694400787353516
cher	-10.694757461547852
▁operator	-10.695016860961914
▁surely	-10.695252418518066
▁temporary	-10.695518493652344
▁egg	-10.695676803588867
▁conversations	-10.695786476135254
▁rip	-10.695975303649902
▁AD	-10.696002006530762
▁quit	-10.696009635925293
▁behaviour	-10.696077346801758
▁accomplish	-10.696352005004883
▁palm	-10.697052001953125
▁urban	-10.69743537902832
▁entrance	-10.697870254516602
▁Tim	-10.69861125946045
▁arrest	-10.698740005493164
▁asterisk	-10.69887924194336
▁interactions	-10.69890022277832
▁Cup	-10.699312210083008
▁lessons	-10.699573516845703
Al	-10.699731826782227
▁emerging	-10.69977855682373
cate	-10.700047492980957
▁neutral	-10.700115203857422
▁bump	-10.70033073425293
ality	-10.700641632080078
▁refuse	-10.700661659240723
▁substance	-10.700676918029785
RS	-10.701295852661133
▁Wall	-10.70173454284668
▁urge	-10.701952934265137
People	-10.702540397644043
▁Open	-10.703574180603027
▁Republicans	-10.703681945800781
▁measurements	-10.703686714172363
▁burning	-10.704036712646484
▁spec	-10.704116821289062
▁ultimate	-10.704132080078125
▁affair	-10.704172134399414
▁waves	-10.704499244689941
pic	-10.704710960388184
▁solar	-10.705312728881836
▁lesson	-10.705524444580078
▁covers	-10.705562591552734
▁unlike	-10.7056245803833
▁till	-10.705711364746094
▁smoking	-10.706427574157715
▁stored	-10.706514358520508
▁heaven	-10.706659317016602
▁wrapped	-10.706661224365234
▁Cho	-10.706735610961914
Pro	-10.706893920898438
▁Put	-10.707439422607422
▁broader	-10.70755672454834
▁emission	-10.707868576049805
▁colleagues	-10.707923889160156
▁Han	-10.70811653137207
▁approached	-10.708755493164062
▁cock	-10.70916748046875
▁pig	-10.709315299987793
▁directed	-10.70966911315918
▁diversity	-10.70982551574707
▁alert	-10.710275650024414
▁Services	-10.710679054260254
urg	-10.711199760437012
CC	-10.711252212524414
▁determination	-10.711318969726562
▁addressed	-10.711341857910156
qua	-10.711662292480469
▁correspond	-10.711688995361328
cade	-10.71169662475586
view	-10.711793899536133
▁filling	-10.711878776550293
▁fought	-10.71278190612793
Additionally	-10.712827682495117
▁Free	-10.713272094726562
▁glow	-10.71382999420166
▁briefly	-10.713905334472656
▁dying	-10.714340209960938
Mar	-10.714422225952148
▁repeated	-10.715580940246582
verse	-10.715592384338379
ifying	-10.715702056884766
▁beam	-10.715718269348145
▁Spanish	-10.715856552124023
▁Char	-10.716042518615723
▁ya	-10.716357231140137
▁agenda	-10.716548919677734
▁distinguish	-10.716766357421875
▁shots	-10.717971801757812
▁tire	-10.718401908874512
▁Jen	-10.71844482421875
▁machines	-10.718658447265625
hand	-10.718887329101562
▁gay	-10.718951225280762
▁assert	-10.718982696533203
ek	-10.718992233276367
▁optimal	-10.7191743850708
▁shrugged	-10.719769477844238
▁Post	-10.720632553100586
▁opinions	-10.720756530761719
▁Pu	-10.720757484436035
▁magnetic	-10.721097946166992
▁apple	-10.72114086151123
▁apparent	-10.721587181091309
▁coin	-10.721922874450684
▁bonus	-10.722167015075684
▁Find	-10.722249984741211
▁disconnect	-10.722384452819824
▁delete	-10.72255802154541
▁Max	-10.723023414611816
▁tower	-10.723045349121094
Le	-10.723346710205078
cha	-10.72407341003418
▁CA	-10.724133491516113
▁drunk	-10.72457218170166
RNA	-10.724706649780273
▁configuration	-10.724800109863281
▁Office	-10.724934577941895
▁consist	-10.724957466125488
▁whereas	-10.72509765625
▁toxic	-10.72610092163086
ik	-10.726421356201172
break	-10.7265043258667
▁researchers	-10.726871490478516
▁hack	-10.726880073547363
rog	-10.72711181640625
acy	-10.727164268493652
▁settlement	-10.727331161499023
▁AS	-10.727373123168945
▁vendor	-10.728272438049316
▁metrics	-10.728776931762695
▁eighth	-10.729036331176758
▁intensity	-10.729071617126465
▁hopefully	-10.729360580444336
▁template	-10.729447364807129
▁bulk	-10.729654312133789
▁refresh	-10.72988510131836
▁stranger	-10.72995662689209
▁broadcast	-10.730046272277832
▁pose	-10.730435371398926
▁Plus	-10.730509757995605
Unfortunately	-10.730552673339844
▁si	-10.730828285217285
▁contest	-10.73083782196045
▁oh	-10.731032371520996
▁adopted	-10.733009338378906
▁stem	-10.733329772949219
▁Italy	-10.733626365661621
bro	-10.733699798583984
▁gesture	-10.73405933380127
▁Senate	-10.734137535095215
ural	-10.734170913696289
▁injured	-10.734521865844727
▁ce	-10.734696388244629
▁achievement	-10.734916687011719
▁Company	-10.73510456085205
Mo	-10.735111236572266
▁disaster	-10.73557186126709
▁Johnson	-10.736011505126953
▁victims	-10.736122131347656
look	-10.736150741577148
q	-10.736541748046875
lum	-10.7369384765625
▁regime	-10.737306594848633
▁beliefs	-10.738296508789062
▁tender	-10.738299369812012
▁lip	-10.738463401794434
▁passage	-10.738642692565918
▁divorce	-10.739068031311035
▁reminder	-10.739079475402832
▁binding	-10.739097595214844
▁Besides	-10.739521026611328
▁writers	-10.739554405212402
front	-10.739561080932617
▁disappointed	-10.739575386047363
▁initiative	-10.739575386047363
▁minister	-10.739701271057129
▁CO	-10.74002742767334
▁layers	-10.740044593811035
▁illustrate	-10.74023723602295
▁Supreme	-10.740354537963867
▁reflection	-10.740532875061035
▁fur	-10.74066162109375
▁Year	-10.740872383117676
▁Through	-10.740935325622559
away	-10.741028785705566
▁evident	-10.741290092468262
▁checking	-10.741314888000488
▁transportation	-10.741437911987305
▁gar	-10.741555213928223
ara	-10.7418794631958
▁bite	-10.742192268371582
▁concerning	-10.74239444732666
▁principal	-10.742462158203125
▁east	-10.742814064025879
▁therapeutic	-10.743048667907715
▁bench	-10.743342399597168
▁breathe	-10.743459701538086
▁electrical	-10.744078636169434
▁squeeze	-10.744104385375977
▁tele	-10.744172096252441
▁couch	-10.744308471679688
lip	-10.744606018066406
▁campus	-10.744608879089355
▁rice	-10.74513053894043
▁pregnant	-10.745749473571777
▁physically	-10.745786666870117
▁Latin	-10.745787620544434
▁distract	-10.745845794677734
▁specialist	-10.74630355834961
▁listened	-10.746803283691406
▁enjoying	-10.746868133544922
▁observe	-10.74700927734375
▁rescue	-10.747297286987305
▁ignored	-10.747354507446289
Where	-10.747529029846191
▁indicator	-10.74834156036377
▁regulations	-10.74841594696045
▁educational	-10.749184608459473
▁Mag	-10.749407768249512
▁Blue	-10.749895095825195
Sa	-10.750146865844727
what	-10.750824928283691
▁calendar	-10.750938415527344
▁defect	-10.75122356414795
▁pause	-10.751533508300781
▁conscious	-10.752178192138672
stream	-10.752182006835938
▁petition	-10.752405166625977
▁philosophy	-10.752594947814941
▁robot	-10.75277042388916
▁refine	-10.753442764282227
▁measurement	-10.753859519958496
even	-10.753981590270996
▁Par	-10.754000663757324
▁offense	-10.754018783569336
▁resume	-10.754429817199707
more	-10.754545211791992
▁booking	-10.754590034484863
▁guidelines	-10.754865646362305
▁hypo	-10.755293846130371
ush	-10.7553071975708
▁universal	-10.755322456359863
▁dating	-10.755334854125977
▁sacrifice	-10.755440711975098
RA	-10.756020545959473
▁Power	-10.756044387817383
▁grain	-10.75627326965332
▁cow	-10.75631046295166
mun	-10.756356239318848
▁apps	-10.756977081298828
▁studying	-10.757331848144531
▁wander	-10.758284568786621
▁golf	-10.758350372314453
pho	-10.758440971374512
▁trauma	-10.759156227111816
▁Stan	-10.759200096130371
shop	-10.7594633102417
pect	-10.75954532623291
▁pale	-10.760003089904785
arrow	-10.76003360748291
ibility	-10.760078430175781
gie	-10.760322570800781
▁virtual	-10.760542869567871
▁picking	-10.760674476623535
▁perception	-10.760881423950195
▁Should	-10.761213302612305
▁liberal	-10.761405944824219
▁dive	-10.761865615844727
▁compromise	-10.762113571166992
▁Back	-10.762236595153809
▁pat	-10.764081954956055
▁fool	-10.764364242553711
▁complexity	-10.764424324035645
▁twin	-10.765125274658203
▁pun	-10.765317916870117
▁desert	-10.765374183654785
ula	-10.76648998260498
ok	-10.766736030578613
▁scientists	-10.766791343688965
▁carpet	-10.766928672790527
▁commonly	-10.76761245727539
▁bags	-10.767874717712402
▁demon	-10.768633842468262
▁bitter	-10.768671989440918
▁telephone	-10.769209861755371
▁aircraft	-10.769660949707031
▁encouraging	-10.769673347473145
▁oven	-10.770891189575195
▁trap	-10.770979881286621
▁Anyway	-10.771321296691895
▁covering	-10.771456718444824
▁acute	-10.771787643432617
▁requirement	-10.772337913513184
▁optimistic	-10.772689819335938
▁Greek	-10.77365779876709
▁Microsoft	-10.773777961730957
▁excitement	-10.77389907836914
▁gross	-10.773921966552734
▁disappeared	-10.774566650390625
▁twist	-10.774572372436523
▁combat	-10.774768829345703
▁wooden	-10.775301933288574
▁Arab	-10.775762557983398
▁journalist	-10.775766372680664
▁elected	-10.775785446166992
▁raising	-10.776875495910645
▁Ref	-10.77751636505127
▁gathered	-10.777544975280762
▁Father	-10.778282165527344
▁Asian	-10.778422355651855
▁surrounded	-10.778489112854004
▁hint	-10.778553009033203
▁Never	-10.778617858886719
inate	-10.778883934020996
▁quantum	-10.779109954833984
▁yell	-10.779414176940918
▁usage	-10.779500007629395
▁impressed	-10.779677391052246
▁garage	-10.779834747314453
▁adoption	-10.780799865722656
ari	-10.7808256149292
▁Daniel	-10.781097412109375
▁bullet	-10.781293869018555
icular	-10.781411170959473
▁spoken	-10.781896591186523
▁guitar	-10.782525062561035
▁healthcare	-10.782649993896484
▁intellectual	-10.783013343811035
▁Sur	-10.783048629760742
migrant	-10.783721923828125
▁whisper	-10.784235000610352
▁sensitivity	-10.784357070922852
▁connections	-10.784675598144531
▁Prince	-10.784948348999023
hold	-10.785263061523438
▁steam	-10.785264015197754
AP	-10.785297393798828
mus	-10.785776138305664
▁Charles	-10.785839080810547
▁programming	-10.786532402038574
▁voters	-10.78690242767334
poli	-10.787293434143066
▁gained	-10.78757381439209
▁laughing	-10.787589073181152
▁Check	-10.787842750549316
▁earned	-10.788459777832031
▁topics	-10.78885269165039
▁gym	-10.789153099060059
upp	-10.789194107055664
Two	-10.789392471313477
▁managers	-10.789496421813965
▁iPhone	-10.79085636138916
▁admitted	-10.79098892211914
▁footprint	-10.791057586669922
just	-10.791197776794434
▁legislation	-10.791348457336426
▁bur	-10.791406631469727
▁min	-10.791858673095703
▁occasionally	-10.791924476623535
▁Rose	-10.79217529296875
▁Turn	-10.792736053466797
sses	-10.792928695678711
▁Committee	-10.793073654174805
▁analyze	-10.793127059936523
Un	-10.793238639831543
▁Jews	-10.794254302978516
▁arguments	-10.794304847717285
▁privilege	-10.794307708740234
▁gal	-10.794337272644043
▁restrict	-10.794352531433105
▁courage	-10.794925689697266
▁collective	-10.796048164367676
▁Boston	-10.7964448928833
▁Cat	-10.796904563903809
▁visibility	-10.79727840423584
▁employed	-10.797494888305664
▁subscribe	-10.797539710998535
▁genuine	-10.79759693145752
▁facilitate	-10.798266410827637
▁tourist	-10.799129486083984
▁offerings	-10.799259185791016
town	-10.79927921295166
pan	-10.799348831176758
▁indicates	-10.800065994262695
▁pour	-10.800214767456055
lysis	-10.800253868103027
▁info	-10.800385475158691
▁isolated	-10.800474166870117
▁nutrition	-10.800500869750977
▁badly	-10.800531387329102
bed	-10.800674438476562
▁vitamin	-10.800748825073242
▁mice	-10.801079750061035
▁registered	-10.801291465759277
▁sake	-10.801398277282715
▁meals	-10.801504135131836
Last	-10.801748275756836
▁arrested	-10.802281379699707
▁matches	-10.802362442016602
eb	-10.802865982055664
▁holes	-10.803031921386719
▁Val	-10.803126335144043
▁financing	-10.803984642028809
▁priorities	-10.804427146911621
band	-10.804457664489746
▁mature	-10.804988861083984
▁puzzle	-10.8052339553833
▁translation	-10.80524730682373
▁tab	-10.805303573608398
ena	-10.805706977844238
▁removal	-10.805980682373047
▁leap	-10.806723594665527
maker	-10.806900978088379
▁dirt	-10.807127952575684
▁Water	-10.807486534118652
▁containing	-10.807703971862793
▁resolve	-10.807723999023438
Thanks	-10.807809829711914
▁hated	-10.807884216308594
▁accessible	-10.807960510253906
▁undertake	-10.808170318603516
▁Too	-10.808258056640625
▁demo	-10.80882453918457
▁Having	-10.808961868286133
▁contributions	-10.80913257598877
▁analyses	-10.81043529510498
▁tournament	-10.810613632202148
▁Iran	-10.810914993286133
▁fuck	-10.811111450195312
ending	-10.811162948608398
▁journal	-10.811479568481445
▁hungry	-10.811572074890137
unk	-10.811788558959961
▁ridiculous	-10.811995506286621
▁drag	-10.812467575073242
▁Light	-10.812640190124512
▁exam	-10.812652587890625
▁assignment	-10.813117027282715
▁Call	-10.813424110412598
▁District	-10.813653945922852
▁attempts	-10.81386947631836
▁vegetables	-10.813924789428711
Ne	-10.814644813537598
▁negotiation	-10.81501579284668
▁entering	-10.815096855163574
▁mile	-10.81517219543457
▁registration	-10.815646171569824
▁clue	-10.81571102142334
dom	-10.815964698791504
nel	-10.817285537719727
▁gifts	-10.81762409210205
▁favourite	-10.818022727966309
▁ja	-10.818267822265625
▁Market	-10.81840705871582
▁Whatever	-10.818829536437988
▁hydro	-10.818928718566895
▁assault	-10.819183349609375
▁motivation	-10.819563865661621
rine	-10.819581031799316
▁fraction	-10.819816589355469
▁rig	-10.819979667663574
▁monster	-10.820009231567383
Me	-10.820116996765137
▁utilize	-10.820243835449219
▁blanket	-10.820723533630371
ama	-10.821247100830078
▁spare	-10.82144832611084
▁dispute	-10.821507453918457
▁upcoming	-10.821514129638672
▁cute	-10.821630477905273
inated	-10.821764945983887
▁concluded	-10.821965217590332
▁referred	-10.822391510009766
▁Virginia	-10.822491645812988
▁drift	-10.822607040405273
▁rot	-10.822680473327637
▁EBITDA	-10.822733879089355
▁receptor	-10.822991371154785
▁laptop	-10.8230562210083
▁proposition	-10.82340145111084
▁alongside	-10.82361888885498
▁smiling	-10.823624610900879
▁cried	-10.823882102966309
▁Brad	-10.824039459228516
▁invite	-10.824138641357422
▁honestly	-10.824586868286133
Ha	-10.825042724609375
▁mechanical	-10.825250625610352
▁caution	-10.825374603271484
▁Jane	-10.825424194335938
▁quarterly	-10.825616836547852
▁fade	-10.826003074645996
▁comic	-10.826143264770508
▁breed	-10.826385498046875
izer	-10.827380180358887
▁yards	-10.827947616577148
▁flesh	-10.82796573638916
▁Ana	-10.828184127807617
▁imaging	-10.828454971313477
▁uncomfortable	-10.828466415405273
▁jail	-10.828642845153809
▁beneficial	-10.828849792480469
▁considerable	-10.828944206237793
▁gradually	-10.829071998596191
▁blink	-10.829460144042969
▁damaged	-10.82990837097168
ison	-10.829941749572754
▁attempted	-10.83063793182373
▁reviewed	-10.831806182861328
▁testimony	-10.832050323486328
▁preparing	-10.832181930541992
▁ending	-10.832229614257812
▁spray	-10.832332611083984
▁password	-10.832387924194336
▁cave	-10.832865715026855
▁interrupt	-10.83295726776123
▁relaxed	-10.833085060119629
ola	-10.833501815795898
▁threshold	-10.833590507507324
▁underscore	-10.833719253540039
▁prospects	-10.834242820739746
▁utility	-10.83436107635498
▁balanced	-10.835068702697754
▁Ac	-10.83520221710205
▁eager	-10.8352689743042
plan	-10.835942268371582
▁surprising	-10.836203575134277
▁Wood	-10.836634635925293
ode	-10.836747169494629
▁worldwide	-10.836895942687988
▁involving	-10.837191581726074
▁seasonal	-10.837262153625488
▁blade	-10.837965965270996
▁precise	-10.838272094726562
▁Master	-10.838773727416992
there	-10.839333534240723
▁collaboration	-10.839643478393555
▁alien	-10.839781761169434
▁particles	-10.839947700500488
▁salad	-10.84043025970459
than	-10.840516090393066
▁assigned	-10.840546607971191
▁wrist	-10.840559005737305
▁vulnerable	-10.840936660766602
word	-10.841309547424316
▁emphasize	-10.841324806213379
▁packed	-10.841812133789062
▁tickets	-10.842070579528809
▁divided	-10.842925071716309
▁shout	-10.843000411987305
▁Jones	-10.843558311462402
▁Data	-10.843846321105957
▁undergo	-10.843955993652344
Still	-10.844858169555664
▁membrane	-10.844954490661621
▁publicly	-10.845636367797852
▁greet	-10.845746994018555
▁Android	-10.845766067504883
▁exploit	-10.846124649047852
▁experiencing	-10.846514701843262
▁backward	-10.846735954284668
▁seeds	-10.846909523010254
▁developers	-10.847651481628418
▁pregnancy	-10.84781551361084
▁glasses	-10.84815788269043
bol	-10.84842300415039
▁Lee	-10.848867416381836
Again	-10.848955154418945
▁qualified	-10.849119186401367
▁residential	-10.849479675292969
train	-10.849754333496094
▁golden	-10.849984169006348
▁lesion	-10.849984169006348
ami	-10.85020637512207
▁attended	-10.851295471191406
▁dramatic	-10.851584434509277
▁disclose	-10.851872444152832
▁subtle	-10.852283477783203
▁gathering	-10.85231876373291
▁thrown	-10.852699279785156
▁sew	-10.852775573730469
▁cellular	-10.852805137634277
▁Carl	-10.853403091430664
▁diabetes	-10.853825569152832
▁tries	-10.854443550109863
▁stake	-10.854887962341309
Though	-10.855367660522461
▁fake	-10.855460166931152
▁employ	-10.855491638183594
▁traveling	-10.855571746826172
▁screening	-10.85588550567627
▁horrible	-10.856186866760254
▁roughly	-10.856788635253906
MS	-10.857240676879883
▁imagination	-10.857369422912598
▁overwhelming	-10.85781478881836
▁GP	-10.857830047607422
▁remainder	-10.857830047607422
▁slot	-10.85793399810791
▁worship	-10.858290672302246
▁grasp	-10.85830307006836
▁Okay	-10.858601570129395
▁math	-10.85873794555664
Perhaps	-10.8593168258667
▁trait	-10.859395980834961
▁Book	-10.859437942504883
▁relations	-10.859572410583496
▁harvest	-10.859607696533203
▁dishes	-10.860067367553711
▁ser	-10.860199928283691
▁vac	-10.860225677490234
▁march	-10.860235214233398
run	-10.860282897949219
▁burned	-10.860340118408203
▁handling	-10.86039924621582
▁relates	-10.860471725463867
▁equivalent	-10.860662460327148
▁None	-10.861644744873047
▁frozen	-10.861713409423828
▁correction	-10.861920356750488
Whether	-10.862090110778809
▁Real	-10.862139701843262
▁opposition	-10.862152099609375
▁progressive	-10.862166404724121
▁efficiently	-10.862375259399414
non	-10.862974166870117
▁fist	-10.863080978393555
▁incentive	-10.863448143005371
▁narrative	-10.86423110961914
▁ninth	-10.864232063293457
▁applying	-10.864500045776367
▁instantly	-10.864593505859375
mbling	-10.865310668945312
▁terminal	-10.865582466125488
Only	-10.865693092346191
▁retirement	-10.86573314666748
▁distributed	-10.866064071655273
gate	-10.866154670715332
▁bare	-10.86625862121582
▁stiff	-10.86628246307373
oli	-10.866506576538086
▁observations	-10.866881370544434
▁discovery	-10.867491722106934
Da	-10.86770248413086
▁arrival	-10.868078231811523
▁dirty	-10.868521690368652
▁OS	-10.86880874633789
▁fence	-10.868814468383789
▁Angel	-10.86889362335205
▁Nick	-10.869682312011719
▁emphasis	-10.870340347290039
▁jurisdiction	-10.870607376098633
▁dominate	-10.870622634887695
Ro	-10.870645523071289
▁radiation	-10.870739936828613
▁gather	-10.870763778686523
▁NA	-10.870807647705078
▁fucking	-10.871158599853516
▁nonGAAP	-10.872608184814453
mato	-10.872620582580566
▁Ham	-10.87271499633789
▁nowhere	-10.872795104980469
▁Spain	-10.872879981994629
▁shifted	-10.873351097106934
▁woke	-10.873486518859863
▁pulse	-10.873554229736328
▁lighting	-10.874002456665039
▁associate	-10.874091148376465
cular	-10.874570846557617
▁slipped	-10.874629020690918
▁Anna	-10.874762535095215
ddy	-10.874791145324707
▁objectives	-10.875140190124512
zi	-10.875604629516602
▁frequent	-10.875823020935059
▁owe	-10.876029014587402
▁SS	-10.87645149230957
▁corporation	-10.876755714416504
▁suggestions	-10.87743091583252
▁assessed	-10.877490043640137
▁Sarah	-10.877830505371094
▁flame	-10.877923965454102
▁boots	-10.878817558288574
▁compelling	-10.879037857055664
▁athlete	-10.879172325134277
▁ads	-10.879444122314453
▁productive	-10.87963581085205
▁reply	-10.879793167114258
▁sessions	-10.879873275756836
active	-10.880170822143555
rink	-10.880449295043945
eller	-10.88053035736084
▁friendship	-10.880778312683105
▁lowest	-10.881010055541992
▁mouse	-10.881063461303711
▁Cy	-10.881246566772461
▁banking	-10.881991386413574
▁constitute	-10.882537841796875
▁coordinate	-10.882807731628418
▁realistic	-10.882843017578125
▁exclusive	-10.882966041564941
▁conviction	-10.883076667785645
▁forum	-10.883474349975586
▁thumb	-10.883990287780762
▁bin	-10.884379386901855
▁drill	-10.88457202911377
burg	-10.885518074035645
ience	-10.88573932647705
shot	-10.885937690734863
▁rural	-10.886235237121582
▁shortly	-10.886235237121582
▁patent	-10.88628101348877
▁Being	-10.8865385055542
▁neo	-10.88666820526123
▁Mal	-10.88687515258789
▁riding	-10.88692569732666
▁flower	-10.887020111083984
izz	-10.887232780456543
Given	-10.887408256530762
rack	-10.887491226196289
▁Fu	-10.887533187866211
▁cautious	-10.887539863586426
hole	-10.888472557067871
▁soup	-10.888775825500488
▁museum	-10.889166831970215
▁PS	-10.88951301574707
▁deploy	-10.890069007873535
▁PA	-10.890482902526855
▁notion	-10.89064884185791
iate	-10.89080810546875
▁tracking	-10.891082763671875
▁Long	-10.891366004943848
under	-10.891569137573242
▁skip	-10.891610145568848
▁ownership	-10.891677856445312
▁Jackson	-10.892003059387207
▁ham	-10.892315864562988
▁endless	-10.892987251281738
▁adverse	-10.893210411071777
▁shelter	-10.893545150756836
▁towel	-10.893704414367676
▁slave	-10.893950462341309
▁Care	-10.893977165222168
logy	-10.893986701965332
▁refuge	-10.894067764282227
▁shaking	-10.894075393676758
▁cabinet	-10.89423942565918
▁passionate	-10.894264221191406
Such	-10.894388198852539
▁declined	-10.89441204071045
▁possibilities	-10.894475936889648
plication	-10.894582748413086
▁extraordinary	-10.895157814025879
ground	-10.895162582397461
▁Donald	-10.895190238952637
▁aimed	-10.895247459411621
▁parameter	-10.895675659179688
▁honey	-10.89635181427002
▁fishing	-10.896474838256836
▁horror	-10.896661758422852
▁precisely	-10.896749496459961
▁Fri	-10.897749900817871
▁Spring	-10.897900581359863
▁insist	-10.898307800292969
▁invested	-10.898713111877441
▁System	-10.898852348327637
▁sustain	-10.899271011352539
▁Hy	-10.89979076385498
▁emotion	-10.90062141418457
▁Den	-10.900823593139648
▁inches	-10.900856971740723
▁Spirit	-10.900911331176758
▁Port	-10.901284217834473
▁Club	-10.901668548583984
▁defensive	-10.901872634887695
▁impose	-10.902545928955078
▁ur	-10.902545928955078
▁hitting	-10.902764320373535
▁concert	-10.902846336364746
▁cents	-10.902910232543945
▁wisdom	-10.903523445129395
▁operators	-10.903765678405762
▁Learn	-10.904000282287598
▁toilet	-10.90407943725586
▁MP	-10.904168128967285
▁assumption	-10.905299186706543
▁reminded	-10.9053373336792
▁sword	-10.906357765197754
gram	-10.906698226928711
▁statistics	-10.90683364868164
▁resort	-10.906895637512207
▁Obviously	-10.906968116760254
▁diagnostic	-10.907386779785156
▁struggled	-10.907401084899902
▁trusted	-10.90796184539795
▁captured	-10.908244132995605
▁subscription	-10.908772468566895
▁enemies	-10.909324645996094
▁boot	-10.909711837768555
▁swimming	-10.910304069519043
▁CR	-10.910392761230469
▁possession	-10.910530090332031
▁personnel	-10.910721778869629
▁Tell	-10.91085433959961
wl	-10.91125202178955
Through	-10.911286354064941
▁analog	-10.911420822143555
▁Army	-10.911458969116211
▁Wal	-10.911542892456055
▁accomplished	-10.912015914916992
▁Down	-10.912881851196289
▁virtually	-10.912952423095703
▁royal	-10.913093566894531
▁Association	-10.913209915161133
▁Cri	-10.913333892822266
▁compliance	-10.913349151611328
▁curl	-10.914036750793457
yle	-10.914056777954102
▁bun	-10.914068222045898
▁pants	-10.914703369140625
▁baseball	-10.91480827331543
▁desperate	-10.91540241241455
▁flick	-10.91553783416748
▁displayed	-10.915690422058105
▁laser	-10.91635799407959
▁activation	-10.916692733764648
▁Additionally	-10.916742324829102
▁professor	-10.916831970214844
▁southern	-10.917913436889648
▁infant	-10.918085098266602
▁smartphone	-10.919264793395996
▁Ryan	-10.919778823852539
esis	-10.920402526855469
▁suggesting	-10.920835494995117
ulating	-10.920880317687988
▁Road	-10.921004295349121
▁violation	-10.921029090881348
▁coal	-10.921035766601562
▁relate	-10.921136856079102
▁ghost	-10.921167373657227
gon	-10.921188354492188
▁propose	-10.921270370483398
▁cleared	-10.921309471130371
▁hiding	-10.921462059020996
▁Vo	-10.921804428100586
ographic	-10.922011375427246
▁sing	-10.922027587890625
▁dump	-10.922062873840332
▁branches	-10.92215633392334
▁exhaust	-10.922237396240234
▁overnight	-10.922297477722168
▁responded	-10.922492980957031
▁tick	-10.922613143920898
▁instinct	-10.9228515625
Under	-10.923115730285645
▁vent	-10.923235893249512
▁ultra	-10.923558235168457
▁cord	-10.9236421585083
▁Angeles	-10.923957824707031
▁kissed	-10.924013137817383
▁submitted	-10.924653053283691
▁blast	-10.925079345703125
ifies	-10.925278663635254
▁Ya	-10.925326347351074
▁Korea	-10.925582885742188
▁Exp	-10.92577075958252
▁flip	-10.925772666931152
▁Social	-10.925826072692871
▁discussing	-10.925860404968262
▁thoroughly	-10.92625617980957
▁gang	-10.927511215209961
▁wireless	-10.927752494812012
scribe	-10.927921295166016
aught	-10.927986145019531
▁confusion	-10.92834186553955
▁signature	-10.928905487060547
omy	-10.929014205932617
▁singing	-10.929035186767578
spec	-10.929067611694336
▁sur	-10.929115295410156
▁tackle	-10.929262161254883
▁Islam	-10.929268836975098
▁bold	-10.92934799194336
▁generating	-10.929389953613281
▁Business	-10.929616928100586
▁logo	-10.929786682128906
▁Start	-10.929892539978027
▁Pay	-10.930065155029297
▁Someone	-10.930380821228027
cation	-10.930489540100098
▁Valley	-10.930720329284668
▁tunnel	-10.930745124816895
ific	-10.930879592895508
▁priest	-10.930895805358887
▁statute	-10.931170463562012
▁contractor	-10.931536674499512
▁Pacific	-10.93173599243164
▁silly	-10.932103157043457
▁quietly	-10.932373046875
▁rug	-10.932676315307617
▁electricity	-10.932746887207031
▁freeze	-10.932888984680176
▁HIV	-10.933300018310547
▁marry	-10.933384895324707
▁crawl	-10.9340181350708
▁RA	-10.934203147888184
▁dare	-10.9345703125
▁venue	-10.934758186340332
▁fed	-10.934890747070312
ution	-10.935062408447266
▁stare	-10.93555736541748
▁classical	-10.935583114624023
based	-10.935590744018555
▁span	-10.935665130615234
▁peaceful	-10.935757637023926
▁innocent	-10.935999870300293
▁Charlie	-10.936036109924316
▁remarkable	-10.936137199401855
▁hug	-10.93629264831543
▁hired	-10.936298370361328
▁substantially	-10.936361312866211
▁CC	-10.93661880493164
▁lover	-10.93663215637207
▁oxygen	-10.936848640441895
astic	-10.936984062194824
▁identification	-10.937417984008789
▁persist	-10.937973976135254
▁sequential	-10.93798828125
▁companion	-10.938133239746094
▁sooner	-10.938592910766602
▁Olympic	-10.938985824584961
▁vector	-10.939275741577148
operative	-10.93937873840332
▁advocate	-10.939414024353027
▁promising	-10.939558029174805
▁Sub	-10.939969062805176
▁Qui	-10.940215110778809
Did	-10.94022274017334
▁sandwich	-10.940272331237793
▁morph	-10.940831184387207
▁phrase	-10.94084358215332
▁setup	-10.941807746887207
▁diagnosed	-10.941906929016113
▁buck	-10.942015647888184
▁complications	-10.942046165466309
▁abstract	-10.942275047302246
▁utilization	-10.942416191101074
▁fragment	-10.94241714477539
rian	-10.942511558532715
▁bubble	-10.942846298217773
▁Democratic	-10.943041801452637
▁offensive	-10.943279266357422
▁Mother	-10.943351745605469
▁derived	-10.943502426147461
uce	-10.943729400634766
▁precious	-10.94373607635498
▁painted	-10.944374084472656
Po	-10.94446849822998
▁Ireland	-10.9451904296875
▁separated	-10.945494651794434
▁Southern	-10.945643424987793
▁Nu	-10.945679664611816
Custom	-10.945838928222656
▁luxury	-10.9458589553833
▁significance	-10.9458589553833
▁optical	-10.946012496948242
▁USA	-10.946557998657227
▁chin	-10.94658088684082
▁CP	-10.946581840515137
▁acceptable	-10.9465913772583
▁industries	-10.94686508178711
En	-10.94731616973877
See	-10.947452545166016
▁implications	-10.947587013244629
▁attending	-10.947802543640137
ou	-10.94786548614502
▁matrix	-10.947872161865234
▁criticism	-10.94792652130127
▁tighten	-10.94853401184082
▁manual	-10.948588371276855
ibly	-10.948948860168457
organ	-10.949066162109375
▁identical	-10.950034141540527
▁strict	-10.950580596923828
▁HD	-10.95112133026123
▁fitness	-10.9514741897583
▁Chief	-10.951530456542969
▁dip	-10.951557159423828
lude	-10.951560020446777
▁loaded	-10.951567649841309
▁Indeed	-10.95173454284668
▁prohibit	-10.951910972595215
Qu	-10.952024459838867
▁ge	-10.95300579071045
▁convenience	-10.953067779541016
pin	-10.95309829711914
rap	-10.953194618225098
pat	-10.953204154968262
▁imagined	-10.953255653381348
▁Pakistan	-10.953357696533203
▁faint	-10.953357696533203
▁troops	-10.953360557556152
▁blank	-10.953479766845703
Looking	-10.95361042022705
holder	-10.95361614227295
▁weekly	-10.954028129577637
▁intelligent	-10.954371452331543
▁allocation	-10.954381942749023
▁manuscript	-10.954516410827637
▁Dave	-10.954629898071289
agin	-10.955543518066406
▁territory	-10.95582103729248
▁dash	-10.956555366516113
▁polar	-10.956772804260254
▁Ash	-10.957789421081543
▁Cur	-10.958084106445312
▁Coast	-10.958467483520508
▁unlock	-10.958894729614258
▁waist	-10.959020614624023
▁modification	-10.9591646194458
ception	-10.95987606048584
ura	-10.959990501403809
▁affirm	-10.96033000946045
▁prize	-10.96053695678711
▁confess	-10.960653305053711
▁CM	-10.961100578308105
▁executed	-10.961304664611816
▁membership	-10.961560249328613
ita	-10.961725234985352
▁requested	-10.961808204650879
eng	-10.962117195129395
▁Pol	-10.962125778198242
▁consciousness	-10.962313652038574
▁admission	-10.962593078613281
▁standpoint	-10.962774276733398
▁PD	-10.96288013458252
▁baking	-10.963126182556152
▁humor	-10.963336944580078
▁nicely	-10.963449478149414
▁harsh	-10.963545799255371
▁Watch	-10.963845252990723
▁Ten	-10.963930130004883
▁manufacture	-10.96397590637207
▁awkward	-10.964126586914062
▁reinforce	-10.9644193649292
▁fate	-10.964536666870117
▁Scotland	-10.9651517868042
Next	-10.965387344360352
▁institution	-10.965446472167969
▁abandoned	-10.965527534484863
▁maximize	-10.965591430664062
▁frankly	-10.966470718383789
▁achieving	-10.966619491577148
▁plasma	-10.966843605041504
▁throwing	-10.966974258422852
gling	-10.967178344726562
▁mutual	-10.967580795288086
▁Arch	-10.967874526977539
▁modified	-10.967972755432129
▁council	-10.968085289001465
▁musical	-10.968116760253906
Good	-10.968250274658203
▁assistant	-10.968442916870117
▁participating	-10.968525886535645
fire	-10.968669891357422
▁peri	-10.968754768371582
▁Royal	-10.96915340423584
▁county	-10.969189643859863
▁unclear	-10.969297409057617
▁Class	-10.969433784484863
▁Gen	-10.96955680847168
▁drama	-10.969642639160156
▁Mari	-10.96969985961914
▁talented	-10.969864845275879
▁buried	-10.9703369140625
▁Georgia	-10.971174240112305
▁recommendations	-10.971235275268555
▁disk	-10.971261024475098
▁Research	-10.971969604492188
▁distant	-10.97208309173584
▁mor	-10.972442626953125
▁Security	-10.972501754760742
▁Far	-10.972745895385742
▁mutation	-10.972765922546387
▁western	-10.972808837890625
▁Gold	-10.973051071166992
▁Land	-10.973350524902344
▁functionality	-10.974146842956543
▁lymph	-10.974274635314941
▁tale	-10.974479675292969
▁vaccine	-10.974569320678711
▁Word	-10.974610328674316
▁scream	-10.974690437316895
▁drum	-10.974696159362793
▁executing	-10.974717140197754
metric	-10.974865913391113
ko	-10.974909782409668
▁Nobody	-10.975141525268555
▁upside	-10.975156784057617
▁captain	-10.975482940673828
▁dismiss	-10.97557258605957
▁theater	-10.97568416595459
▁dim	-10.975688934326172
▁logical	-10.975912094116211
▁Click	-10.976332664489746
▁Institute	-10.97634506225586
▁organisation	-10.976856231689453
▁inherent	-10.976951599121094
▁brave	-10.97697925567627
▁slower	-10.976983070373535
▁grey	-10.977252006530762
▁dancing	-10.978126525878906
▁trim	-10.978261947631836
▁sensation	-10.978720664978027
▁electro	-10.978975296020508
▁dough	-10.979105949401855
iel	-10.979119300842285
▁reporter	-10.979137420654297
▁enzyme	-10.97916316986084
▁behalf	-10.979315757751465
▁Earl	-10.979545593261719
▁emerged	-10.979594230651855
amine	-10.9796724319458
▁Ven	-10.980081558227539
▁Meanwhile	-10.98015022277832
▁deployment	-10.980188369750977
ime	-10.980607032775879
▁cognitive	-10.980649948120117
▁quo	-10.980719566345215
▁simultaneously	-10.980823516845703
▁passes	-10.980833053588867
▁probability	-10.980947494506836
▁Israeli	-10.98104476928711
▁printed	-10.981160163879395
market	-10.981646537780762
▁Tony	-10.981759071350098
▁restrictions	-10.981977462768555
▁Phil	-10.982033729553223
▁appreciated	-10.982370376586914
▁brow	-10.982373237609863
▁suite	-10.982410430908203
▁Brian	-10.982446670532227
power	-10.982514381408691
▁involvement	-10.982664108276367
▁ven	-10.982969284057617
▁upload	-10.983602523803711
▁Andrew	-10.98366928100586
▁Dev	-10.983835220336914
▁workshop	-10.983841896057129
▁neat	-10.984471321105957
clo	-10.984475135803223
▁Several	-10.984526634216309
▁classroom	-10.984871864318848
▁abilities	-10.984978675842285
avi	-10.985071182250977
▁wider	-10.985172271728516
▁efficiencies	-10.98572063446045
▁chamber	-10.986021995544434
▁shorter	-10.986289024353027
▁suicide	-10.986318588256836
▁cabin	-10.986722946166992
▁SE	-10.987131118774414
count	-10.987214088439941
▁politicians	-10.987434387207031
▁deliberate	-10.987666130065918
▁Cro	-10.987744331359863
▁myth	-10.987809181213379
▁worn	-10.987822532653809
▁democracy	-10.988115310668945
▁Science	-10.988176345825195
▁snack	-10.989167213439941
▁Sky	-10.989546775817871
▁handful	-10.989731788635254
▁Human	-10.990583419799805
▁rhythm	-10.990666389465332
▁teen	-10.990674018859863
▁liability	-10.991061210632324
▁Give	-10.991243362426758
▁clarity	-10.991569519042969
▁dialogue	-10.99158000946045
▁gen	-10.991781234741211
▁purchasing	-10.99186897277832
▁outfit	-10.99236011505127
▁mold	-10.992588996887207
▁mining	-10.992753982543945
▁naked	-10.993050575256348
▁landing	-10.993142127990723
▁factory	-10.993326187133789
▁lamp	-10.993348121643066
▁govern	-10.993561744689941
▁mystery	-10.993562698364258
▁jar	-10.993908882141113
imp	-10.994027137756348
▁contemporary	-10.994429588317871
▁applies	-10.994657516479492
▁Show	-10.994675636291504
▁rap	-10.995856285095215
▁dramatically	-10.995866775512695
▁compassion	-10.995938301086426
cin	-10.996108055114746
▁disrupt	-10.996261596679688
▁Adv	-10.996305465698242
▁babies	-10.99699878692627
▁abnormal	-10.997150421142578
▁RNA	-10.997193336486816
▁boring	-10.997574806213379
▁temple	-10.997761726379395
▁appellant	-10.997904777526855
uk	-10.99791431427002
▁unde	-10.998289108276367
▁Police	-10.998299598693848
▁shareholder	-10.998446464538574
▁consists	-10.998465538024902
▁tar	-10.998547554016113
Build	-10.998872756958008
▁gorgeous	-10.999115943908691
▁tile	-10.999313354492188
▁sentiment	-11.000482559204102
▁praise	-11.000625610351562
▁lemon	-11.000718116760254
lim	-11.00133228302002
▁echo	-11.002077102661133
▁swim	-11.002143859863281
▁poison	-11.002265930175781
▁nano	-11.002569198608398
ulator	-11.002748489379883
phone	-11.003867149353027
▁mag	-11.004036903381348
▁Federal	-11.004433631896973
▁EC	-11.004719734191895
▁minimize	-11.005074501037598
▁grid	-11.005169868469238
▁blur	-11.005224227905273
▁hiring	-11.0053071975708
▁GAAP	-11.005348205566406
▁difficulties	-11.005402565002441
▁cure	-11.005571365356445
▁workout	-11.006234169006348
▁citizen	-11.00671100616455
Similar	-11.006726264953613
▁mortality	-11.00749397277832
▁assuming	-11.007953643798828
Sure	-11.007976531982422
Get	-11.008237838745117
▁bend	-11.008255004882812
▁yeah	-11.008708000183105
RC	-11.008748054504395
▁optimization	-11.009166717529297
▁Tech	-11.009634017944336
▁convey	-11.00997543334961
▁qualify	-11.010547637939453
▁rope	-11.010909080505371
nova	-11.011042594909668
▁electron	-11.01106071472168
▁artificial	-11.011312484741211
▁scent	-11.011584281921387
▁interval	-11.011775970458984
▁girlfriend	-11.011812210083008
▁Form	-11.012598037719727
born	-11.01262378692627
▁digest	-11.012921333312988
▁ES	-11.01317310333252
Take	-11.01359748840332
▁admire	-11.013617515563965
mod	-11.013829231262207
▁lib	-11.013952255249023
▁consequence	-11.014647483825684
▁elevated	-11.015249252319336
▁cru	-11.015647888183594
▁disciplined	-11.015820503234863
▁progression	-11.015843391418457
▁Walk	-11.016083717346191
▁rejected	-11.016135215759277
▁contrary	-11.016539573669434
▁Eric	-11.016619682312012
▁Trust	-11.016619682312012
▁Irish	-11.016681671142578
▁anxious	-11.01793384552002
▁ethnic	-11.018084526062012
▁cooked	-11.01850700378418
▁Count	-11.018595695495605
related	-11.018878936767578
▁generous	-11.019087791442871
▁equi	-11.019240379333496
▁psycho	-11.019308090209961
▁engaging	-11.019783973693848
▁arranged	-11.019918441772461
▁tenant	-11.020798683166504
▁rival	-11.02126693725586
▁barrel	-11.02127456665039
▁sneak	-11.021333694458008
roid	-11.021430015563965
▁psychological	-11.022737503051758
▁cousin	-11.02288818359375
▁flour	-11.02328109741211
▁discharge	-11.023505210876465
▁Louis	-11.023508071899414
▁norm	-11.023955345153809
▁comb	-11.024040222167969
key	-11.024272918701172
▁festival	-11.024280548095703
▁Food	-11.024297714233398
▁tub	-11.024341583251953
▁applicable	-11.025057792663574
▁injection	-11.025100708007812
▁historically	-11.025525093078613
▁receiver	-11.026065826416016
▁poem	-11.026122093200684
▁Things	-11.026147842407227
▁sustained	-11.026175498962402
▁accent	-11.026351928710938
▁rub	-11.026440620422363
▁loo	-11.027205467224121
ologies	-11.027283668518066
▁sir	-11.027670860290527
▁humanity	-11.02770709991455
▁magnitude	-11.028017044067383
▁restructuring	-11.028017044067383
▁northern	-11.02812385559082
▁polish	-11.028326034545898
▁CEO	-11.028486251831055
▁historic	-11.02850341796875
col	-11.028641700744629
▁needle	-11.028923988342285
▁SA	-11.029142379760742
▁exploring	-11.02942180633545
ington	-11.029632568359375
▁steep	-11.029841423034668
▁plug	-11.030662536621094
▁safely	-11.031144142150879
▁integrity	-11.031610488891602
leg	-11.031693458557129
▁washed	-11.0324068069458
through	-11.032697677612305
▁kicked	-11.03296947479248
▁evolve	-11.033306121826172
▁logistic	-11.033337593078613
Ja	-11.03338623046875
▁attacked	-11.033729553222656
▁enforcement	-11.0340576171875
ense	-11.034095764160156
▁incorporate	-11.034565925598145
▁Jon	-11.03482723236084
ji	-11.035279273986816
▁Syria	-11.035579681396484
▁Place	-11.035634994506836
▁killer	-11.03618049621582
▁Soviet	-11.03632640838623
ule	-11.036995887756348
▁tan	-11.037697792053223
▁unfortunately	-11.037725448608398
▁Celsius	-11.037734031677246
uel	-11.037849426269531
▁casino	-11.038056373596191
▁Carolina	-11.03809642791748
▁Little	-11.03859806060791
▁Santa	-11.038631439208984
▁separation	-11.038679122924805
▁Gal	-11.038806915283203
▁Minister	-11.039383888244629
Having	-11.039419174194336
▁voltage	-11.039783477783203
▁patience	-11.039965629577637
▁volatility	-11.04025650024414
space	-11.041692733764648
▁migration	-11.041836738586426
ban	-11.04195785522461
▁targeting	-11.04233169555664
▁Note	-11.042472839355469
▁systematic	-11.04257583618164
▁respective	-11.04288387298584
▁assay	-11.042962074279785
▁legend	-11.043612480163574
▁Northern	-11.044422149658203
berry	-11.044448852539062
worth	-11.044551849365234
▁Ve	-11.044639587402344
▁grin	-11.044670104980469
▁bent	-11.044816017150879
▁Fer	-11.044865608215332
▁repeatedly	-11.045045852661133
▁behave	-11.045222282409668
after	-11.045307159423828
▁orbit	-11.045682907104492
▁Fred	-11.045736312866211
▁cheaper	-11.04585075378418
▁horizon	-11.046142578125
▁induced	-11.046548843383789
▁pillow	-11.04670524597168
▁Wo	-11.046710968017578
▁macro	-11.046741485595703
▁creep	-11.04676342010498
Car	-11.046896934509277
▁angel	-11.047172546386719
▁enabled	-11.047359466552734
▁jaw	-11.047371864318848
▁stopping	-11.047452926635742
▁whisk	-11.047595024108887
▁announce	-11.047595977783203
pparently	-11.047798156738281
▁organize	-11.048460960388184
▁contend	-11.048742294311523
▁advertise	-11.048832893371582
▁brew	-11.048849105834961
▁guilt	-11.04926586151123
▁merit	-11.049722671508789
▁entrepreneur	-11.050094604492188
▁screaming	-11.05079460144043
▁champion	-11.051116943359375
▁Victoria	-11.051451683044434
▁predicted	-11.051864624023438
▁neighbour	-11.052008628845215
▁viewed	-11.052082061767578
▁Gro	-11.052757263183594
▁celebration	-11.05280876159668
▁retreat	-11.05282974243164
▁threatened	-11.053031921386719
▁nest	-11.053095817565918
Vi	-11.053147315979004
▁bacteria	-11.053163528442383
▁knocked	-11.05321216583252
▁resolved	-11.053297996520996
▁inspect	-11.053415298461914
▁shocked	-11.053837776184082
▁Pen	-11.053990364074707
Mi	-11.054328918457031
▁racing	-11.054667472839355
▁influenced	-11.054790496826172
▁intake	-11.05496883392334
▁descend	-11.05521011352539
▁serum	-11.055379867553711
▁Tro	-11.055442810058594
ifier	-11.055481910705566
erate	-11.0558500289917
▁creativity	-11.055850982666016
▁argued	-11.056137084960938
▁instruction	-11.056690216064453
▁tru	-11.05670166015625
star	-11.057002067565918
▁pizza	-11.0576171875
▁Francisco	-11.057875633239746
▁candle	-11.057995796203613
▁stamp	-11.058053970336914
▁Fire	-11.058114051818848
encies	-11.05815601348877
▁glove	-11.058629035949707
▁upward	-11.059368133544922
lusion	-11.059614181518555
▁constructed	-11.059903144836426
▁laboratory	-11.060126304626465
▁Fr	-11.060145378112793
Have	-11.060676574707031
▁elbow	-11.060834884643555
▁dental	-11.06086540222168
▁rack	-11.061065673828125
▁nuts	-11.061102867126465
▁blocked	-11.061140060424805
rum	-11.061370849609375
▁FA	-11.061481475830078
▁romantic	-11.06196403503418
▁tweet	-11.062126159667969
▁fancy	-11.06230640411377
▁forehead	-11.06262493133545
▁flew	-11.062825202941895
▁wished	-11.062929153442383
▁ambition	-11.062941551208496
▁effectiveness	-11.063064575195312
imate	-11.063154220581055
▁terrorist	-11.063337326049805
▁jet	-11.063371658325195
▁prominent	-11.063579559326172
gel	-11.063705444335938
▁compliment	-11.063902854919434
▁implant	-11.06391429901123
▁inflammatory	-11.064225196838379
mission	-11.06502628326416
▁Sand	-11.065237998962402
AT	-11.065423965454102
▁forgot	-11.065597534179688
▁rotation	-11.06571102142334
▁shield	-11.06600570678711
▁pond	-11.066118240356445
▁sleeve	-11.066329956054688
▁convince	-11.066442489624023
▁bored	-11.067158699035645
▁reception	-11.067303657531738
▁accused	-11.067564010620117
▁offend	-11.067679405212402
▁mut	-11.067852020263672
▁immigration	-11.067952156066895
▁commodity	-11.068114280700684
▁About	-11.06812572479248
bie	-11.068628311157227
▁transferred	-11.06865406036377
▁grill	-11.069119453430176
▁ruling	-11.069254875183105
▁magical	-11.069629669189453
▁deco	-11.070056915283203
▁Vietnam	-11.070063591003418
eno	-11.070276260375977
▁NFL	-11.07055377960205
▁elegant	-11.071529388427734
▁scored	-11.071702003479004
▁keen	-11.071710586547852
▁reliability	-11.071856498718262
▁centuries	-11.07201862335205
CO	-11.072092056274414
▁acceptance	-11.072967529296875
▁ST	-11.07361888885498
▁steer	-11.073887825012207
▁Edward	-11.074234008789062
▁existed	-11.074331283569336
▁treasure	-11.07446575164795
cover	-11.07449722290039
▁AP	-11.07484245300293
▁solely	-11.075098037719727
▁addresses	-11.075328826904297
▁shore	-11.075607299804688
▁Hollywood	-11.075610160827637
▁Hunt	-11.075611114501953
▁stunning	-11.075937271118164
▁ensuring	-11.076004981994629
▁basket	-11.0762357711792
▁chase	-11.07628059387207
▁Looking	-11.076398849487305
▁removing	-11.076428413391113
Sp	-11.076619148254395
▁frustration	-11.077411651611328
▁climbed	-11.077560424804688
▁hike	-11.077561378479004
▁jerk	-11.07760238647461
▁substitute	-11.079216003417969
▁limb	-11.079643249511719
▁controlling	-11.079689979553223
▁overhead	-11.079928398132324
▁sofa	-11.080033302307129
card	-11.080341339111328
▁wherever	-11.080404281616211
▁Michigan	-11.08085823059082
▁Cook	-11.080940246582031
▁brick	-11.081076622009277
▁failing	-11.08129596710205
▁Actually	-11.081355094909668
▁refund	-11.081385612487793
▁leaf	-11.081954002380371
▁Boy	-11.08209228515625
▁CB	-11.082107543945312
▁grandmother	-11.0823392868042
▁twentieth	-11.0823392868042
▁PR	-11.082357406616211
▁Pra	-11.082498550415039
will	-11.082815170288086
▁backlog	-11.08294677734375
▁rust	-11.0829496383667
▁Kevin	-11.083060264587402
▁hunting	-11.083127975463867
▁wallet	-11.083230972290039
▁temp	-11.083498001098633
▁mineral	-11.084331512451172
▁Mad	-11.084345817565918
vie	-11.084918975830078
▁seller	-11.08497142791748
▁spine	-11.085221290588379
▁squad	-11.086539268493652
▁feeding	-11.08686351776123
ctua	-11.087417602539062
▁trash	-11.088051795959473
▁spill	-11.088101387023926
▁discretion	-11.08812141418457
▁downtown	-11.088417053222656
most	-11.089336395263672
▁vice	-11.089590072631836
ati	-11.08993911743164
▁certificate	-11.089943885803223
▁partial	-11.090204238891602
▁manifest	-11.090215682983398
▁Women	-11.09035587310791
▁ugly	-11.09045124053955
▁gaming	-11.09096622467041
▁slept	-11.091106414794922
▁curtain	-11.091419219970703
▁Ray	-11.091754913330078
▁hybrid	-11.09177017211914
▁compile	-11.091923713684082
une	-11.092625617980957
▁identifying	-11.092879295349121
▁consecutive	-11.092934608459473
▁recognise	-11.092935562133789
▁veteran	-11.09310245513916
itude	-11.093402862548828
▁recovered	-11.093472480773926
▁Holy	-11.093526840209961
▁whip	-11.09383487701416
▁Sudden	-11.094636917114258
▁empower	-11.094687461853027
bon	-11.094862937927246
▁differential	-11.09499740600586
Ho	-11.095553398132324
▁layout	-11.09559440612793
▁ladies	-11.09561538696289
▁Ohio	-11.095748901367188
▁favour	-11.09679889678955
▁overview	-11.096805572509766
▁attraction	-11.097195625305176
▁flo	-11.097354888916016
▁lac	-11.097559928894043
▁drilling	-11.09776496887207
▁phenomenon	-11.097772598266602
▁Simon	-11.097848892211914
▁liquidity	-11.09787368774414
▁consistency	-11.098177909851074
▁scary	-11.098405838012695
▁basketball	-11.098471641540527
▁selective	-11.099312782287598
▁delayed	-11.10001277923584
▁Eli	-11.100464820861816
▁ox	-11.10047721862793
▁cruel	-11.100682258605957
▁boyfriend	-11.100988388061523
▁reject	-11.101191520690918
▁cloth	-11.102056503295898
▁bud	-11.102279663085938
▁deadline	-11.102986335754395
▁armed	-11.103415489196777
▁Age	-11.103604316711426
▁bounce	-11.103814125061035
▁FBI	-11.103996276855469
▁bundle	-11.104044914245605
▁ion	-11.104227066040039
Jo	-11.10467529296875
▁broker	-11.10482120513916
▁competing	-11.104828834533691
▁integrate	-11.10544490814209
Make	-11.105892181396484
▁overlap	-11.10614013671875
▁spite	-11.106488227844238
▁mud	-11.106520652770996
▁administrative	-11.10667610168457
▁homo	-11.10667610168457
▁damp	-11.10688304901123
▁analyst	-11.107351303100586
▁equipped	-11.107399940490723
▁sophisticated	-11.107857704162598
▁Mill	-11.107868194580078
▁Know	-11.107894897460938
hir	-11.10794448852539
arily	-11.108283042907715
▁protecting	-11.108436584472656
▁apologize	-11.10853385925293
▁pill	-11.109176635742188
▁inspire	-11.109699249267578
▁thereby	-11.110139846801758
Cl	-11.110358238220215
▁Greg	-11.110440254211426
▁NS	-11.111011505126953
▁dial	-11.111100196838379
wear	-11.112008094787598
▁separately	-11.112269401550293
▁excluded	-11.112310409545898
post	-11.112471580505371
▁prospect	-11.112519264221191
uth	-11.112653732299805
▁Main	-11.113204956054688
▁Guard	-11.113243103027344
▁strive	-11.113324165344238
▁advisor	-11.11345386505127
▁yoga	-11.113511085510254
▁meta	-11.113688468933105
▁restricted	-11.113729476928711
hol	-11.114413261413574
fuse	-11.114950180053711
▁vanish	-11.115071296691895
▁Society	-11.115318298339844
▁duck	-11.11627197265625
quest	-11.116375923156738
▁loyalty	-11.116540908813477
▁sigh	-11.116710662841797
▁profound	-11.116851806640625
▁teenager	-11.116856575012207
▁probe	-11.117145538330078
FC	-11.117511749267578
▁hop	-11.117660522460938
▁terror	-11.118263244628906
▁treating	-11.118377685546875
▁Disney	-11.118483543395996
▁API	-11.118733406066895
▁thoughtful	-11.119385719299316
▁sweep	-11.119583129882812
▁accommodate	-11.11975383758545
▁surge	-11.119988441467285
▁pest	-11.120134353637695
▁pension	-11.120218276977539
▁grinned	-11.120347023010254
▁voted	-11.12064266204834
Will	-11.121214866638184
▁makeup	-11.121593475341797
Clearly	-11.121759414672852
▁Dun	-11.121810913085938
▁modify	-11.12188720703125
▁Public	-11.122492790222168
▁forgive	-11.122625350952148
▁Force	-11.122774124145508
▁condo	-11.122895240783691
▁EM	-11.123114585876465
▁DM	-11.12350845336914
▁Rather	-11.123933792114258
▁Ci	-11.123998641967773
▁Ever	-11.12418270111084
▁consolidate	-11.124208450317383
▁hypothesis	-11.124380111694336
▁straightforward	-11.124551773071289
▁stumble	-11.124557495117188
▁analytics	-11.124723434448242
▁prospective	-11.124804496765137
▁col	-11.125771522521973
▁closest	-11.126176834106445
▁Kate	-11.126570701599121
▁infinite	-11.127309799194336
▁spatial	-11.127488136291504
▁Rome	-11.127586364746094
▁automatic	-11.127747535705566
▁chew	-11.127869606018066
▁plum	-11.12790298461914
▁rushed	-11.128008842468262
▁controller	-11.128457069396973
▁fraud	-11.12885570526123
▁SC	-11.128998756408691
▁landed	-11.129531860351562
▁temper	-11.129823684692383
▁mate	-11.130331039428711
Indeed	-11.13036060333252
▁fitting	-11.13040542602539
▁establishment	-11.131038665771484
▁lane	-11.131390571594238
EC	-11.131613731384277
▁lightly	-11.132054328918457
▁assembly	-11.132139205932617
▁elderly	-11.132253646850586
▁Tea	-11.13235092163086
angle	-11.132625579833984
▁vet	-11.132810592651367
▁Eastern	-11.132983207702637
▁substrate	-11.133005142211914
▁Best	-11.133243560791016
▁clever	-11.13351058959961
▁buzz	-11.133599281311035
▁complement	-11.133648872375488
▁inspection	-11.13379192352295
▁waved	-11.134018898010254
▁assured	-11.134037017822266
▁characterized	-11.13453197479248
▁premise	-11.134760856628418
▁Labour	-11.134912490844727
▁beans	-11.13515853881836
gno	-11.13518238067627
▁satellite	-11.135259628295898
▁firmly	-11.135337829589844
▁bleeding	-11.13560676574707
▁poverty	-11.135780334472656
▁strap	-11.135891914367676
▁Houston	-11.135954856872559
RP	-11.136344909667969
▁roast	-11.136354446411133
▁shine	-11.136396408081055
▁disclosure	-11.136475563049316
Further	-11.13654613494873
▁practically	-11.136661529541016
media	-11.136916160583496
▁Rick	-11.137357711791992
▁nap	-11.137593269348145
due	-11.138020515441895
▁dropping	-11.13835620880127
▁contradict	-11.13839340209961
▁crisp	-11.138583183288574
▁transparent	-11.138912200927734
▁swear	-11.139214515686035
▁Mountain	-11.13961124420166
▁investor	-11.13966178894043
▁vocal	-11.139787673950195
▁skirt	-11.139809608459473
▁calculate	-11.139881134033203
ike	-11.139925956726074
▁backup	-11.13997745513916
▁matching	-11.140058517456055
▁packaging	-11.140218734741211
each	-11.140337944030762
▁blessing	-11.142239570617676
▁affiliate	-11.142403602600098
▁viral	-11.14242935180664
▁polite	-11.142755508422852
▁Dec	-11.142878532409668
▁Hard	-11.143087387084961
▁supporters	-11.14319133758545
phi	-11.143194198608398
▁max	-11.143338203430176
▁highlighted	-11.143500328063965
▁envelope	-11.143803596496582
ologic	-11.143882751464844
▁baseline	-11.144000053405762
▁rib	-11.14405345916748
▁Program	-11.144265174865723
▁airline	-11.14434814453125
▁dread	-11.145532608032227
vation	-11.145634651184082
▁fortunate	-11.145732879638672
▁float	-11.146005630493164
▁photography	-11.146088600158691
▁fighter	-11.146317481994629
▁obstacle	-11.14643383026123
▁uncertain	-11.146513938903809
▁SM	-11.146573066711426
▁prescription	-11.146788597106934
▁Page	-11.14708423614502
▁Bell	-11.147306442260742
▁closure	-11.147364616394043
▁constraints	-11.147663116455078
ique	-11.147781372070312
▁negotiate	-11.147839546203613
▁mum	-11.147953987121582
▁spice	-11.148100852966309
▁Off	-11.148215293884277
name	-11.148496627807617
▁Jason	-11.148563385009766
▁Otherwise	-11.149273872375488
▁SD	-11.149752616882324
▁survived	-11.150153160095215
last	-11.150741577148438
▁lobby	-11.150833129882812
▁secured	-11.151564598083496
▁concentrate	-11.151688575744629
▁LA	-11.151874542236328
▁kidney	-11.152246475219727
▁Until	-11.152261734008789
▁inflammation	-11.15295124053955
▁sketch	-11.153127670288086
▁dressing	-11.15355396270752
▁shipment	-11.153709411621094
▁reaches	-11.153833389282227
▁suspected	-11.15461254119873
Without	-11.154751777648926
▁photographer	-11.155258178710938
▁cheat	-11.155317306518555
▁Colorado	-11.15560531616211
▁surf	-11.155989646911621
▁guaranteed	-11.156441688537598
▁regression	-11.156670570373535
▁boundaries	-11.156770706176758
▁copies	-11.1567964553833
▁SEC	-11.15682601928711
▁dried	-11.156859397888184
▁hormone	-11.157556533813477
▁challenged	-11.157694816589355
▁surgeon	-11.157748222351074
▁cotton	-11.158295631408691
▁stir	-11.158825874328613
▁Elizabeth	-11.15915584564209
▁Sho	-11.159193992614746
▁entitled	-11.160757064819336
▁Young	-11.160865783691406
▁thermal	-11.1610689163208
▁abroad	-11.161297798156738
▁outline	-11.161348342895508
gri	-11.161885261535645
▁intimate	-11.161958694458008
▁Nevertheless	-11.162023544311523
▁frowned	-11.16268253326416
▁presidential	-11.162943840026855
RT	-11.163052558898926
▁differentiation	-11.163440704345703
▁amongst	-11.163605690002441
▁trailer	-11.163743019104004
▁deter	-11.163751602172852
▁neglect	-11.16414737701416
▁Beach	-11.164168357849121
▁Constitution	-11.164325714111328
▁Ram	-11.164546012878418
▁uncle	-11.164714813232422
▁fantasy	-11.16557788848877
Overall	-11.165600776672363
▁Later	-11.165879249572754
▁Cross	-11.166542053222656
▁skilled	-11.166756629943848
type	-11.166805267333984
▁stretched	-11.167301177978516
▁bolt	-11.167341232299805
▁exhausted	-11.167436599731445
▁classification	-11.167442321777344
▁elect	-11.16812801361084
▁anchor	-11.16818904876709
▁folder	-11.168869018554688
▁betray	-11.169121742248535
▁printing	-11.169168472290039
▁voting	-11.169169425964355
▁Brand	-11.169408798217773
▁hence	-11.170029640197754
▁lecture	-11.170601844787598
▁compact	-11.170886993408203
▁basement	-11.171136856079102
▁Taylor	-11.171142578125
▁bang	-11.171422004699707
▁Fair	-11.171913146972656
▁dense	-11.172176361083984
▁Parliament	-11.172582626342773
▁residence	-11.173346519470215
▁enhancement	-11.173404693603516
kind	-11.173579216003418
▁Bush	-11.173598289489746
▁searched	-11.173725128173828
▁freak	-11.173849105834961
▁independence	-11.174027442932129
▁Korean	-11.17431640625
▁elite	-11.174396514892578
▁mist	-11.174476623535156
▁Cap	-11.174734115600586
life	-11.174880981445312
▁retention	-11.174927711486816
▁distress	-11.175150871276855
▁navigate	-11.175289154052734
▁align	-11.175294876098633
▁dumb	-11.175960540771484
▁transplant	-11.17601490020752
▁grim	-11.17628288269043
▁edition	-11.176665306091309
▁motivated	-11.176972389221191
▁flush	-11.177735328674316
▁eyebrow	-11.177823066711426
▁Special	-11.178115844726562
▁mechanic	-11.178237915039062
uter	-11.178571701049805
▁documentation	-11.17870044708252
▁underneath	-11.178911209106445
▁compute	-11.17922592163086
Comp	-11.179291725158691
▁await	-11.179315567016602
▁striking	-11.179455757141113
▁bucket	-11.179780006408691
▁featured	-11.179828643798828
ius	-11.179891586303711
▁cyto	-11.179920196533203
▁hallway	-11.17995834350586
▁globe	-11.180000305175781
▁Director	-11.180027961730957
▁violate	-11.18021011352539
▁punish	-11.18028736114502
▁fortune	-11.180632591247559
▁constitutional	-11.180671691894531
▁contributing	-11.181089401245117
▁headwind	-11.1810941696167
▁quantity	-11.18218994140625
▁minus	-11.18234920501709
▁tightly	-11.182662963867188
▁Top	-11.183032035827637
▁poke	-11.183243751525879
▁nightmare	-11.183473587036133
▁varied	-11.183645248413086
▁destruction	-11.183819770812988
▁efficacy	-11.184001922607422
▁Given	-11.184294700622559
▁Project	-11.1844482421875
▁Joseph	-11.18527889251709
▁nineteenth	-11.18527889251709
▁theoretical	-11.185624122619629
▁theories	-11.185723304748535
▁chunk	-11.185741424560547
▁Auto	-11.186118125915527
▁Sir	-11.186150550842285
▁Six	-11.18627643585205
cake	-11.18631649017334
▁bro	-11.186446189880371
▁legitimate	-11.186556816101074
▁governor	-11.186563491821289
▁vague	-11.18692398071289
▁fracture	-11.187288284301758
▁Ron	-11.187366485595703
▁Cam	-11.187454223632812
▁appointed	-11.187471389770508
▁addict	-11.188139915466309
▁protective	-11.188419342041016
▁insult	-11.188652038574219
hou	-11.188676834106445
▁Justice	-11.189031600952148
▁massage	-11.189319610595703
▁beef	-11.189754486083984
Based	-11.190186500549316
▁Kim	-11.190204620361328
▁Egypt	-11.190398216247559
▁entity	-11.190448760986328
▁embedded	-11.19058609008789
▁syndrome	-11.19058609008789
▁Julia	-11.1906156539917
▁grind	-11.190649032592773
▁YouTube	-11.190770149230957
▁warmth	-11.190812110900879
▁nursing	-11.190958976745605
ask	-11.191061019897461
▁independently	-11.191141128540039
▁laughter	-11.19136905670166
▁ER	-11.191486358642578
▁MA	-11.191554069519043
▁delicate	-11.191688537597656
▁Gene	-11.191886901855469
▁ankle	-11.192106246948242
▁specialty	-11.192360877990723
▁withdraw	-11.19270133972168
▁submission	-11.193157196044922
▁adhere	-11.193761825561523
▁hub	-11.193848609924316
▁gaining	-11.193981170654297
▁mattress	-11.194631576538086
morph	-11.194864273071289
lib	-11.19497013092041
▁validate	-11.195121765136719
▁Jordan	-11.195183753967285
▁penalty	-11.195738792419434
▁Run	-11.19581127166748
▁operated	-11.195817947387695
▁physics	-11.19610595703125
Invest	-11.196160316467285
class	-11.19667911529541
▁coaches	-11.196817398071289
▁sip	-11.197272300720215
▁Hospital	-11.19758415222168
▁depict	-11.19802188873291
shire	-11.1983060836792
▁static	-11.198314666748047
link	-11.198352813720703
▁UN	-11.198700904846191
▁indoor	-11.199287414550781
chemical	-11.19942569732666
▁accompanied	-11.199433326721191
▁activist	-11.199434280395508
mail	-11.199639320373535
▁crap	-11.200105667114258
▁pursuing	-11.200174331665039
miss	-11.200546264648438
▁essence	-11.200547218322754
▁genre	-11.200742721557617
▁exploration	-11.200915336608887
Moving	-11.200949668884277
▁unnecessary	-11.201471328735352
▁Ob	-11.201592445373535
▁highway	-11.201604843139648
▁reconciliation	-11.20165729522705
▁NP	-11.201775550842285
▁Management	-11.202028274536133
▁Foundation	-11.202214241027832
grade	-11.202336311340332
▁indicating	-11.202401161193848
▁representing	-11.20241928100586
craft	-11.202449798583984
▁grief	-11.202585220336914
▁disruption	-11.203516960144043
▁Further	-11.203765869140625
▁soldier	-11.204209327697754
asse	-11.204379081726074
▁linger	-11.204601287841797
▁dominant	-11.204635620117188
▁funeral	-11.204654693603516
▁Design	-11.205218315124512
▁abortion	-11.205561637878418
▁GM	-11.206156730651855
▁accordance	-11.20657730102539
▁placement	-11.206633567810059
▁potatoes	-11.20667552947998
▁finishing	-11.207021713256836
▁excellence	-11.207052230834961
ogenesis	-11.207266807556152
▁supportive	-11.207392692565918
▁eligible	-11.207426071166992
Keep	-11.207974433898926
▁rifle	-11.208175659179688
▁accurately	-11.208526611328125
▁spotted	-11.208708763122559
▁floating	-11.209271430969238
▁Test	-11.209498405456543
Consequently	-11.210041999816895
▁ecosystem	-11.210041999816895
▁surprisingly	-11.21016788482666
▁PE	-11.21017074584961
▁punishment	-11.210345268249512
▁Fall	-11.21041488647461
▁Mat	-11.210453987121582
▁convention	-11.210721015930176
▁diploma	-11.211563110351562
▁demographic	-11.2117280960083
▁renewal	-11.211729049682617
▁diamond	-11.212289810180664
▁shy	-11.212491035461426
▁SEO	-11.2131929397583
present	-11.21326732635498
▁CF	-11.213756561279297
▁implementing	-11.21390438079834
▁brutal	-11.214107513427734
▁pra	-11.214174270629883
▁III	-11.214337348937988
▁publisher	-11.214802742004395
▁jam	-11.215044975280762
▁cohort	-11.215110778808594
▁dataset	-11.215431213378906
▁seemingly	-11.215620994567871
▁lender	-11.215767860412598
▁vein	-11.215781211853027
▁cough	-11.217482566833496
▁conform	-11.217798233032227
▁fever	-11.21852970123291
▁BC	-11.218907356262207
▁encountered	-11.219186782836914
▁Lib	-11.219278335571289
Look	-11.21995735168457
▁fascinating	-11.22000789642334
▁handled	-11.220093727111816
▁assure	-11.22016716003418
ander	-11.220365524291992
agon	-11.220794677734375
▁keyboard	-11.220890045166016
▁diminish	-11.220953941345215
▁evaluating	-11.221142768859863
▁Mexican	-11.221521377563477
▁torture	-11.221809387207031
▁curse	-11.222167015075684
bound	-11.222271919250488
▁declared	-11.222289085388184
▁comparing	-11.222481727600098
▁Team	-11.222628593444824
▁headache	-11.222822189331055
▁olive	-11.22304630279541
▁regarded	-11.223052978515625
▁brace	-11.223111152648926
▁Uni	-11.223376274108887
▁MI	-11.223426818847656
▁civilian	-11.223499298095703
▁cease	-11.223567962646484
▁connecting	-11.224063873291016
▁gauge	-11.224369049072266
▁excessive	-11.224553108215332
▁infected	-11.224554061889648
▁determining	-11.224555015563965
▁peel	-11.22473430633545
▁stall	-11.224900245666504
▁meditation	-11.224933624267578
▁Medical	-11.225163459777832
▁vacuum	-11.225314140319824
▁incidence	-11.226263999938965
▁LED	-11.226836204528809
▁tenth	-11.226936340332031
▁Ali	-11.22712230682373
▁distinction	-11.227747917175293
▁Sound	-11.227782249450684
▁cruise	-11.227873802185059
▁insisted	-11.227885246276855
▁lately	-11.228476524353027
▁rubber	-11.228888511657715
▁rh	-11.229053497314453
▁RF	-11.229933738708496
▁twisted	-11.229969024658203
▁garlic	-11.230021476745605
▁preach	-11.230040550231934
▁Palestinian	-11.230074882507324
ogni	-11.230588912963867
ada	-11.230835914611816
▁bloody	-11.231029510498047
▁Ze	-11.231488227844238
▁exclude	-11.231585502624512
greg	-11.231730461120605
▁Harris	-11.232028007507324
▁lawn	-11.2322359085083
▁upstairs	-11.232942581176758
▁mentor	-11.232952117919922
Recently	-11.233232498168945
▁inevitable	-11.233516693115234
▁prevalence	-11.233516693115234
▁wishes	-11.233648300170898
▁Van	-11.233802795410156
▁stabilize	-11.234286308288574
▁officially	-11.234785079956055
▁MC	-11.235039710998535
▁loyal	-11.235041618347168
▁antibiotic	-11.235050201416016
guard	-11.235642433166504
▁stolen	-11.236087799072266
▁nutrient	-11.236202239990234
▁velocity	-11.236202239990234
▁Hence	-11.236316680908203
▁Arizona	-11.236778259277344
▁hedge	-11.236861228942871
▁Fox	-11.237391471862793
▁Especially	-11.237966537475586
▁milestone	-11.238569259643555
▁Turkey	-11.238701820373535
▁urgent	-11.238703727722168
▁blond	-11.238731384277344
▁Saint	-11.239165306091309
▁elaborate	-11.239472389221191
▁washing	-11.23977279663086
▁awarded	-11.239849090576172
▁continuously	-11.239900588989258
▁commentary	-11.240575790405273
▁boundary	-11.240729331970215
▁Sil	-11.241087913513184
▁Carol	-11.241116523742676
▁servant	-11.241211891174316
▁Press	-11.241236686706543
▁precision	-11.241401672363281
from	-11.241852760314941
face	-11.241987228393555
▁bearing	-11.242198944091797
▁characteristic	-11.242250442504883
▁stitch	-11.242753982543945
▁placing	-11.242798805236816
▁rage	-11.242853164672852
▁swell	-11.242902755737305
▁pub	-11.242972373962402
▁pole	-11.243099212646484
▁Consider	-11.243171691894531
▁deficit	-11.243528366088867
App	-11.243926048278809
Regardless	-11.243955612182617
▁console	-11.244343757629395
▁merchant	-11.244688987731934
▁perceived	-11.244786262512207
▁variant	-11.24507999420166
▁Alice	-11.245736122131348
▁retro	-11.246492385864258
▁Officer	-11.246499061584473
▁Roger	-11.24679946899414
▁requiring	-11.247015953063965
▁strongest	-11.247421264648438
▁reflecting	-11.24771785736084
▁measuring	-11.247989654541016
spiration	-11.248117446899414
Does	-11.248187065124512
▁clam	-11.248291015625
▁frustrated	-11.24837589263916
▁Mid	-11.248662948608398
▁Hope	-11.248810768127441
▁enforce	-11.24884033203125
▁Town	-11.248924255371094
▁spoil	-11.248963356018066
▁editing	-11.249034881591797
▁adjacent	-11.249154090881348
▁meantime	-11.249724388122559
▁Bitcoin	-11.249737739562988
▁gi	-11.24982738494873
▁purple	-11.24991226196289
▁thankful	-11.250043869018555
▁Luke	-11.250102043151855
▁jeans	-11.250322341918945
▁costume	-11.250418663024902
▁Bridge	-11.250677108764648
▁blew	-11.250713348388672
▁Prime	-11.25076961517334
▁relating	-11.25110912322998
therapy	-11.251336097717285
▁insect	-11.251374244689941
▁tilt	-11.251487731933594
▁reasonably	-11.251518249511719
▁cardiac	-11.251688957214355
▁attempting	-11.251712799072266
▁inclusion	-11.252670288085938
▁chaos	-11.253052711486816
▁accessories	-11.253055572509766
▁expenditure	-11.25383472442627
▁trapped	-11.25446891784668
▁verify	-11.254694938659668
▁poured	-11.25503158569336
▁investigator	-11.255205154418945
▁Key	-11.255328178405762
▁belly	-11.255447387695312
▁occurring	-11.255589485168457
▁Third	-11.255599975585938
▁reset	-11.256047248840332
[...]
