<blk>	0
<sos>	0
<eos>	0
<pad>	0
<unk>	0
<0x00>	0
<0x01>	0
<0x02>	0
<0x03>	0
<0x04>	0
<0x05>	0
<0x06>	0
<0x07>	0
<0x08>	0
<0x09>	0
<0x0A>	0
<0x0B>	0
<0x0C>	0
<0x0D>	0
<0x0E>	0
<0x0F>	0
<0x10>	0
<0x11>	0
<0x12>	0
<0x13>	0
<0x14>	0
<0x15>	0
<0x16>	0
<0x17>	0
<0x18>	0
<0x19>	0
<0x1A>	0
<0x1B>	0
<0x1C>	0
<0x1D>	0
<0x1E>	0
<0x1F>	0
<0x20>	0
<0x21>	0
<0x22>	0
<0x23>	0
<0x24>	0
<0x25>	0
<0x26>	0
<0x27>	0
<0x28>	0
<0x29>	0
<0x2A>	0
<0x2B>	0
<0x2C>	0
<0x2D>	0
<0x2E>	0
<0x2F>	0
<0x30>	0
<0x31>	0
<0x32>	0
<0x33>	0
<0x34>	0
<0x35>	0
<0x36>	0
<0x37>	0
<0x38>	0
<0x39>	0
<0x3A>	0
<0x3B>	0
<0x3C>	0
<0x3D>	0
<0x3E>	0
<0x3F>	0
<0x40>	0
<0x41>	0
<0x42>	0
<0x43>	0
<0x44>	0
<0x45>	0
<0x46>	0
<0x47>	0
<0x48>	0
<0x49>	0
<0x4A>	0
<0x4B>	0
<0x4C>	0
<0x4D>	0
<0x4E>	0
<0x4F>	0
<0x50>	0
<0x51>	0
<0x52>	0
<0x53>	0
<0x54>	0
<0x55>	0
<0x56>	0
<0x57>	0
<0x58>	0
<0x59>	0
<0x5A>	0
<0x5B>	0
<0x5C>	0
<0x5D>	0
<0x5E>	0
<0x5F>	0
<0x60>	0
<0x61>	0
<0x62>	0
<0x63>	0
<0x64>	0
<0x65>	0
<0x66>	0
<0x67>	0
<0x68>	0
<0x69>	0
<0x6A>	0
<0x6B>	0
<0x6C>	0
<0x6D>	0
<0x6E>	0
<0x6F>	0
<0x70>	0
<0x71>	0
<0x72>	0
<0x73>	0
<0x74>	0
<0x75>	0
<0x76>	0
<0x77>	0
<0x78>	0
<0x79>	0
<0x7A>	0
<0x7B>	0
<0x7C>	0
<0x7D>	0
<0x7E>	0
<0x7F>	0
<0x80>	0
<0x81>	0
<0x82>	0
<0x83>	0
<0x84>	0
<0x85>	0
<0x86>	0
<0x87>	0
<0x88>	0
<0x89>	0
<0x8A>	0
<0x8B>	0
<0x8C>	0
<0x8D>	0
<0x8E>	0
<0x8F>	0
<0x90>	0
<0x91>	0
<0x92>	0
<0x93>	0
<0x94>	0
<0x95>	0
<0x96>	0
<0x97>	0
<0x98>	0
<0x99>	0
<0x9A>	0
<0x9B>	0
<0x9C>	0
<0x9D>	0
<0x9E>	0
<0x9F>	0
<0xA0>	0
<0xA1>	0
<0xA2>	0
<0xA3>	0
<0xA4>	0
<0xA5>	0
<0xA6>	0
<0xA7>	0
<0xA8>	0
<0xA9>	0
<0xAA>	0
<0xAB>	0
<0xAC>	0
<0xAD>	0
<0xAE>	0
<0xAF>	0
<0xB0>	0
<0xB1>	0
<0xB2>	0
<0xB3>	0
<0xB4>	0
<0xB5>	0
<0xB6>	0
<0xB7>	0
<0xB8>	0
<0xB9>	0
<0xBA>	0
<0xBB>	0
<0xBC>	0
<0xBD>	0
<0xBE>	0
<0xBF>	0
<0xC0>	0
<0xC1>	0
<0xC2>	0
<0xC3>	0
<0xC4>	0
<0xC5>	0
<0xC6>	0
<0xC7>	0
<0xC8>	0
<0xC9>	0
<0xCA>	0
<0xCB>	0
<0xCC>	0
<0xCD>	0
<0xCE>	0
<0xCF>	0
<0xD0>	0
<0xD1>	0
<0xD2>	0
<0xD3>	0
<0xD4>	0
<0xD5>	0
<0xD6>	0
<0xD7>	0
<0xD8>	0
<0xD9>	0
<0xDA>	0
<0xDB>	0
<0xDC>	0
<0xDD>	0
<0xDE>	0
<0xDF>	0
<0xE0>	0
<0xE1>	0
<0xE2>	0
<0xE3>	0
<0xE4>	0
<0xE5>	0
<0xE6>	0
<0xE7>	0
<0xE8>	0
<0xE9>	0
<0xEA>	0
<0xEB>	0
<0xEC>	0
<0xED>	0
<0xEE>	0
<0xEF>	0
<0xF0>	0
<0xF1>	0
<0xF2>	0
<0xF3>	0
<0xF4>	0
<0xF5>	0
<0xF6>	0
<0xF7>	0
<0xF8>	0
<0xF9>	0
<0xFA>	0
<0xFB>	0
<0xFC>	0
<0xFD>	0
<0xFE>	0
<0xFF>	0
0	0
1	0
2	0
3	0
4	0
5	0
6	0
7	0
8	0
9	0
-	0
,	0
.	0
?	0
!	0
，	0
。	0
？	0
！	0
、	0
s	-3.27524
▁the	-3.28892
▁and	-3.91464
▁of	-3.94178
▁to	-3.97859
▁a	-4.00209
ed	-4.23485
▁in	-4.36602
▁I	-4.49638
d	-4.50609
ing	-4.55666
t	-4.55729
'	-4.69019
▁was	-4.75649
▁that	-4.79736
▁he	-4.85887
n	-4.94393
▁it	-4.97833
y	-5.00688
ly	-5.10872
▁his	-5.1134
e	-5.11958
▁for	-5.19973
▁had	-5.25695
▁you	-5.26457
▁with	-5.26463
▁be	-5.28456
er	-5.28462
▁is	-5.30774
▁as	-5.36573
▁not	-5.39472
▁her	-5.41467
r	-5.46113
▁on	-5.58643
re	-5.60689
▁at	-5.61082
▁me	-5.66199
▁The	-5.67947
▁she	-5.68351
▁him	-5.7264
le	-5.74332
▁have	-5.75332
l	-5.78656
▁but	-5.81835
in	-5.85787
▁so	-5.86687
▁all	-5.8692
ll	-5.88802
m	-5.89235
o	-5.90099
▁by	-5.91192
▁my	-5.91462
▁said	-5.91964
a	-5.93774
g	-5.94093
▁which	-5.94198
p	-5.95275
al	-5.95377
▁from	-5.95614
u	-5.96737
▁were	-5.97648
▁He	-5.98263
▁this	-5.98308
▁we	-5.98676
ri	-6.02845
▁s	-6.03656
▁they	-6.07973
▁one	-6.09691
ve	-6.10882
▁no	-6.11864
st	-6.12299
▁re	-6.13644
or	-6.14314
▁or	-6.14976
c	-6.16433
en	-6.16559
▁would	-6.19717
▁an	-6.20778
ar	-6.22831
▁A	-6.23698
▁	-6.26095
w	-6.27381
▁are	-6.27395
▁out	-6.28852
▁do	-6.30809
▁them	-6.33052
▁up	-6.33549
▁been	-6.35748
th	-6.36251
b	-6.36505
il	-6.37487
k	-6.39119
▁who	-6.39197
▁their	-6.3923
ra	-6.39925
se	-6.4039
▁will	-6.42653
▁there	-6.42976
▁man	-6.43764
es	-6.4496
ation	-6.45418
▁It	-6.4562
▁when	-6.46387
ne	-6.46419
▁de	-6.47043
an	-6.47866
▁st	-6.49997
ck	-6.50443
▁c	-6.50813
▁'	-6.51026
▁could	-6.51239
▁if	-6.52082
▁And	-6.52448
ch	-6.53988
▁But	-6.54969
f	-6.55084
▁what	-6.55737
la	-6.56682
ur	-6.56822
it	-6.59625
li	-6.60866
on	-6.61366
▁con	-6.62109
▁into	-6.6225
ro	-6.62296
▁b	-6.63874
▁time	-6.64477
ion	-6.64483
▁like	-6.64488
ce	-6.65035
▁more	-6.65223
lo	-6.67001
▁g	-6.69085
▁un	-6.6954
ent	-6.69894
▁co	-6.7083
▁can	-6.72476
▁some	-6.73264
▁p	-6.73587
▁about	-6.74428
▁your	-6.74556
▁know	-6.74685
▁very	-6.75593
▁see	-6.76655
ge	-6.78585
te	-6.78611
▁e	-6.79198
▁other	-6.79245
ir	-6.8147
▁over	-6.81482
h	-6.82566
▁little	-6.82837
▁has	-6.83345
i	-6.83628
▁ma	-6.83828
▁did	-6.84197
▁S	-6.84766
ment	-6.85107
▁any	-6.85265
▁go	-6.85539
▁now	-6.85748
at	-6.87013
▁She	-6.87141
ul	-6.89044
et	-6.8915
▁say	-6.89548
▁than	-6.89765
ic	-6.89961
▁P	-6.90822
est	-6.91362
able	-6.93329
▁B	-6.93481
▁should	-6.93919
▁down	-6.93944
el	-6.94759
ity	-6.95746
▁our	-6.95791
▁upon	-6.97636
ver	-6.97986
▁us	-6.97987
id	-6.98159
▁F	-6.98429
▁E	-6.98693
▁You	-6.99004
ate	-6.99447
▁only	-6.99497
ng	-6.9967
▁great	-6.99789
x	-7.00135
de	-7.00606
▁G	-7.01079
ist	-7.03324
▁Mr	-7.04257
▁come	-7.04624
us	-7.04809
vi	-7.05124
▁made	-7.05879
▁before	-7.05955
▁C	-7.05983
ers	-7.06397
▁O	-7.07406
I	-7.07459
▁pro	-7.07948
ness	-7.08076
▁good	-7.0872
ow	-7.08739
▁think	-7.08784
▁came	-7.08991
v	-7.09199
ted	-7.09871
ol	-7.09888
me	-7.10109
▁d	-7.10545
▁day	-7.10722
▁two	-7.10972
mp	-7.12102
▁way	-7.12422
▁must	-7.12633
nd	-7.13915
▁ex	-7.13991
ous	-7.14073
▁mo	-7.14504
▁back	-7.15322
as	-7.15465
ant	-7.15601
▁then	-7.16119
▁never	-7.17093
▁much	-7.17752
ru	-7.17754
ter	-7.19055
ry	-7.1959
▁old	-7.19838
▁o	-7.20183
▁We	-7.20379
is	-7.20536
▁such	-7.20705
▁thought	-7.21437
▁after	-7.21465
▁ra	-7.21659
▁where	-7.22086
ke	-7.22441
▁men	-7.2308
z	-7.2314
▁f	-7.23535
▁pa	-7.24693
▁am	-7.24746
▁In	-7.25015
ful	-7.25058
▁own	-7.27019
▁sp	-7.27764
▁make	-7.27769
▁di	-7.28144
▁first	-7.28431
▁There	-7.28506
▁again	-7.28565
ence	-7.28842
▁long	-7.29032
▁lo	-7.29796
▁went	-7.30153
ty	-7.30757
less	-7.31106
▁ha	-7.31318
▁T	-7.31386
▁just	-7.314
▁Ma	-7.32344
▁may	-7.32389
ie	-7.32566
▁hand	-7.33162
▁They	-7.3335
▁himself	-7.33745
ies	-7.33745
▁ba	-7.33937
ct	-7.34663
▁might	-7.34702
▁mi	-7.35239
▁well	-7.35719
▁dis	-7.36586
ish	-7.37605
im	-7.37609
ive	-7.37651
▁through	-7.37662
am	-7.38397
▁bu	-7.38561
▁even	-7.38971
▁ro	-7.39267
om	-7.39609
▁place	-7.39962
T	-7.40416
▁how	-7.40526
▁house	-7.41748
▁life	-7.42003
he	-7.42136
▁away	-7.42643
▁bo	-7.42693
pe	-7.44043
▁W	-7.44113
▁love	-7.44128
▁these	-7.45108
▁M	-7.45406
▁here	-7.45594
▁too	-7.46009
▁What	-7.46047
▁night	-7.46259
▁head	-7.46269
led	-7.47045
▁pre	-7.4773
▁off	-7.47781
lu	-7.47825
▁face	-7.47906
▁get	-7.48449
▁po	-7.48544
▁eyes	-7.48863
ti	-7.49255
▁t	-7.49439
ad	-7.49825
▁work	-7.49922
ci	-7.50336
▁those	-7.5065
▁li	-7.50848
age	-7.51233
▁ho	-7.51344
ure	-7.51373
▁last	-7.51405
▁its	-7.51538
▁take	-7.51567
ance	-7.51911
E	-7.52174
ated	-7.52307
ma	-7.52756
▁la	-7.53042
mb	-7.53409
ine	-7.54212
ho	-7.54462
▁most	-7.54585
um	-7.5461
▁every	-7.54681
ni	-7.54849
▁No	-7.55143
▁Be	-7.55669
▁sh	-7.55725
▁So	-7.55921
red	-7.56692
▁tell	-7.56813
▁shall	-7.56853
un	-7.56857
▁still	-7.56913
▁don	-7.57202
▁D	-7.57494
▁room	-7.57537
▁found	-7.57616
▁right	-7.58108
▁Then	-7.58202
▁mean	-7.58537
▁K	-7.58636
▁without	-7.58782
▁saw	-7.59281
A	-7.59562
mo	-7.59774
sh	-7.59805
▁part	-7.5997
▁under	-7.60623
ld	-7.60866
pp	-7.60959
▁Ha	-7.61231
▁far	-7.61413
▁being	-7.61506
▁This	-7.61689
ling	-7.62966
ut	-7.63231
▁th	-7.63375
op	-7.63847
▁nothing	-7.63864
▁put	-7.63907
▁things	-7.64723
▁sc	-7.64971
ac	-7.65082
nt	-7.65082
▁people	-7.65366
▁For	-7.65369
▁look	-7.65856
ugh	-7.66268
▁friend	-7.67043
▁da	-7.6708
▁vi	-7.67126
▁w	-7.67654
▁many	-7.67832
▁young	-7.68121
▁sa	-7.68202
▁ever	-7.68448
▁while	-7.69363
▁gra	-7.69826
ward	-7.70232
▁thing	-7.70502
▁same	-7.70597
man	-7.70959
▁looked	-7.71011
▁That	-7.71058
tic	-7.71159
▁le	-7.71237
▁When	-7.71353
▁door	-7.71559
ight	-7.717
▁If	-7.71869
ard	-7.72085
▁se	-7.72121
ph	-7.72364
▁though	-7.72462
ff	-7.72885
gg	-7.72921
ud	-7.73022
▁another	-7.73148
▁light	-7.73518
▁V	-7.74133
ther	-7.74138
▁heart	-7.74292
▁asked	-7.74382
▁fi	-7.74416
tain	-7.74718
▁per	-7.75106
ot	-7.75135
▁moment	-7.75471
▁once	-7.75695
▁left	-7.75801
▁got	-7.75868
▁God	-7.76
▁ta	-7.76346
der	-7.76539
▁end	-7.76649
▁took	-7.76752
▁mind	-7.77852
S	-7.78705
▁en	-7.78815
▁ga	-7.78931
▁going	-7.78932
▁fa	-7.79023
▁give	-7.79115
▁arm	-7.79273
▁va	-7.80211
son	-7.81248
▁yet	-7.81505
▁knew	-7.816
▁father	-7.82114
▁Do	-7.82184
▁seemed	-7.82195
▁To	-7.82238
po	-7.82806
▁r	-7.82885
▁new	-7.8304
ton	-7.83109
ian	-7.83222
ha	-7.83345
per	-7.83444
▁name	-7.83458
▁find	-7.83677
na	-7.83966
ting	-7.83988
▁side	-7.84032
▁always	-7.84202
▁imp	-7.84696
lt	-7.84779
▁three	-7.84996
▁something	-7.85015
O	-7.85181
▁told	-7.85428
▁ca	-7.86058
▁world	-7.86541
▁want	-7.86644
▁comp	-7.86664
▁heard	-7.8696
▁pi	-7.87021
▁home	-7.8706
▁Co	-7.87152
▁wi	-7.87296
ca	-7.87802
▁because	-7.87861
▁let	-7.88121
▁Mrs	-7.8822
be	-7.88316
nce	-7.88413
les	-7.88682
▁tra	-7.89075
▁ti	-7.89804
ster	-7.89869
▁sea	-7.89902
▁As	-7.90052
unt	-7.90069
▁Mo	-7.9017
ell	-7.90272
▁live	-7.90856
▁At	-7.90868
▁Mar	-7.90915
ign	-7.91109
qui	-7.91538
▁water	-7.91546
▁fl	-7.91612
ice	-7.91718
▁Ro	-7.91985
▁His	-7.93201
our	-7.93533
di	-7.93582
ia	-7.93596
co	-7.93674
to	-7.9384
▁few	-7.93884
▁girl	-7.94105
ally	-7.9425
▁against	-7.94549
if	-7.94622
▁Th	-7.96337
▁care	-7.96392
ary	-7.96526
bb	-7.96579
min	-7.96906
▁kind	-7.97568
no	-7.97599
L	-7.97799
▁fe	-7.98371
▁woman	-7.98386
ction	-7.98527
end	-7.98824
▁voice	-7.9898
bo	-7.98985
▁soon	-7.99116
▁years	-7.99458
▁half	-7.99495
▁seen	-7.99637
▁show	-7.99862
▁dec	-7.99947
▁te	-8.00072
▁done	-8.00103
▁quite	-8.0028
▁hour	-8.00522
and	-8.00593
ig	-8.00732
▁cha	-8.00883
▁course	-8.00926
▁Pa	-8.00929
ta	-8.00942
▁also	-8.01064
ny	-8.0146
▁Sa	-8.01481
▁L	-8.02085
ily	-8.02351
▁Ho	-8.02411
▁talk	-8.02457
▁enough	-8.0268
▁better	-8.02889
▁mother	-8.02894
▁du	-8.02927
▁rest	-8.02937
▁boy	-8.0336
▁app	-8.03803
▁turned	-8.0394
cu	-8.04087
ten	-8.04243
tion	-8.04609
ving	-8.04858
▁matter	-8.05134
▁Miss	-8.05204
▁Oh	-8.05421
▁La	-8.05872
▁called	-8.06495
tra	-8.06583
hi	-8.07089
▁began	-8.07343
ise	-8.07716
▁close	-8.07769
▁How	-8.07852
▁each	-8.07908
▁De	-8.08064
▁Re	-8.08207
▁read	-8.08391
▁high	-8.08642
▁sha	-8.09129
▁St	-8.0923
▁whole	-8.09305
▁wish	-8.09308
fe	-8.09566
land	-8.09692
▁believe	-8.09822
up	-8.09948
ach	-8.09976
▁H	-8.09984
▁morning	-8.10064
▁form	-8.10299
qu	-8.10497
▁does	-8.10833
▁felt	-8.11054
▁open	-8.11102
▁mu	-8.11114
▁wa	-8.11426
▁present	-8.1172
▁gave	-8.11733
▁An	-8.11771
▁sw	-8.11876
▁between	-8.11973
▁On	-8.12081
tter	-8.12169
mon	-8.1249
▁keep	-8.125
▁both	-8.12601
▁hi	-8.12723
ical	-8.12778
ress	-8.13118
row	-8.13237
ep	-8.13303
ag	-8.13548
▁order	-8.13554
▁person	-8.13606
▁set	-8.13717
▁anything	-8.14279
▁Ca	-8.14378
ber	-8.14602
▁speak	-8.14718
▁Well	-8.14724
▁near	-8.15113
▁point	-8.1547
▁almost	-8.15515
one	-8.15544
▁white	-8.15672
▁My	-8.1577
ize	-8.16066
▁stood	-8.16169
▁war	-8.16182
▁Yes	-8.16242
ite	-8.16267
▁myself	-8.16476
ap	-8.1655
▁fire	-8.1658
▁fo	-8.16674
use	-8.16702
▁round	-8.17015
N	-8.17203
que	-8.17404
▁hope	-8.175
vo	-8.17577
▁Now	-8.17939
▁sat	-8.18205
ible	-8.18306
▁hands	-8.18381
rr	-8.18475
▁help	-8.18728
▁stand	-8.18956
em	-8.18994
▁ri	-8.19008
pi	-8.19084
pt	-8.19423
▁small	-8.19466
▁sure	-8.19998
▁hear	-8.20274
▁seem	-8.20644
ring	-8.21352
nch	-8.21419
▁laugh	-8.2155
rry	-8.2177
side	-8.21852
D	-8.21857
▁call	-8.22131
▁full	-8.22137
va	-8.22208
rn	-8.22261
▁mon	-8.22506
▁car	-8.2251
▁All	-8.22651
▁whom	-8.22847
ual	-8.23117
ious	-8.2345
ake	-8.23944
▁Da	-8.23946
▁word	-8.24015
▁sun	-8.24023
▁bra	-8.24067
▁until	-8.24132
▁words	-8.24173
▁wait	-8.24489
▁herself	-8.2449
lic	-8.24797
men	-8.24904
ft	-8.25014
▁next	-8.25613
▁turn	-8.25615
▁having	-8.25623
▁power	-8.25736
▁rep	-8.25793
▁among	-8.25984
ions	-8.26305
▁Se	-8.26698
▁fact	-8.26706
▁leave	-8.27036
und	-8.27237
▁sk	-8.2729
wa	-8.27601
▁dear	-8.28275
▁cre	-8.28549
▁days	-8.28562
▁since	-8.28651
fi	-8.28679
H	-8.28694
▁land	-8.28806
▁brought	-8.2894
pa	-8.28963
rri	-8.29038
R	-8.29082
▁Li	-8.29202
▁ten	-8.29407
mer	-8.29748
▁horse	-8.29752
▁hu	-8.29932
▁cried	-8.29962
▁large	-8.30123
ak	-8.30146
▁need	-8.30208
▁play	-8.30273
▁k	-8.30454
cc	-8.30656
form	-8.30743
▁ran	-8.30808
▁till	-8.31122
▁best	-8.31221
▁lu	-8.31293
▁gone	-8.31312
tor	-8.31593
king	-8.3181
▁poor	-8.3212
▁looking	-8.32374
▁fear	-8.32469
▁tri	-8.32759
▁Why	-8.32778
▁four	-8.32967
▁par	-8.32967
▁less	-8.32994
▁sent	-8.32995
▁watch	-8.3315
▁ne	-8.33195
▁rather	-8.33235
▁together	-8.33263
▁country	-8.33376
fa	-8.33481
▁act	-8.33631
▁ob	-8.33664
▁wo	-8.33918
▁Bo	-8.3393
▁nor	-8.34068
▁strange	-8.34093
lar	-8.34903
▁lay	-8.35426
▁replied	-8.35428
▁question	-8.35433
▁remain	-8.35565
ever	-8.35574
▁use	-8.36409
▁reason	-8.36496
▁sup	-8.36677
▁child	-8.36864
▁Ar	-8.36929
ger	-8.37116
▁pe	-8.3731
▁Le	-8.37387
▁start	-8.37514
ub	-8.3765
▁along	-8.37656
we	-8.37666
▁Wa	-8.37845
▁black	-8.38103
▁case	-8.38242
ath	-8.38413
▁real	-8.38468
▁follow	-8.38535
ip	-8.38661
▁taken	-8.38767
▁feet	-8.38828
bu	-8.38837
av	-8.38952
▁cannot	-8.39216
▁tree	-8.39675
▁letter	-8.39783
▁fall	-8.39944
way	-8.39945
▁Ba	-8.40007
▁idea	-8.40332
▁interest	-8.408
▁wh	-8.41067
▁ye	-8.41119
▁death	-8.4121
U	-8.41445
ick	-8.41933
▁pass	-8.42008
▁answered	-8.42031
▁hard	-8.42033
mit	-8.42463
▁plan	-8.42463
fully	-8.42484
▁star	-8.42494
▁bar	-8.42845
▁dead	-8.4293
ial	-8.43286
shed	-8.43675
▁wife	-8.43887
▁Mi	-8.43973
▁spoke	-8.44011
▁alone	-8.44377
▁why	-8.44525
▁book	-8.44931
▁sound	-8.45116
▁understand	-8.45405
▁behind	-8.45535
▁Po	-8.45544
▁exc	-8.45612
▁Lord	-8.45853
▁minute	-8.45983
ron	-8.46096
▁however	-8.46431
▁money	-8.46442
▁N	-8.46443
▁line	-8.46446
▁consider	-8.46786
▁air	-8.46864
▁suppose	-8.47047
▁ve	-8.4733
▁low	-8.4755
▁law	-8.47612
▁With	-8.47889
▁passed	-8.47962
Y	-8.47995
▁doubt	-8.4802
▁state	-8.48575
ating	-8.48799
ition	-8.48803
▁remember	-8.48983
▁cur	-8.48996
▁Lo	-8.49117
▁Ne	-8.49144
▁che	-8.49189
ries	-8.49288
▁dark	-8.49658
▁grow	-8.49693
▁step	-8.49823
▁Ra	-8.4993
▁true	-8.50145
▁themselves	-8.50283
▁R	-8.50551
▁hold	-8.50795
▁Al	-8.508
▁son	-8.50861
▁sub	-8.50896
▁hundred	-8.50928
mi	-8.51011
ler	-8.51071
▁Su	-8.51092
lin	-8.51093
▁clear	-8.51176
C	-8.51277
▁feel	-8.5133
▁deep	-8.51479
▁certain	-8.51621
▁One	-8.51852
▁try	-8.52068
▁Me	-8.52148
ook	-8.52177
▁inter	-8.52189
▁change	-8.52221
ink	-8.52623
▁draw	-8.52641
▁sir	-8.52705
▁given	-8.52938
com	-8.53354
val	-8.53654
▁ground	-8.53774
od	-8.53797
▁table	-8.54025
▁strong	-8.54053
▁short	-8.54244
▁Car	-8.54344
M	-8.54633
▁Her	-8.54903
▁answer	-8.54969
▁indeed	-8.55128
▁children	-8.55454
▁Je	-8.55853
▁Di	-8.55902
▁smile	-8.56011
▁really	-8.5612
▁ask	-8.56323
▁Sir	-8.56376
▁around	-8.56422
ches	-8.56504
▁Jo	-8.56865
▁fell	-8.57125
▁window	-8.57181
ga	-8.57217
▁sign	-8.57228
▁coming	-8.57431
▁ear	-8.57497
go	-8.57514
▁vo	-8.57709
▁ship	-8.57794
▁free	-8.58081
W	-8.58103
▁John	-8.58204
▁perhaps	-8.58212
▁wonder	-8.58338
▁body	-8.58761
▁above	-8.58777
▁i	-8.58803
▁sort	-8.58935
▁Of	-8.59013
▁bring	-8.59078
ba	-8.59279
▁earth	-8.59445
ze	-8.59573
▁spirit	-8.59663
▁big	-8.59785
uff	-8.5986
▁return	-8.59915
▁five	-8.60113
▁eye	-8.60146
▁year	-8.60285
▁least	-8.60291
iv	-8.60496
▁evening	-8.60552
▁Ju	-8.60587
▁else	-8.60821
▁second	-8.60858
▁didn	-8.60877
▁soul	-8.60899
▁cra	-8.61934
▁king	-8.62153
▁whose	-8.62171
▁pain	-8.62189
▁known	-8.62189
▁learn	-8.62439
ttle	-8.62622
ities	-8.62623
▁lady	-8.62712
j	-8.6345
▁red	-8.63606
▁Ru	-8.63771
▁gu	-8.63802
▁meet	-8.63915
▁Ja	-8.64042
▁foot	-8.64065
▁King	-8.64089
▁wood	-8.64162
▁feeling	-8.64271
▁expect	-8.64295
▁manner	-8.64353
▁brother	-8.64357
▁J	-8.64373
▁comm	-8.64697
tin	-8.64924
▁become	-8.65064
▁wall	-8.65215
▁Some	-8.65254
gu	-8.65284
▁used	-8.65563
▁thou	-8.65579
▁bad	-8.65594
ncy	-8.65763
▁six	-8.6584
igh	-8.65895
▁sight	-8.66205
▁cause	-8.66444
▁held	-8.66466
▁sleep	-8.6654
▁j	-8.66625
the	-8.66711
▁won	-8.66745
▁town	-8.66819
by	-8.66941
▁nature	-8.67004
▁itself	-8.67076
▁general	-8.67164
ative	-8.67185
▁already	-8.67567
ctor	-8.67581
stead	-8.67636
▁returned	-8.6769
▁walk	-8.67692
▁Cha	-8.67738
▁fellow	-8.67786
▁often	-8.68279
▁run	-8.68569
▁kill	-8.68769
▁U	-8.68855
▁beautiful	-8.69418
▁week	-8.69433
▁kept	-8.69565
▁women	-8.69577
▁fine	-8.69824
▁After	-8.69935
▁na	-8.70628
▁business	-8.70671
▁hat	-8.70914
▁dress	-8.7131
▁lost	-8.71371
▁fair	-8.71505
wi	-8.72075
lf	-8.72123
▁hair	-8.72286
▁cold	-8.72292
con	-8.72348
▁ill	-8.72394
▁Not	-8.72606
▁rose	-8.72642
▁making	-8.72651
▁across	-8.72657
▁trouble	-8.72695
art	-8.72713
▁sense	-8.72775
▁whether	-8.72998
▁ju	-8.73037
▁cut	-8.73196
▁perfect	-8.732
gue	-8.73222
▁truth	-8.73245
▁force	-8.73367
▁visit	-8.7347
▁wild	-8.7359
▁past	-8.73819
▁rid	-8.73929
▁thousand	-8.74058
cent	-8.74183
▁within	-8.74185
▁human	-8.74239
day	-8.7424
▁everything	-8.74351
▁su	-8.74597
▁quiet	-8.7475
out	-8.7481
▁art	-8.74817
kin	-8.74824
▁im	-8.75098
▁became	-8.7578
▁wind	-8.76118
mble	-8.76544
▁cap	-8.76737
▁road	-8.77374
▁either	-8.77581
ham	-8.77784
▁leg	-8.78423
▁able	-8.78469
▁English	-8.78499
▁possible	-8.78549
▁please	-8.78568
▁suddenly	-8.79162
▁bear	-8.79215
▁Un	-8.79319
rate	-8.79744
▁dream	-8.79833
▁lead	-8.79883
▁front	-8.80277
▁thus	-8.80341
▁gold	-8.8039
ship	-8.80392
▁family	-8.80495
▁except	-8.8069
▁thy	-8.80821
▁cho	-8.81028
▁towards	-8.81436
ib	-8.81677
▁fra	-8.81767
cr	-8.81834
▁cor	-8.81936
▁qua	-8.81944
▁wanted	-8.81969
▁followed	-8.82034
▁Don	-8.82053
▁paper	-8.82067
▁Go	-8.82173
▁Nor	-8.82291
F	-8.82397
light	-8.82554
▁desire	-8.8261
ier	-8.82815
▁cru	-8.82847
▁touch	-8.82874
for	-8.83351
▁ready	-8.83393
where	-8.83425
▁flow	-8.83483
▁late	-8.83557
cious	-8.83598
ature	-8.83672
▁stay	-8.83686
▁reached	-8.83935
▁THE	-8.84014
▁Pe	-8.84037
ably	-8.8411
▁Con	-8.84163
▁sur	-8.84229
▁effect	-8.843
▁ought	-8.84324
▁number	-8.84428
▁during	-8.84479
▁fur	-8.84835
▁Si	-8.84916
▁therefore	-8.84934
▁blood	-8.8495
▁glad	-8.85012
▁discover	-8.85164
▁story	-8.85206
▁object	-8.85447
▁count	-8.85545
▁different	-8.85572
▁subject	-8.85649
▁soft	-8.85663
▁mine	-8.85783
▁eat	-8.85943
▁husband	-8.8596
▁disc	-8.86075
bi	-8.86076
itude	-8.86664
▁Na	-8.86721
▁boat	-8.87036
▁safe	-8.87234
▁ago	-8.87245
au	-8.87311
▁breath	-8.8742
▁daughter	-8.87463
▁proper	-8.87485
▁Fa	-8.87591
▁Prince	-8.87738
▁Let	-8.88068
pose	-8.88192
▁tre	-8.88198
▁fight	-8.88235
▁several	-8.8828
▁Sc	-8.883
▁Y	-8.88589
port	-8.88676
jo	-8.88808
▁save	-8.8899
▁twenty	-8.89289
▁listen	-8.8962
▁Lady	-8.90588
▁master	-8.90877
▁Sp	-8.91023
▁difficult	-8.91138
▁regard	-8.91231
pen	-8.91259
▁pur	-8.91984
▁command	-8.92067
▁sweet	-8.92238
▁remark	-8.92283
ER	-8.92292
▁chance	-8.92325
▁bird	-8.92333
▁natural	-8.92466
▁enter	-8.92672
▁Here	-8.92674
▁street	-8.92713
ju	-8.92766
▁chi	-8.92779
▁longer	-8.92952
▁By	-8.92998
▁cross	-8.93012
▁Who	-8.93115
▁danger	-8.93117
▁New	-8.9378
▁spec	-8.93793
▁possess	-8.93965
▁Bu	-8.94013
▁continued	-8.94061
▁occasion	-8.94705
▁cry	-8.94729
▁beside	-8.94743
▁taking	-8.94747
▁lie	-8.94771
ism	-8.94815
▁opened	-8.94861
▁appeared	-8.95057
▁pretty	-8.95063
▁stone	-8.95084
▁tu	-8.95097
▁plain	-8.95253
▁respect	-8.95288
ute	-8.95358
▁piece	-8.95513
▁tried	-8.95561
ark	-8.95743
▁happy	-8.95762
▁Hi	-8.95874
▁Har	-8.96294
▁river	-8.96614
▁happened	-8.96807
▁suffer	-8.96841
▁bit	-8.97033
▁dog	-8.97083
zz	-8.97185
▁flo	-8.97199
▁Gra	-8.97367
▁Dr	-8.97499
▁forward	-8.97637
▁Where	-8.97869
▁throw	-8.97983
▁surprise	-8.98038
▁deal	-8.98118
fore	-8.98172
▁promise	-8.98238
▁chair	-8.98452
▁character	-8.9865
▁bi	-8.98806
▁write	-8.98816
ator	-8.98828
▁account	-8.99117
▁carried	-8.99311
▁offer	-8.99395
▁miles	-8.99556
▁trans	-8.99693
▁fast	-8.99753
▁sister	-8.99766
▁pray	-9.00255
▁hot	-9.00396
▁particular	-9.00494
▁later	-9.00546
▁mark	-9.00912
▁common	-9.01041
▁em	-9.01362
▁silence	-9.01526
▁figure	-9.01563
▁view	-9.01566
▁chief	-9.0174
▁city	-9.02173
▁worth	-9.02265
▁mouth	-9.02313
G	-9.02593
▁school	-9.02833
▁tro	-9.02838
▁bright	-9.02924
▁pay	-9.03237
▁party	-9.03358
▁success	-9.03384
▁usual	-9.03563
▁secret	-9.03707
B	-9.03791
▁rock	-9.0418
head	-9.04286
▁instant	-9.04623
▁afraid	-9.0494
ified	-9.05248
▁Te	-9.05254
▁tea	-9.05294
▁blue	-9.05657
▁port	-9.05665
▁joy	-9.05783
▁seven	-9.05946
▁Or	-9.06151
▁added	-9.06377
▁entered	-9.06626
▁bow	-9.06716
▁yourself	-9.06719
▁court	-9.0672
▁walked	-9.06806
▁Indian	-9.06832
▁gentleman	-9.06975
▁received	-9.07017
V	-9.07094
▁field	-9.07224
itch	-9.07241
▁comfort	-9.07252
▁From	-9.07259
▁carry	-9.07397
▁French	-9.074
P	-9.07427
▁pen	-9.07593
▁cent	-9.07683
▁certainly	-9.07793
▁garden	-9.07843
umb	-9.07845
▁Ta	-9.07952
▁Jack	-9.07994
ah	-9.0802
▁Peter	-9.08434
▁direct	-9.08686
▁Mon	-9.08763
▁cast	-9.08828
▁break	-9.0883
▁stopped	-9.09037
▁send	-9.09083
▁train	-9.09223
▁self	-9.09489
▁beyond	-9.09661
▁green	-9.09738
▁hung	-9.09753
▁fail	-9.09779
▁further	-9.09813
▁silent	-9.09857
▁wrong	-9.10004
▁mountain	-9.10017
▁explain	-9.10058
▁delight	-9.10186
▁suggest	-9.10279
▁drive	-9.10456
▁sometimes	-9.10679
▁agree	-9.10881
▁miss	-9.10974
▁grand	-9.11222
▁Man	-9.11263
▁Can	-9.11376
▁utter	-9.11459
▁living	-9.11707
▁entire	-9.11765
▁purpose	-9.11823
▁hill	-9.11832
ient	-9.12757
▁position	-9.12818
▁slowly	-9.13101
▁getting	-9.13171
▁caught	-9.13202
▁gentle	-9.1326
▁early	-9.13397
▁fun	-9.13707
▁nearly	-9.13849
▁England	-9.13913
▁burn	-9.13916
▁Com	-9.14055
▁public	-9.1427
▁floor	-9.14517
▁exclaimed	-9.14586
▁eight	-9.14785
▁warm	-9.14805
▁servant	-9.14846
▁necessary	-9.14889
▁travel	-9.1509
▁gun	-9.15133
▁whisper	-9.15468
▁fool	-9.15787
▁rich	-9.15806
▁distance	-9.16026
▁sail	-9.16338
▁drew	-9.16348
▁game	-9.16697
▁officer	-9.16708
▁finger	-9.16734
▁hardly	-9.16773
▁glance	-9.16844
▁repeat	-9.17025
▁pleasure	-9.17329
▁reach	-9.17418
▁length	-9.17447
▁escape	-9.17773
▁prove	-9.17776
▁picture	-9.17847
▁complete	-9.1797
▁neither	-9.18026
▁heavy	-9.18052
▁Hu	-9.18097
▁stop	-9.18144
▁ph	-9.18309
ith	-9.18391
▁dinner	-9.18443
▁creature	-9.1851
▁appear	-9.18531
▁camp	-9.18725
▁govern	-9.18871
▁experience	-9.19013
▁condition	-9.19257
▁Bar	-9.19426
▁sit	-9.19777
▁corner	-9.19796
▁grew	-9.19822
▁village	-9.19905
▁flu	-9.20167
spec	-9.20273
▁lips	-9.2046
clock	-9.20521
▁prison	-9.20621
▁settle	-9.20717
▁soldier	-9.20727
▁Chi	-9.20745
ON	-9.20843
▁attempt	-9.20864
▁heaven	-9.21068
▁Every	-9.21148
▁ver	-9.2136
▁Tom	-9.21801
▁proceed	-9.21943
▁Ti	-9.21994
▁crowd	-9.22149
▁thank	-9.22232
▁bound	-9.22524
▁afternoon	-9.22533
▁peace	-9.22628
▁company	-9.22677
▁pick	-9.22679
▁direction	-9.23007
▁affect	-9.23495
▁grave	-9.2362
▁Pro	-9.23654
▁approach	-9.23755
▁equal	-9.24
▁laid	-9.24062
hood	-9.24148
▁Cla	-9.24223
▁wide	-9.24235
▁service	-9.24514
▁straight	-9.24532
▁slight	-9.24572
▁pull	-9.24574
▁press	-9.24715
▁struck	-9.24835
▁animal	-9.25012
▁strength	-9.25072
▁faith	-9.252
▁belong	-9.25238
▁attention	-9.25345
▁Good	-9.25365
▁glass	-9.25974
▁hunt	-9.26153
▁opinion	-9.26504
▁blow	-9.26673
▁gro	-9.2675
▁Sha	-9.26976
▁bank	-9.27024
cept	-9.27182
▁join	-9.27206
▁post	-9.2731
▁guard	-9.27345
▁sitting	-9.27392
▁rush	-9.27548
▁office	-9.27574
▁broken	-9.2772
▁fro	-9.2777
▁moon	-9.27774
▁ja	-9.27933
▁Z	-9.27991
▁fish	-9.28771
▁shot	-9.2902
▁knowledge	-9.29666
▁quickly	-9.29722
hold	-9.29915
▁drink	-9.29968
▁sharp	-9.3002
▁snow	-9.30101
▁hum	-9.30107
like	-9.30139
▁Ri	-9.30172
▁mention	-9.30362
▁sum	-9.30936
▁happen	-9.30974
▁Father	-9.31187
▁State	-9.31234
▁observe	-9.31353
▁accept	-9.3168
▁class	-9.31799
▁church	-9.31898
▁shadow	-9.3209
▁nu	-9.32211
▁outside	-9.32231
▁scene	-9.3229
▁pleasant	-9.32294
▁London	-9.32361
▁express	-9.3246
▁treat	-9.32569
▁easy	-9.3273
▁author	-9.32809
ject	-9.32844
▁kiss	-9.32939
▁immediately	-9.33024
▁companion	-9.33174
▁enjoy	-9.33241
▁weak	-9.33356
▁food	-9.33924
▁path	-9.33936
▁thick	-9.34056
▁Come	-9.34353
▁result	-9.34393
▁wound	-9.34413
▁doctor	-9.34418
▁Christ	-9.34597
▁filled	-9.34712
▁forget	-9.34978
▁charge	-9.34995
▁suit	-9.35076
▁probably	-9.35131
▁concern	-9.35167
▁spot	-9.35188
▁serve	-9.3526
▁broke	-9.35264
miss	-9.35441
▁born	-9.35479
▁shout	-9.35495
▁affair	-9.35574
▁demand	-9.35692
AN	-9.35732
▁gather	-9.3585
▁Just	-9.35855
▁box	-9.35918
▁Wi	-9.36014
▁beginning	-9.36418
▁attack	-9.36826
▁nice	-9.36904
▁board	-9.36975
▁begin	-9.37156
▁American	-9.37352
▁pocket	-9.37401
▁spring	-9.37541
▁dread	-9.37601
▁effort	-9.37672
▁tears	-9.37777
▁sick	-9.37848
▁quick	-9.38138
▁evil	-9.38231
▁Captain	-9.38345
▁passion	-9.38691
▁battle	-9.38795
▁whatever	-9.38927
AR	-9.39029
▁below	-9.39421
▁trust	-9.39428
▁appearance	-9.3953
▁pause	-9.40077
▁evident	-9.40167
▁although	-9.40502
▁impossible	-9.40502
▁yard	-9.40546
▁Ellen	-9.40602
▁Yet	-9.40645
▁written	-9.408
▁third	-9.40808
▁advance	-9.40913
▁fresh	-9.40933
▁depart	-9.40989
▁music	-9.41144
▁slip	-9.4131
▁produce	-9.41325
▁north	-9.41422
▁term	-9.41484
▁presence	-9.41607
▁search	-9.41634
▁prince	-9.41836
ES	-9.41841
▁knee	-9.4188
▁shut	-9.41896
▁expression	-9.41971
▁wonderful	-9.42011
Q	-9.42156
▁married	-9.42332
▁guess	-9.42705
▁sudden	-9.42843
▁teach	-9.42872
▁according	-9.42879
▁journey	-9.43472
▁quarter	-9.43473
▁conversation	-9.43896
▁simple	-9.43915
▁beauty	-9.44283
▁scarce	-9.44342
▁X	-9.44525
▁enemy	-9.44555
▁murder	-9.44651
EN	-9.44835
▁George	-9.44903
▁neck	-9.45035
tric	-9.45109
▁eager	-9.45124
▁Alice	-9.45283
▁attend	-9.45355
▁duty	-9.45562
▁arrived	-9.45666
▁serious	-9.4577
▁south	-9.45982
▁circumstance	-9.4602
▁cloud	-9.46139
▁running	-9.46273
▁stream	-9.4634
ctive	-9.46615
▁occur	-9.46931
▁single	-9.47223
▁admit	-9.47228
▁report	-9.47286
▁rule	-9.47345
▁rise	-9.47382
▁shore	-9.47606
▁iron	-9.47872
▁habit	-9.47898
▁shook	-9.47926
▁nation	-9.48112
▁giving	-9.48658
▁faint	-9.48794
▁leaving	-9.48879
▁Perhaps	-9.48979
▁Will	-9.49195
▁Ni	-9.49374
▁merely	-9.49387
▁require	-9.49601
▁loud	-9.49763
▁raised	-9.50116
▁morrow	-9.50144
▁pound	-9.50492
▁darkness	-9.50703
▁clothes	-9.50844
▁Even	-9.51267
▁Christian	-9.51367
▁threw	-9.51386
▁arrange	-9.51548
▁anxious	-9.51611
▁easily	-9.51736
▁space	-9.51752
▁drop	-9.51798
▁lord	-9.5184
▁content	-9.5195
▁marry	-9.51982
▁shape	-9.52647
▁William	-9.52784
▁sufficient	-9.5291
▁fashion	-9.52974
▁latter	-9.5303
▁nine	-9.53664
▁movement	-9.53675
▁refuse	-9.54146
▁simply	-9.54484
▁tender	-9.54616
▁summer	-9.54627
▁terrible	-9.54677
▁native	-9.54682
▁honour	-9.55002
▁address	-9.55325
▁colour	-9.55676
▁especially	-9.55714
▁Dick	-9.55735
▁imagine	-9.55779
▁winter	-9.55785
▁speech	-9.5591
▁rapid	-9.55915
▁dropped	-9.56175
▁protect	-9.56506
▁future	-9.56805
OR	-9.57266
▁important	-9.57443
▁history	-9.57993
▁calm	-9.58054
▁motion	-9.58532
▁study	-9.58672
▁curious	-9.58769
▁middle	-9.58777
▁conscious	-9.58967
▁catch	-9.59092
▁wrote	-9.59272
▁understood	-9.59293
▁mistake	-9.59474
▁judge	-9.59478
▁cease	-9.59644
▁bitter	-9.59961
▁Bill	-9.60367
▁employ	-9.60561
▁noble	-9.60604
▁succeed	-9.60606
▁favour	-9.6127
▁clean	-9.61303
▁reflect	-9.61408
▁brown	-9.61412
▁CHAPTER	-9.61476
K	-9.61544
▁edge	-9.61627
▁worse	-9.61759
▁special	-9.6203
▁communi	-9.621
▁firm	-9.62471
▁stretch	-9.62843
▁slave	-9.62848
▁absolute	-9.62865
▁private	-9.63005
▁passage	-9.63026
▁lying	-9.63067
▁bread	-9.6322
▁disappear	-9.63309
▁Look	-9.63439
▁member	-9.6374
▁drag	-9.63811
▁beneath	-9.63946
▁afterwards	-9.64033
▁hy	-9.6446
▁desert	-9.6458
▁harm	-9.6484
▁conduct	-9.64843
▁France	-9.64918
▁German	-9.65418
position	-9.65598
▁cheek	-9.65826
▁awful	-9.65963
▁writing	-9.6616
▁York	-9.66184
▁narrow	-9.66353
▁influence	-9.66473
▁storm	-9.66564
▁fortune	-9.66643
▁charm	-9.66651
▁taste	-9.66915
▁hurt	-9.67051
▁support	-9.67227
▁ladies	-9.67281
▁apparent	-9.67397
X	-9.67577
▁health	-9.68039
▁While	-9.68057
▁silver	-9.68063
▁forgotten	-9.68155
▁determined	-9.68253
▁receive	-9.6832
▁temper	-9.6833
▁push	-9.68419
▁South	-9.68446
▁destroy	-9.68475
▁spread	-9.68576
▁fifty	-9.68699
▁prevent	-9.68823
▁measure	-9.68825
▁breakfast	-9.68994
▁flash	-9.69633
▁relation	-9.69636
▁represent	-9.69641
▁blind	-9.69673
▁murmur	-9.6984
▁smoke	-9.70068
▁gaze	-9.70236
▁broad	-9.70519
▁distinct	-9.70586
▁thirty	-9.70669
▁collect	-9.71229
▁devil	-9.71418
▁ruin	-9.71418
▁Qui	-9.71529
▁ourselves	-9.71605
▁fixed	-9.7164
▁yellow	-9.71683
▁confess	-9.71785
▁elect	-9.71833
▁captain	-9.7205
▁degree	-9.72219
▁honest	-9.72229
▁store	-9.72484
▁Nothing	-9.7257
▁somewhat	-9.72834
▁General	-9.73299
▁Queen	-9.73454
▁machine	-9.73534
▁situation	-9.73559
▁beast	-9.73607
▁James	-9.73677
▁cloth	-9.74346
▁priest	-9.74454
▁apart	-9.74564
▁honor	-9.74592
▁sword	-9.75008
▁police	-9.75159
▁marriage	-9.75285
▁uncle	-9.75381
▁happiness	-9.75417
▁carriage	-9.75895
▁claim	-9.76242
▁sorrow	-9.76384
▁prepared	-9.76427
▁language	-9.76587
▁period	-9.76989
▁built	-9.77143
▁civil	-9.77665
▁memory	-9.77719
▁climb	-9.77827
▁society	-9.78042
▁describe	-9.78096
▁various	-9.78152
▁empty	-9.78343
▁struggle	-9.78368
▁angry	-9.78616
▁instance	-9.78617
▁stairs	-9.78695
▁courage	-9.79382
▁fruit	-9.79412
▁earnest	-9.79935
▁peculiar	-9.80042
▁moral	-9.80543
▁false	-9.80581
▁wander	-9.80604
▁extreme	-9.80792
▁establish	-9.80848
▁valley	-9.80876
▁Two	-9.81162
▁east	-9.81201
▁British	-9.81296
▁difference	-9.81324
▁system	-9.8138
▁individual	-9.81576
▁knock	-9.81577
▁stock	-9.81674
▁increase	-9.81773
▁opposite	-9.81935
▁Very	-9.82086
▁custom	-9.82197
▁awake	-9.82338
▁advantage	-9.82338
▁group	-9.82732
▁tongue	-9.82779
▁bottom	-9.82792
field	-9.82964
▁breast	-9.83306
▁cabin	-9.8334
▁value	-9.83536
▁depend	-9.83889
▁swift	-9.84142
▁Edward	-9.84147
▁Sunday	-9.84341
▁favor	-9.8449
▁twelve	-9.84746
▁opportunity	-9.84804
▁Europe	-9.84833
▁accident	-9.85299
▁kitchen	-9.85387
▁hurried	-9.85476
▁altogether	-9.85738
▁principle	-9.85796
▁disturb	-9.85914
▁provide	-9.86079
worth	-9.86124
▁threat	-9.86132
▁vessel	-9.86415
▁ancient	-9.86447
▁Colonel	-9.8668
▁witness	-9.86865
▁fault	-9.86988
▁attract	-9.87015
▁recover	-9.87096
▁recognize	-9.87154
▁divine	-9.87188
▁develop	-9.87243
▁discuss	-9.87344
▁descend	-9.87422
▁regular	-9.87422
▁secure	-9.8755
▁detail	-9.87782
▁key	-9.87937
▁punish	-9.88531
▁savage	-9.88743
▁constant	-9.88868
wood	-9.89074
▁pride	-9.89174
▁weather	-9.89208
▁deliver	-9.89717
▁nobody	-9.89774
▁Philip	-9.90141
▁perceive	-9.90142
▁couple	-9.90421
▁introduc	-9.90509
▁cousin	-9.90585
▁Jones	-9.91065
▁neighbour	-9.91157
▁wheel	-9.91346
▁terror	-9.91436
▁process	-9.91625
▁asleep	-9.91726
▁everybody	-9.91871
▁handsome	-9.91994
▁horror	-9.9209
▁engaged	-9.92151
▁yo	-9.92379
▁Frank	-9.92559
▁emotion	-9.92591
▁roof	-9.92783
▁Madame	-9.92904
▁separate	-9.92999
▁frequent	-9.93156
▁square	-9.9322
▁alarm	-9.9328
▁teeth	-9.93354
▁adventure	-9.93377
▁dozen	-9.93451
▁surface	-9.93853
▁triumph	-9.94171
▁smiling	-9.94332
▁example	-9.94555
▁solemn	-9.94555
▁evidence	-9.94811
▁steam	-9.94892
▁gloom	-9.95038
▁anybody	-9.95165
▁circle	-9.95261
▁thorough	-9.95358
▁religion	-9.95714
▁shock	-9.95722
▁shoot	-9.96008
▁distant	-9.96086
▁ordinary	-9.96136
▁material	-9.96136
▁frightened	-9.96363
▁patient	-9.96399
▁conceal	-9.96506
▁Jesus	-9.9651
▁Still	-9.96537
ability	-9.96548
▁throat	-9.96757
▁Uncle	-9.97151
▁forgive	-9.97234
▁familiar	-9.97412
▁Indeed	-9.97536
▁Smith	-9.97645
▁loose	-9.97736
▁milk	-9.98086
▁control	-9.98106
▁palace	-9.98507
▁strike	-9.98846
▁satisfied	-9.98938
▁nurse	-9.99045
▁avoid	-9.99082
▁drove	-9.99388
▁impression	-9.99509
▁labor	-9.99652
▁plea	-9.99773
▁excitement	-9.99778
▁disappoint	-9.99946
▁fierce	-10.0002
▁flame	-10.0014
▁irre	-10.0025
▁intention	-10.0026
▁virtue	-10.0042
▁America	-10.0071
▁Wallace	-10.0093
▁practical	-10.011
▁smooth	-10.012
▁obliged	-10.0131
▁twice	-10.0141
▁Thou	-10.0188
▁obey	-10.0202
▁chamber	-10.0276
▁knight	-10.0279
▁folk	-10.03
ING	-10.0315
▁method	-10.0321
▁Edwin	-10.0345
▁confidence	-10.0363
▁Though	-10.0402
▁amount	-10.0402
▁Those	-10.0405
▁violent	-10.0437
▁guide	-10.0449
▁inquired	-10.0466
▁consequence	-10.0472
▁record	-10.049
▁instinct	-10.0523
▁crown	-10.0533
▁cigar	-10.0583
▁Again	-10.0583
▁fifteen	-10.0615
▁splendid	-10.064
▁progress	-10.0662
▁crime	-10.0724
▁article	-10.0775
▁intellect	-10.0778
▁suspect	-10.0778
▁instruct	-10.0789
▁double	-10.0823
▁welcome	-10.0833
▁flesh	-10.0837
▁severe	-10.0848
cript	-10.0853
▁price	-10.0864
▁Duke	-10.087
▁distinguish	-10.0873
▁level	-10.0879
▁Thank	-10.0888
▁Would	-10.0892
▁despair	-10.0899
▁neighbor	-10.0906
▁similar	-10.0929
▁excellent	-10.094
▁yesterday	-10.0944
▁previous	-10.0944
▁brief	-10.0955
▁Cecilia	-10.0958
▁blank	-10.0958
▁otherwise	-10.0988
▁examine	-10.1011
▁message	-10.1011
▁praise	-10.1026
▁cheerful	-10.1043
▁entrance	-10.1052
▁contrary	-10.1071
▁nervous	-10.1078
▁dwell	-10.1097
▁relief	-10.1108
▁century	-10.1116
▁White	-10.1127
▁accomplish	-10.1131
▁labour	-10.1135
▁announce	-10.1157
▁oppos	-10.1204
▁Street	-10.123
▁wretch	-10.1241
▁President	-10.1245
▁taught	-10.1261
▁yield	-10.1272
▁queen	-10.1272
▁million	-10.1278
J	-11.138
Z	-11.632
q	-11.7024
㑇	-9.69338
㑊	-9.69338
㕮	-9.69338
㘎	-9.69338
㙍	-9.69338
㙘	-9.69338
㙦	-9.69338
㛃	-9.69338
㛚	-9.69338
㛹	-9.69338
㟃	-9.69338
㠇	-9.69338
㠓	-9.69338
㤘	-9.69338
㥄	-9.69338
㧐	-9.69338
㧑	-9.69338
㧟	-9.69338
㫰	-9.69338
㬊	-9.69338
㬎	-9.69338
㬚	-9.69338
㭎	-9.69338
㭕	-9.69338
㮾	-9.69338
㰀	-9.69338
㳇	-9.69338
㳘	-9.69338
㳚	-9.69338
㴔	-9.69338
㵐	-9.69338
㶲	-9.69338
㸆	-9.69338
㸌	-9.69338
㺄	-9.69338
㻬	-9.69338
㽏	-9.69338
㿠	-9.69338
䁖	-9.69338
䂮	-9.69338
䃅	-9.69338
䃎	-9.69338
䅟	-9.69338
䌹	-9.69338
䎃	-9.69338
䎖	-9.69338
䏝	-9.69338
䏡	-9.69338
䏲	-9.69338
䐃	-9.69338
䓖	-9.69338
䓛	-9.69338
䓨	-9.69338
䓫	-9.69338
䓬	-9.69338
䗖	-9.69338
䗛	-9.69338
䗪	-9.69338
䗴	-9.69338
䜣	-9.69338
䝙	-9.69338
䢺	-9.69338
䢼	-9.69338
䣘	-9.69338
䥽	-9.69338
䦃	-9.69338
䲟	-9.69338
䲠	-9.69338
䲢	-9.69338
䴓	-9.69338
䴔	-9.69338
䴕	-9.69338
䴖	-9.69338
䴗	-9.69338
䴘	-9.69338
䴙	-9.69338
䶮	-9.69338
一	-9.69338
丁	-9.69338
七	-9.69338
万	-9.69338
丈	-9.69338
三	-9.69338
上	-9.69338
下	-9.69338
不	-9.69338
与	-9.69338
丏	-9.69338
丐	-9.69338
丑	-9.69338
专	-9.69338
且	-9.69338
丕	-9.69338
世	-9.69338
丘	-9.69338
丙	-9.69338
业	-9.69338
丛	-9.69338
东	-9.69338
丝	-9.69338
丞	-9.69338
丢	-9.69338
两	-9.69338
严	-9.69338
丧	-9.69338
个	-9.69338
丫	-9.69338
中	-9.69338
丰	-9.69338
串	-9.69338
临	-9.69338
丸	-9.69338
丹	-9.69338
为	-9.69338
主	-9.69338
丽	-9.69338
举	-9.69338
乂	-9.69338
乃	-9.69338
久	-9.69338
么	-9.69338
义	-9.69338
之	-9.69338
乌	-9.69338
乍	-9.69338
乎	-9.69338
乏	-9.69338
乐	-9.69338
乒	-9.69338
乓	-9.69338
乔	-9.69338
乖	-9.69338
乘	-9.69338
乙	-9.69338
乜	-9.69338
九	-9.69338
乞	-9.69338
也	-9.69338
习	-9.69338
乡	-9.69338
书	-9.69338
乩	-9.69338
买	-9.69338
乱	-9.69338
乳	-9.69338
乸	-9.69338
乾	-9.69338
了	-9.69338
予	-9.69338
争	-9.69338
事	-9.69338
二	-9.69338
亍	-9.69338
于	-9.69338
亏	-9.69338
云	-9.69338
互	-9.69338
亓	-9.69338
五	-9.69338
井	-9.69338
亘	-9.69338
亚	-9.69338
些	-9.69338
亟	-9.69338
亡	-9.69338
亢	-9.69338
交	-9.69338
亥	-9.69338
亦	-9.69338
产	-9.69338
亨	-9.69338
亩	-9.69338
享	-9.69338
京	-9.69338
亭	-9.69338
亮	-9.69338
亲	-9.69338
亳	-9.69338
亵	-9.69338
亶	-9.69338
亸	-9.69338
亹	-9.69338
人	-9.69338
亿	-9.69338
什	-9.69338
仁	-9.69338
仂	-9.69338
仃	-9.69338
仄	-9.69338
仅	-9.69338
仆	-9.69338
仇	-9.69338
仉	-9.69338
今	-9.69338
介	-9.69338
仍	-9.69338
从	-9.69338
仑	-9.69338
仓	-9.69338
仔	-9.69338
仕	-9.69338
他	-9.69338
仗	-9.69338
付	-9.69338
仙	-9.69338
仝	-9.69338
仞	-9.69338
仟	-9.69338
仡	-9.69338
代	-9.69338
令	-9.69338
以	-9.69338
仨	-9.69338
仪	-9.69338
仫	-9.69338
们	-9.69338
仰	-9.69338
仲	-9.69338
仳	-9.69338
仵	-9.69338
件	-9.69338
价	-9.69338
任	-9.69338
份	-9.69338
仿	-9.69338
企	-9.69338
伈	-9.69338
伉	-9.69338
伊	-9.69338
伋	-9.69338
伍	-9.69338
伎	-9.69338
伏	-9.69338
伐	-9.69338
休	-9.69338
众	-9.69338
优	-9.69338
伙	-9.69338
会	-9.69338
伛	-9.69338
伞	-9.69338
伟	-9.69338
传	-9.69338
伢	-9.69338
伣	-9.69338
伤	-9.69338
伥	-9.69338
伦	-9.69338
伧	-9.69338
伪	-9.69338
伫	-9.69338
伭	-9.69338
伯	-9.69338
估	-9.69338
伲	-9.69338
伴	-9.69338
伶	-9.69338
伸	-9.69338
伺	-9.69338
似	-9.69338
伽	-9.69338
伾	-9.69338
佁	-9.69338
佃	-9.69338
但	-9.69338
位	-9.69338
低	-9.69338
住	-9.69338
佐	-9.69338
佑	-9.69338
体	-9.69338
何	-9.69338
佖	-9.69338
佗	-9.69338
佘	-9.69338
余	-9.69338
佚	-9.69338
佛	-9.69338
作	-9.69338
佝	-9.69338
佞	-9.69338
佟	-9.69338
你	-9.69338
佣	-9.69338
佤	-9.69338
佥	-9.69338
佩	-9.69338
佬	-9.69338
佯	-9.69338
佰	-9.69338
佳	-9.69338
佴	-9.69338
佶	-9.69338
佸	-9.69338
佺	-9.69338
佻	-9.69338
佼	-9.69338
佽	-9.69338
佾	-9.69338
使	-9.69338
侁	-9.69338
侂	-9.69338
侃	-9.69338
侄	-9.69338
侈	-9.69338
侉	-9.69338
例	-9.69338
侍	-9.69338
侏	-9.69338
侑	-9.69338
侔	-9.69338
侗	-9.69338
侘	-9.69338
供	-9.69338
依	-9.69338
侠	-9.69338
侣	-9.69338
侥	-9.69338
侦	-9.69338
侧	-9.69338
侨	-9.69338
侩	-9.69338
侪	-9.69338
侬	-9.69338
侮	-9.69338
侯	-9.69338
侴	-9.69338
侵	-9.69338
侹	-9.69338
便	-9.69338
促	-9.69338
俄	-9.69338
俅	-9.69338
俊	-9.69338
俍	-9.69338
俎	-9.69338
俏	-9.69338
俐	-9.69338
俑	-9.69338
俗	-9.69338
俘	-9.69338
俙	-9.69338
俚	-9.69338
俜	-9.69338
保	-9.69338
俞	-9.69338
俟	-9.69338
信	-9.69338
俣	-9.69338
俦	-9.69338
俨	-9.69338
俩	-9.69338
俪	-9.69338
俫	-9.69338
俭	-9.69338
修	-9.69338
俯	-9.69338
俱	-9.69338
俳	-9.69338
俵	-9.69338
俶	-9.69338
俸	-9.69338
俺	-9.69338
俾	-9.69338
倌	-9.69338
倍	-9.69338
倏	-9.69338
倒	-9.69338
倓	-9.69338
倔	-9.69338
倕	-9.69338
倘	-9.69338
候	-9.69338
倚	-9.69338
倜	-9.69338
倞	-9.69338
借	-9.69338
倡	-9.69338
倥	-9.69338
倦	-9.69338
倧	-9.69338
倨	-9.69338
倩	-9.69338
倪	-9.69338
倬	-9.69338
倭	-9.69338
倮	-9.69338
倴	-9.69338
债	-9.69338
倻	-9.69338
值	-9.69338
倾	-9.69338
偁	-9.69338
偃	-9.69338
假	-9.69338
偈	-9.69338
偌	-9.69338
偎	-9.69338
偏	-9.69338
偓	-9.69338
偕	-9.69338
做	-9.69338
停	-9.69338
偡	-9.69338
健	-9.69338
偬	-9.69338
偭	-9.69338
偰	-9.69338
偲	-9.69338
偶	-9.69338
偷	-9.69338
偻	-9.69338
偾	-9.69338
偿	-9.69338
傀	-9.69338
傃	-9.69338
傅	-9.69338
傈	-9.69338
傉	-9.69338
傍	-9.69338
傒	-9.69338
傕	-9.69338
傣	-9.69338
傥	-9.69338
傧	-9.69338
储	-9.69338
傩	-9.69338
催	-9.69338
傲	-9.69338
傺	-9.69338
傻	-9.69338
僇	-9.69338
僎	-9.69338
像	-9.69338
僔	-9.69338
僖	-9.69338
僚	-9.69338
僦	-9.69338
僧	-9.69338
僬	-9.69338
僭	-9.69338
僮	-9.69338
僰	-9.69338
僳	-9.69338
僵	-9.69338
僻	-9.69338
儆	-9.69338
儇	-9.69338
儋	-9.69338
儒	-9.69338
儡	-9.69338
儦	-9.69338
儳	-9.69338
儴	-9.69338
儿	-9.69338
兀	-9.69338
允	-9.69338
元	-9.69338
兄	-9.69338
充	-9.69338
兆	-9.69338
先	-9.69338
光	-9.69338
克	-9.69338
免	-9.69338
兑	-9.69338
兔	-9.69338
兕	-9.69338
兖	-9.69338
党	-9.69338
兜	-9.69338
兢	-9.69338
入	-9.69338
全	-9.69338
八	-9.69338
公	-9.69338
六	-9.69338
兮	-9.69338
兰	-9.69338
共	-9.69338
关	-9.69338
兴	-9.69338
兵	-9.69338
其	-9.69338
具	-9.69338
典	-9.69338
兹	-9.69338
养	-9.69338
兼	-9.69338
兽	-9.69338
冀	-9.69338
冁	-9.69338
内	-9.69338
冈	-9.69338
冉	-9.69338
册	-9.69338
再	-9.69338
冏	-9.69338
冒	-9.69338
冔	-9.69338
冕	-9.69338
冗	-9.69338
写	-9.69338
军	-9.69338
农	-9.69338
冠	-9.69338
冢	-9.69338
冤	-9.69338
冥	-9.69338
冬	-9.69338
冮	-9.69338
冯	-9.69338
冰	-9.69338
冱	-9.69338
冲	-9.69338
决	-9.69338
况	-9.69338
冶	-9.69338
冷	-9.69338
冻	-9.69338
冼	-9.69338
冽	-9.69338
净	-9.69338
凄	-9.69338
准	-9.69338
凇	-9.69338
凉	-9.69338
凋	-9.69338
凌	-9.69338
减	-9.69338
凑	-9.69338
凓	-9.69338
凘	-9.69338
凛	-9.69338
凝	-9.69338
几	-9.69338
凡	-9.69338
凤	-9.69338
凫	-9.69338
凭	-9.69338
凯	-9.69338
凰	-9.69338
凳	-9.69338
凶	-9.69338
凸	-9.69338
凹	-9.69338
出	-9.69338
击	-9.69338
凼	-9.69338
函	-9.69338
凿	-9.69338
刀	-9.69338
刁	-9.69338
刃	-9.69338
分	-9.69338
切	-9.69338
刈	-9.69338
刊	-9.69338
刍	-9.69338
刎	-9.69338
刑	-9.69338
划	-9.69338
刖	-9.69338
列	-9.69338
刘	-9.69338
则	-9.69338
刚	-9.69338
创	-9.69338
初	-9.69338
删	-9.69338
判	-9.69338
刨	-9.69338
利	-9.69338
别	-9.69338
刬	-9.69338
刭	-9.69338
刮	-9.69338
到	-9.69338
刳	-9.69338
制	-9.69338
刷	-9.69338
券	-9.69338
刹	-9.69338
刺	-9.69338
刻	-9.69338
刽	-9.69338
刿	-9.69338
剀	-9.69338
剁	-9.69338
剂	-9.69338
剃	-9.69338
剅	-9.69338
削	-9.69338
剋	-9.69338
剌	-9.69338
前	-9.69338
剐	-9.69338
剑	-9.69338
剔	-9.69338
剕	-9.69338
剖	-9.69338
剜	-9.69338
剞	-9.69338
剟	-9.69338
剡	-9.69338
剥	-9.69338
剧	-9.69338
剩	-9.69338
剪	-9.69338
副	-9.69338
割	-9.69338
剽	-9.69338
剿	-9.69338
劁	-9.69338
劂	-9.69338
劄	-9.69338
劈	-9.69338
劐	-9.69338
劓	-9.69338
力	-9.69338
劝	-9.69338
办	-9.69338
功	-9.69338
加	-9.69338
务	-9.69338
劢	-9.69338
劣	-9.69338
动	-9.69338
助	-9.69338
努	-9.69338
劫	-9.69338
劬	-9.69338
劭	-9.69338
励	-9.69338
劲	-9.69338
劳	-9.69338
劼	-9.69338
劾	-9.69338
势	-9.69338
勃	-9.69338
勇	-9.69338
勉	-9.69338
勋	-9.69338
勍	-9.69338
勐	-9.69338
勒	-9.69338
勔	-9.69338
勖	-9.69338
勘	-9.69338
勚	-9.69338
募	-9.69338
勠	-9.69338
勤	-9.69338
勰	-9.69338
勺	-9.69338
勾	-9.69338
勿	-9.69338
匀	-9.69338
包	-9.69338
匆	-9.69338
匈	-9.69338
匍	-9.69338
匏	-9.69338
匐	-9.69338
匕	-9.69338
化	-9.69338
北	-9.69338
匙	-9.69338
匜	-9.69338
匝	-9.69338
匠	-9.69338
匡	-9.69338
匣	-9.69338
匦	-9.69338
匪	-9.69338
匮	-9.69338
匹	-9.69338
区	-9.69338
医	-9.69338
匼	-9.69338
匾	-9.69338
匿	-9.69338
十	-9.69338
千	-9.69338
卅	-9.69338
升	-9.69338
午	-9.69338
卉	-9.69338
半	-9.69338
华	-9.69338
协	-9.69338
卑	-9.69338
卒	-9.69338
卓	-9.69338
单	-9.69338
卖	-9.69338
南	-9.69338
博	-9.69338
卜	-9.69338
卞	-9.69338
卟	-9.69338
占	-9.69338
卡	-9.69338
卢	-9.69338
卣	-9.69338
卤	-9.69338
卦	-9.69338
卧	-9.69338
卫	-9.69338
卬	-9.69338
卮	-9.69338
卯	-9.69338
印	-9.69338
危	-9.69338
即	-9.69338
却	-9.69338
卵	-9.69338
卷	-9.69338
卸	-9.69338
卺	-9.69338
卿	-9.69338
厂	-9.69338
厄	-9.69338
厅	-9.69338
历	-9.69338
厉	-9.69338
压	-9.69338
厌	-9.69338
厍	-9.69338
厕	-9.69338
厖	-9.69338
厘	-9.69338
厚	-9.69338
厝	-9.69338
原	-9.69338
厢	-9.69338
厣	-9.69338
厥	-9.69338
厦	-9.69338
厨	-9.69338
厩	-9.69338
厮	-9.69338
去	-9.69338
厾	-9.69338
县	-9.69338
叁	-9.69338
参	-9.69338
叆	-9.69338
叇	-9.69338
又	-9.69338
叉	-9.69338
及	-9.69338
友	-9.69338
双	-9.69338
反	-9.69338
发	-9.69338
叔	-9.69338
叕	-9.69338
取	-9.69338
受	-9.69338
变	-9.69338
叙	-9.69338
叚	-9.69338
叛	-9.69338
叟	-9.69338
叠	-9.69338
口	-9.69338
古	-9.69338
句	-9.69338
另	-9.69338
叨	-9.69338
叩	-9.69338
只	-9.69338
叫	-9.69338
召	-9.69338
叭	-9.69338
叮	-9.69338
可	-9.69338
台	-9.69338
叱	-9.69338
史	-9.69338
右	-9.69338
叵	-9.69338
叶	-9.69338
号	-9.69338
司	-9.69338
叹	-9.69338
叻	-9.69338
叼	-9.69338
叽	-9.69338
吁	-9.69338
吃	-9.69338
各	-9.69338
吆	-9.69338
合	-9.69338
吉	-9.69338
吊	-9.69338
同	-9.69338
名	-9.69338
后	-9.69338
吏	-9.69338
吐	-9.69338
向	-9.69338
吒	-9.69338
吓	-9.69338
吕	-9.69338
吖	-9.69338
吗	-9.69338
君	-9.69338
吝	-9.69338
吞	-9.69338
吟	-9.69338
吠	-9.69338
吡	-9.69338
吣	-9.69338
否	-9.69338
吧	-9.69338
吨	-9.69338
吩	-9.69338
含	-9.69338
听	-9.69338
吭	-9.69338
吮	-9.69338
启	-9.69338
吱	-9.69338
吲	-9.69338
吴	-9.69338
吵	-9.69338
吸	-9.69338
吹	-9.69338
吻	-9.69338
吼	-9.69338
吽	-9.69338
吾	-9.69338
呀	-9.69338
呃	-9.69338
呆	-9.69338
呇	-9.69338
呈	-9.69338
告	-9.69338
呋	-9.69338
呐	-9.69338
呒	-9.69338
呓	-9.69338
呔	-9.69338
呕	-9.69338
呖	-9.69338
呗	-9.69338
员	-9.69338
呙	-9.69338
呛	-9.69338
呜	-9.69338
呢	-9.69338
呣	-9.69338
呤	-9.69338
呦	-9.69338
周	-9.69338
呱	-9.69338
呲	-9.69338
味	-9.69338
呵	-9.69338
呶	-9.69338
呷	-9.69338
呸	-9.69338
呻	-9.69338
呼	-9.69338
命	-9.69338
咀	-9.69338
咂	-9.69338
咄	-9.69338
咆	-9.69338
咇	-9.69338
咉	-9.69338
咋	-9.69338
和	-9.69338
咍	-9.69338
咎	-9.69338
咏	-9.69338
咐	-9.69338
咒	-9.69338
咔	-9.69338
咕	-9.69338
咖	-9.69338
咙	-9.69338
咚	-9.69338
咛	-9.69338
咝	-9.69338
咡	-9.69338
咣	-9.69338
咤	-9.69338
咥	-9.69338
咦	-9.69338
咧	-9.69338
咨	-9.69338
咩	-9.69338
咪	-9.69338
咫	-9.69338
咬	-9.69338
咯	-9.69338
咱	-9.69338
咳	-9.69338
咴	-9.69338
咸	-9.69338
咺	-9.69338
咻	-9.69338
咽	-9.69338
咿	-9.69338
哀	-9.69338
品	-9.69338
哂	-9.69338
哃	-9.69338
哄	-9.69338
哆	-9.69338
哇	-9.69338
哈	-9.69338
哉	-9.69338
哌	-9.69338
响	-9.69338
哎	-9.69338
哏	-9.69338
哐	-9.69338
哑	-9.69338
哒	-9.69338
哓	-9.69338
哔	-9.69338
哕	-9.69338
哗	-9.69338
哙	-9.69338
哚	-9.69338
哝	-9.69338
哞	-9.69338
哟	-9.69338
哢	-9.69338
哥	-9.69338
哦	-9.69338
哧	-9.69338
哨	-9.69338
哩	-9.69338
哪	-9.69338
哭	-9.69338
哮	-9.69338
哱	-9.69338
哲	-9.69338
哳	-9.69338
哺	-9.69338
哼	-9.69338
哽	-9.69338
哿	-9.69338
唁	-9.69338
唆	-9.69338
唇	-9.69338
唉	-9.69338
唏	-9.69338
唐	-9.69338
唑	-9.69338
唔	-9.69338
唛	-9.69338
唝	-9.69338
唠	-9.69338
唢	-9.69338
唣	-9.69338
唤	-9.69338
唧	-9.69338
唪	-9.69338
唬	-9.69338
售	-9.69338
唯	-9.69338
唰	-9.69338
唱	-9.69338
唳	-9.69338
唵	-9.69338
唷	-9.69338
唼	-9.69338
唾	-9.69338
唿	-9.69338
啁	-9.69338
啃	-9.69338
啄	-9.69338
商	-9.69338
啉	-9.69338
啊	-9.69338
啐	-9.69338
啕	-9.69338
啖	-9.69338
啜	-9.69338
啡	-9.69338
啤	-9.69338
啥	-9.69338
啦	-9.69338
啧	-9.69338
啪	-9.69338
啫	-9.69338
啬	-9.69338
啭	-9.69338
啮	-9.69338
啰	-9.69338
啴	-9.69338
啵	-9.69338
啶	-9.69338
啷	-9.69338
啸	-9.69338
啻	-9.69338
啼	-9.69338
啾	-9.69338
喀	-9.69338
喁	-9.69338
喂	-9.69338
喃	-9.69338
善	-9.69338
喆	-9.69338
喇	-9.69338
喈	-9.69338
喉	-9.69338
喊	-9.69338
喋	-9.69338
喏	-9.69338
喑	-9.69338
喔	-9.69338
喘	-9.69338
喙	-9.69338
喜	-9.69338
喝	-9.69338
喟	-9.69338
喤	-9.69338
喧	-9.69338
喱	-9.69338
喳	-9.69338
喵	-9.69338
喷	-9.69338
喹	-9.69338
喻	-9.69338
喽	-9.69338
喾	-9.69338
嗄	-9.69338
嗅	-9.69338
嗉	-9.69338
嗌	-9.69338
嗍	-9.69338
嗐	-9.69338
嗑	-9.69338
嗒	-9.69338
嗓	-9.69338
嗔	-9.69338
嗖	-9.69338
嗜	-9.69338
嗝	-9.69338
嗞	-9.69338
嗟	-9.69338
嗡	-9.69338
嗣	-9.69338
嗤	-9.69338
嗥	-9.69338
嗦	-9.69338
嗨	-9.69338
嗪	-9.69338
嗫	-9.69338
嗬	-9.69338
嗯	-9.69338
嗲	-9.69338
嗳	-9.69338
嗵	-9.69338
嗷	-9.69338
嗽	-9.69338
嗾	-9.69338
嘀	-9.69338
嘁	-9.69338
嘈	-9.69338
嘉	-9.69338
嘌	-9.69338
嘎	-9.69338
嘏	-9.69338
嘘	-9.69338
嘚	-9.69338
嘛	-9.69338
嘞	-9.69338
嘟	-9.69338
嘡	-9.69338
嘣	-9.69338
嘤	-9.69338
嘧	-9.69338
嘬	-9.69338
嘭	-9.69338
嘱	-9.69338
嘲	-9.69338
嘴	-9.69338
嘶	-9.69338
嘹	-9.69338
嘻	-9.69338
嘿	-9.69338
噀	-9.69338
噂	-9.69338
噇	-9.69338
噌	-9.69338
噍	-9.69338
噎	-9.69338
噔	-9.69338
噗	-9.69338
噘	-9.69338
噙	-9.69338
噜	-9.69338
噢	-9.69338
噤	-9.69338
器	-9.69338
噩	-9.69338
噪	-9.69338
噫	-9.69338
噬	-9.69338
噱	-9.69338
噶	-9.69338
噻	-9.69338
噼	-9.69338
嚄	-9.69338
嚅	-9.69338
嚆	-9.69338
嚎	-9.69338
嚏	-9.69338
嚓	-9.69338
嚚	-9.69338
嚣	-9.69338
嚭	-9.69338
嚯	-9.69338
嚷	-9.69338
嚼	-9.69338
囊	-9.69338
囔	-9.69338
囚	-9.69338
四	-9.69338
回	-9.69338
囟	-9.69338
因	-9.69338
囡	-9.69338
团	-9.69338
囤	-9.69338
囫	-9.69338
园	-9.69338
困	-9.69338
囱	-9.69338
围	-9.69338
囵	-9.69338
囷	-9.69338
囹	-9.69338
固	-9.69338
国	-9.69338
图	-9.69338
囿	-9.69338
圃	-9.69338
圄	-9.69338
圆	-9.69338
圈	-9.69338
圉	-9.69338
圊	-9.69338
圌	-9.69338
圐	-9.69338
圙	-9.69338
圜	-9.69338
土	-9.69338
圢	-9.69338
圣	-9.69338
在	-9.69338
圩	-9.69338
圪	-9.69338
圫	-9.69338
圬	-9.69338
圭	-9.69338
圮	-9.69338
圯	-9.69338
地	-9.69338
圲	-9.69338
圳	-9.69338
圹	-9.69338
场	-9.69338
圻	-9.69338
圾	-9.69338
址	-9.69338
坂	-9.69338
均	-9.69338
坉	-9.69338
坊	-9.69338
坋	-9.69338
坌	-9.69338
坍	-9.69338
坎	-9.69338
坏	-9.69338
坐	-9.69338
坑	-9.69338
坒	-9.69338
块	-9.69338
坚	-9.69338
坛	-9.69338
坜	-9.69338
坝	-9.69338
坞	-9.69338
坟	-9.69338
坠	-9.69338
坡	-9.69338
坤	-9.69338
坥	-9.69338
坦	-9.69338
坨	-9.69338
坩	-9.69338
坪	-9.69338
坫	-9.69338
坬	-9.69338
坭	-9.69338
坯	-9.69338
坰	-9.69338
坳	-9.69338
坷	-9.69338
坻	-9.69338
坼	-9.69338
坽	-9.69338
垂	-9.69338
垃	-9.69338
垄	-9.69338
垆	-9.69338
垈	-9.69338
型	-9.69338
垌	-9.69338
垍	-9.69338
垎	-9.69338
垏	-9.69338
垒	-9.69338
垓	-9.69338
垕	-9.69338
垙	-9.69338
垚	-9.69338
垛	-9.69338
垞	-9.69338
垟	-9.69338
垠	-9.69338
垡	-9.69338
垢	-9.69338
垣	-9.69338
垤	-9.69338
垦	-9.69338
垧	-9.69338
垩	-9.69338
垫	-9.69338
垭	-9.69338
垮	-9.69338
垯	-9.69338
垱	-9.69338
垲	-9.69338
垴	-9.69338
垵	-9.69338
垸	-9.69338
垺	-9.69338
垾	-9.69338
垿	-9.69338
埂	-9.69338
埃	-9.69338
埆	-9.69338
埇	-9.69338
埋	-9.69338
埌	-9.69338
城	-9.69338
埏	-9.69338
埒	-9.69338
埔	-9.69338
埕	-9.69338
埗	-9.69338
埘	-9.69338
埙	-9.69338
埚	-9.69338
埝	-9.69338
域	-9.69338
埠	-9.69338
埤	-9.69338
埪	-9.69338
埫	-9.69338
埭	-9.69338
埯	-9.69338
埴	-9.69338
埵	-9.69338
埸	-9.69338
培	-9.69338
基	-9.69338
埼	-9.69338
埽	-9.69338
堂	-9.69338
堃	-9.69338
堆	-9.69338
堇	-9.69338
堉	-9.69338
堋	-9.69338
堌	-9.69338
堍	-9.69338
堎	-9.69338
堐	-9.69338
堑	-9.69338
堕	-9.69338
堙	-9.69338
堞	-9.69338
堠	-9.69338
堡	-9.69338
堤	-9.69338
堧	-9.69338
堨	-9.69338
堪	-9.69338
堰	-9.69338
堲	-9.69338
堵	-9.69338
堼	-9.69338
堽	-9.69338
堾	-9.69338
塄	-9.69338
塅	-9.69338
塆	-9.69338
塌	-9.69338
塍	-9.69338
塑	-9.69338
塔	-9.69338
塘	-9.69338
塝	-9.69338
塞	-9.69338
塥	-9.69338
填	-9.69338
塬	-9.69338
塱	-9.69338
塾	-9.69338
墀	-9.69338
墁	-9.69338
境	-9.69338
墅	-9.69338
墈	-9.69338
墉	-9.69338
墐	-9.69338
墒	-9.69338
墓	-9.69338
墕	-9.69338
墘	-9.69338
墙	-9.69338
墚	-9.69338
增	-9.69338
墟	-9.69338
墡	-9.69338
墣	-9.69338
墦	-9.69338
墨	-9.69338
墩	-9.69338
墼	-9.69338
壁	-9.69338
壅	-9.69338
壑	-9.69338
壕	-9.69338
壤	-9.69338
士	-9.69338
壬	-9.69338
壮	-9.69338
声	-9.69338
壳	-9.69338
壶	-9.69338
壸	-9.69338
壹	-9.69338
处	-9.69338
备	-9.69338
复	-9.69338
夏	-9.69338
夐	-9.69338
夔	-9.69338
夕	-9.69338
外	-9.69338
夙	-9.69338
多	-9.69338
夜	-9.69338
够	-9.69338
夤	-9.69338
夥	-9.69338
大	-9.69338
天	-9.69338
太	-9.69338
夫	-9.69338
夬	-9.69338
夭	-9.69338
央	-9.69338
夯	-9.69338
失	-9.69338
头	-9.69338
夷	-9.69338
夸	-9.69338
夹	-9.69338
夺	-9.69338
夼	-9.69338
奁	-9.69338
奂	-9.69338
奄	-9.69338
奇	-9.69338
奈	-9.69338
奉	-9.69338
奋	-9.69338
奎	-9.69338
奏	-9.69338
契	-9.69338
奓	-9.69338
奔	-9.69338
奕	-9.69338
奖	-9.69338
套	-9.69338
奘	-9.69338
奚	-9.69338
奠	-9.69338
奡	-9.69338
奢	-9.69338
奥	-9.69338
奭	-9.69338
女	-9.69338
奴	-9.69338
奶	-9.69338
奸	-9.69338
她	-9.69338
好	-9.69338
妁	-9.69338
如	-9.69338
妃	-9.69338
妄	-9.69338
妆	-9.69338
妇	-9.69338
妈	-9.69338
妊	-9.69338
妍	-9.69338
妒	-9.69338
妓	-9.69338
妖	-9.69338
妗	-9.69338
妘	-9.69338
妙	-9.69338
妞	-9.69338
妣	-9.69338
妤	-9.69338
妥	-9.69338
妧	-9.69338
妨	-9.69338
妩	-9.69338
妪	-9.69338
妫	-9.69338
妭	-9.69338
妮	-9.69338
妯	-9.69338
妲	-9.69338
妹	-9.69338
妻	-9.69338
妾	-9.69338
姆	-9.69338
姈	-9.69338
姊	-9.69338
始	-9.69338
姐	-9.69338
姑	-9.69338
姒	-9.69338
姓	-9.69338
委	-9.69338
姗	-9.69338
姘	-9.69338
姚	-9.69338
姜	-9.69338
姝	-9.69338
姞	-9.69338
姣	-9.69338
姤	-9.69338
姥	-9.69338
姨	-9.69338
姬	-9.69338
姮	-9.69338
姱	-9.69338
姶	-9.69338
姹	-9.69338
姻	-9.69338
姽	-9.69338
姿	-9.69338
娀	-9.69338
威	-9.69338
娃	-9.69338
娄	-9.69338
娅	-9.69338
娆	-9.69338
娇	-9.69338
娈	-9.69338
娉	-9.69338
娌	-9.69338
娑	-9.69338
娓	-9.69338
娘	-9.69338
娜	-9.69338
娟	-9.69338
娠	-9.69338
娣	-9.69338
娥	-9.69338
娩	-9.69338
娱	-9.69338
娲	-9.69338
娴	-9.69338
娵	-9.69338
娶	-9.69338
娼	-9.69338
婀	-9.69338
婆	-9.69338
婉	-9.69338
婊	-9.69338
婌	-9.69338
婍	-9.69338
婕	-9.69338
婘	-9.69338
婚	-9.69338
婞	-9.69338
婠	-9.69338
婢	-9.69338
婤	-9.69338
婧	-9.69338
婪	-9.69338
婫	-9.69338
婳	-9.69338
婴	-9.69338
婵	-9.69338
婶	-9.69338
婷	-9.69338
婺	-9.69338
婻	-9.69338
婼	-9.69338
婿	-9.69338
媂	-9.69338
媄	-9.69338
媆	-9.69338
媒	-9.69338
媓	-9.69338
媖	-9.69338
媚	-9.69338
媛	-9.69338
媞	-9.69338
媪	-9.69338
媭	-9.69338
媱	-9.69338
媲	-9.69338
媳	-9.69338
媵	-9.69338
媸	-9.69338
媾	-9.69338
嫁	-9.69338
嫂	-9.69338
嫄	-9.69338
嫉	-9.69338
嫌	-9.69338
嫒	-9.69338
嫔	-9.69338
嫕	-9.69338
嫖	-9.69338
嫘	-9.69338
嫚	-9.69338
嫜	-9.69338
嫠	-9.69338
嫡	-9.69338
嫣	-9.69338
嫦	-9.69338
嫩	-9.69338
嫪	-9.69338
嫫	-9.69338
嫭	-9.69338
嫱	-9.69338
嫽	-9.69338
嬉	-9.69338
嬖	-9.69338
嬗	-9.69338
嬛	-9.69338
嬥	-9.69338
嬬	-9.69338
嬴	-9.69338
嬷	-9.69338
嬿	-9.69338
孀	-9.69338
孅	-9.69338
子	-9.69338
孑	-9.69338
孓	-9.69338
孔	-9.69338
孕	-9.69338
孖	-9.69338
字	-9.69338
存	-9.69338
孙	-9.69338
孚	-9.69338
孛	-9.69338
孜	-9.69338
孝	-9.69338
孟	-9.69338
孢	-9.69338
季	-9.69338
孤	-9.69338
孥	-9.69338
学	-9.69338
孩	-9.69338
孪	-9.69338
孬	-9.69338
孰	-9.69338
孱	-9.69338
孳	-9.69338
孵	-9.69338
孺	-9.69338
孽	-9.69338
宁	-9.69338
它	-9.69338
宄	-9.69338
宅	-9.69338
宇	-9.69338
守	-9.69338
安	-9.69338
宋	-9.69338
完	-9.69338
宏	-9.69338
宓	-9.69338
宕	-9.69338
宗	-9.69338
官	-9.69338
宙	-9.69338
定	-9.69338
宛	-9.69338
宜	-9.69338
宝	-9.69338
实	-9.69338
宠	-9.69338
审	-9.69338
客	-9.69338
宣	-9.69338
室	-9.69338
宥	-9.69338
宦	-9.69338
宧	-9.69338
宪	-9.69338
宫	-9.69338
宬	-9.69338
宰	-9.69338
害	-9.69338
宴	-9.69338
宵	-9.69338
家	-9.69338
宸	-9.69338
容	-9.69338
宽	-9.69338
宾	-9.69338
宿	-9.69338
寁	-9.69338
寂	-9.69338
寄	-9.69338
寅	-9.69338
密	-9.69338
寇	-9.69338
富	-9.69338
寐	-9.69338
寒	-9.69338
寓	-9.69338
寝	-9.69338
寞	-9.69338
察	-9.69338
寡	-9.69338
寤	-9.69338
寥	-9.69338
寨	-9.69338
寮	-9.69338
寰	-9.69338
寸	-9.69338
对	-9.69338
寺	-9.69338
寻	-9.69338
导	-9.69338
寿	-9.69338
封	-9.69338
射	-9.69338
将	-9.69338
尉	-9.69338
尊	-9.69338
小	-9.69338
少	-9.69338
尔	-9.69338
尕	-9.69338
尖	-9.69338
尘	-9.69338
尚	-9.69338
尜	-9.69338
尝	-9.69338
尢	-9.69338
尤	-9.69338
尥	-9.69338
尧	-9.69338
尨	-9.69338
尪	-9.69338
尬	-9.69338
就	-9.69338
尴	-9.69338
尸	-9.69338
尹	-9.69338
尺	-9.69338
尻	-9.69338
尼	-9.69338
尽	-9.69338
尾	-9.69338
尿	-9.69338
局	-9.69338
屁	-9.69338
层	-9.69338
屃	-9.69338
居	-9.69338
屈	-9.69338
屉	-9.69338
届	-9.69338
屋	-9.69338
屎	-9.69338
屏	-9.69338
屐	-9.69338
屑	-9.69338
展	-9.69338
屙	-9.69338
属	-9.69338
屠	-9.69338
屡	-9.69338
屣	-9.69338
履	-9.69338
屦	-9.69338
屯	-9.69338
山	-9.69338
屹	-9.69338
屺	-9.69338
屼	-9.69338
屾	-9.69338
屿	-9.69338
岁	-9.69338
岂	-9.69338
岈	-9.69338
岊	-9.69338
岌	-9.69338
岍	-9.69338
岐	-9.69338
岑	-9.69338
岔	-9.69338
岖	-9.69338
岗	-9.69338
岘	-9.69338
岙	-9.69338
岚	-9.69338
岛	-9.69338
岜	-9.69338
岞	-9.69338
岠	-9.69338
岢	-9.69338
岣	-9.69338
岨	-9.69338
岩	-9.69338
岫	-9.69338
岬	-9.69338
岭	-9.69338
岱	-9.69338
岳	-9.69338
岵	-9.69338
岷	-9.69338
岸	-9.69338
岽	-9.69338
岿	-9.69338
峁	-9.69338
峂	-9.69338
峃	-9.69338
峄	-9.69338
峋	-9.69338
峒	-9.69338
峗	-9.69338
峘	-9.69338
峙	-9.69338
峛	-9.69338
峡	-9.69338
峣	-9.69338
峤	-9.69338
峥	-9.69338
峦	-9.69338
峧	-9.69338
峨	-9.69338
峪	-9.69338
峭	-9.69338
峰	-9.69338
峱	-9.69338
峻	-9.69338
峿	-9.69338
崀	-9.69338
崁	-9.69338
崂	-9.69338
崃	-9.69338
崄	-9.69338
崆	-9.69338
崇	-9.69338
崌	-9.69338
崎	-9.69338
崒	-9.69338
崔	-9.69338
崖	-9.69338
崚	-9.69338
崛	-9.69338
崞	-9.69338
崟	-9.69338
崡	-9.69338
崤	-9.69338
崦	-9.69338
崧	-9.69338
崩	-9.69338
崭	-9.69338
崮	-9.69338
崴	-9.69338
崶	-9.69338
崽	-9.69338
崾	-9.69338
崿	-9.69338
嵁	-9.69338
嵅	-9.69338
嵇	-9.69338
嵊	-9.69338
嵋	-9.69338
嵌	-9.69338
嵎	-9.69338
嵖	-9.69338
嵘	-9.69338
嵚	-9.69338
嵛	-9.69338
嵝	-9.69338
嵩	-9.69338
嵫	-9.69338
嵬	-9.69338
嵯	-9.69338
嵲	-9.69338
嵴	-9.69338
嶂	-9.69338
嶅	-9.69338
嶍	-9.69338
嶒	-9.69338
嶓	-9.69338
嶙	-9.69338
嶝	-9.69338
嶟	-9.69338
嶦	-9.69338
嶲	-9.69338
嶷	-9.69338
巅	-9.69338
巇	-9.69338
巉	-9.69338
巍	-9.69338
川	-9.69338
州	-9.69338
巡	-9.69338
巢	-9.69338
工	-9.69338
左	-9.69338
巧	-9.69338
巨	-9.69338
巩	-9.69338
巫	-9.69338
差	-9.69338
巯	-9.69338
己	-9.69338
已	-9.69338
巳	-9.69338
巴	-9.69338
巷	-9.69338
巽	-9.69338
巾	-9.69338
币	-9.69338
市	-9.69338
布	-9.69338
帅	-9.69338
帆	-9.69338
师	-9.69338
希	-9.69338
帏	-9.69338
帐	-9.69338
帑	-9.69338
帔	-9.69338
帕	-9.69338
帖	-9.69338
帘	-9.69338
帙	-9.69338
帚	-9.69338
帛	-9.69338
帜	-9.69338
帝	-9.69338
帡	-9.69338
带	-9.69338
帧	-9.69338
帨	-9.69338
席	-9.69338
帮	-9.69338
帱	-9.69338
帷	-9.69338
常	-9.69338
帻	-9.69338
帼	-9.69338
帽	-9.69338
幂	-9.69338
幄	-9.69338
幅	-9.69338
幌	-9.69338
幔	-9.69338
幕	-9.69338
幖	-9.69338
幛	-9.69338
幞	-9.69338
幡	-9.69338
幢	-9.69338
幪	-9.69338
干	-9.69338
平	-9.69338
年	-9.69338
并	-9.69338
幸	-9.69338
幺	-9.69338
幻	-9.69338
幼	-9.69338
幽	-9.69338
广	-9.69338
庄	-9.69338
庆	-9.69338
庇	-9.69338
床	-9.69338
庋	-9.69338
序	-9.69338
庐	-9.69338
庑	-9.69338
库	-9.69338
应	-9.69338
底	-9.69338
庖	-9.69338
店	-9.69338
庙	-9.69338
庚	-9.69338
府	-9.69338
庞	-9.69338
废	-9.69338
庠	-9.69338
庤	-9.69338
庥	-9.69338
度	-9.69338
座	-9.69338
庭	-9.69338
庱	-9.69338
庳	-9.69338
庵	-9.69338
庶	-9.69338
康	-9.69338
庸	-9.69338
庹	-9.69338
庼	-9.69338
庾	-9.69338
廆	-9.69338
廉	-9.69338
廊	-9.69338
廋	-9.69338
廑	-9.69338
廒	-9.69338
廓	-9.69338
廖	-9.69338
廙	-9.69338
廛	-9.69338
廨	-9.69338
廪	-9.69338
延	-9.69338
廷	-9.69338
建	-9.69338
廿	-9.69338
开	-9.69338
弁	-9.69338
异	-9.69338
弃	-9.69338
弄	-9.69338
弆	-9.69338
弇	-9.69338
弈	-9.69338
弊	-9.69338
弋	-9.69338
式	-9.69338
弑	-9.69338
弓	-9.69338
引	-9.69338
弗	-9.69338
弘	-9.69338
弛	-9.69338
弟	-9.69338
张	-9.69338
弢	-9.69338
弥	-9.69338
弦	-9.69338
弧	-9.69338
弨	-9.69338
弩	-9.69338
弭	-9.69338
弯	-9.69338
弱	-9.69338
弶	-9.69338
弸	-9.69338
弹	-9.69338
强	-9.69338
弼	-9.69338
彀	-9.69338
归	-9.69338
当	-9.69338
录	-9.69338
彖	-9.69338
彗	-9.69338
彘	-9.69338
彝	-9.69338
彟	-9.69338
形	-9.69338
彤	-9.69338
彦	-9.69338
彧	-9.69338
彩	-9.69338
彪	-9.69338
彬	-9.69338
彭	-9.69338
彰	-9.69338
影	-9.69338
彳	-9.69338
彷	-9.69338
役	-9.69338
彻	-9.69338
彼	-9.69338
往	-9.69338
征	-9.69338
徂	-9.69338
径	-9.69338
待	-9.69338
徇	-9.69338
很	-9.69338
徉	-9.69338
徊	-9.69338
律	-9.69338
徐	-9.69338
徒	-9.69338
徕	-9.69338
得	-9.69338
徘	-9.69338
徙	-9.69338
徛	-9.69338
徜	-9.69338
御	-9.69338
徨	-9.69338
循	-9.69338
徭	-9.69338
微	-9.69338
徵	-9.69338
德	-9.69338
徼	-9.69338
徽	-9.69338
心	-9.69338
必	-9.69338
忆	-9.69338
忉	-9.69338
忌	-9.69338
忍	-9.69338
忏	-9.69338
忐	-9.69338
忑	-9.69338
忒	-9.69338
忖	-9.69338
志	-9.69338
忘	-9.69338
忙	-9.69338
忝	-9.69338
忞	-9.69338
忠	-9.69338
忡	-9.69338
忤	-9.69338
忧	-9.69338
忪	-9.69338
快	-9.69338
忭	-9.69338
忮	-9.69338
忱	-9.69338
忳	-9.69338
念	-9.69338
忸	-9.69338
忺	-9.69338
忻	-9.69338
忽	-9.69338
忾	-9.69338
忿	-9.69338
怀	-9.69338
态	-9.69338
怂	-9.69338
怃	-9.69338
怄	-9.69338
怅	-9.69338
怆	-9.69338
怊	-9.69338
怍	-9.69338
怎	-9.69338
怏	-9.69338
怒	-9.69338
怔	-9.69338
怕	-9.69338
怖	-9.69338
怙	-9.69338
怛	-9.69338
怜	-9.69338
思	-9.69338
怠	-9.69338
怡	-9.69338
急	-9.69338
怦	-9.69338
性	-9.69338
怨	-9.69338
怩	-9.69338
怪	-9.69338
怫	-9.69338
怯	-9.69338
怵	-9.69338
总	-9.69338
怼	-9.69338
怿	-9.69338
恁	-9.69338
恂	-9.69338
恃	-9.69338
恋	-9.69338
恍	-9.69338
恐	-9.69338
恒	-9.69338
恓	-9.69338
恔	-9.69338
恕	-9.69338
恙	-9.69338
恚	-9.69338
恝	-9.69338
恢	-9.69338
恣	-9.69338
恤	-9.69338
恧	-9.69338
恨	-9.69338
恩	-9.69338
恪	-9.69338
恫	-9.69338
恬	-9.69338
恭	-9.69338
息	-9.69338
恰	-9.69338
恳	-9.69338
恶	-9.69338
恸	-9.69338
恹	-9.69338
恺	-9.69338
恻	-9.69338
恼	-9.69338
恽	-9.69338
恿	-9.69338
悃	-9.69338
悄	-9.69338
悆	-9.69338
悈	-9.69338
悉	-9.69338
悌	-9.69338
悍	-9.69338
悒	-9.69338
悔	-9.69338
悖	-9.69338
悚	-9.69338
悛	-9.69338
悝	-9.69338
悟	-9.69338
悠	-9.69338
悢	-9.69338
患	-9.69338
悦	-9.69338
您	-9.69338
悫	-9.69338
悬	-9.69338
悭	-9.69338
悯	-9.69338
悰	-9.69338
悱	-9.69338
悲	-9.69338
悴	-9.69338
悸	-9.69338
悻	-9.69338
悼	-9.69338
情	-9.69338
惆	-9.69338
惇	-9.69338
惊	-9.69338
惋	-9.69338
惎	-9.69338
惑	-9.69338
惔	-9.69338
惕	-9.69338
惘	-9.69338
惙	-9.69338
惚	-9.69338
惛	-9.69338
惜	-9.69338
惝	-9.69338
惟	-9.69338
惠	-9.69338
惦	-9.69338
惧	-9.69338
惨	-9.69338
惩	-9.69338
惫	-9.69338
惬	-9.69338
惭	-9.69338
惮	-9.69338
惯	-9.69338
惰	-9.69338
想	-9.69338
惴	-9.69338
惶	-9.69338
惹	-9.69338
惺	-9.69338
愀	-9.69338
愁	-9.69338
愃	-9.69338
愆	-9.69338
愈	-9.69338
愉	-9.69338
愍	-9.69338
愎	-9.69338
意	-9.69338
愐	-9.69338
愔	-9.69338
愕	-9.69338
愚	-9.69338
感	-9.69338
愠	-9.69338
愣	-9.69338
愤	-9.69338
愦	-9.69338
愧	-9.69338
愫	-9.69338
愭	-9.69338
愿	-9.69338
慆	-9.69338
慈	-9.69338
慊	-9.69338
慌	-9.69338
慎	-9.69338
慑	-9.69338
慕	-9.69338
慝	-9.69338
慢	-9.69338
慥	-9.69338
慧	-9.69338
慨	-9.69338
慬	-9.69338
慭	-9.69338
慰	-9.69338
慵	-9.69338
慷	-9.69338
憋	-9.69338
憎	-9.69338
憔	-9.69338
憕	-9.69338
憙	-9.69338
憧	-9.69338
憨	-9.69338
憩	-9.69338
憬	-9.69338
憭	-9.69338
憷	-9.69338
憺	-9.69338
憾	-9.69338
懂	-9.69338
懈	-9.69338
懊	-9.69338
懋	-9.69338
懑	-9.69338
懒	-9.69338
懔	-9.69338
懦	-9.69338
懵	-9.69338
懿	-9.69338
戆	-9.69338
戈	-9.69338
戊	-9.69338
戋	-9.69338
戌	-9.69338
戍	-9.69338
戎	-9.69338
戏	-9.69338
成	-9.69338
我	-9.69338
戒	-9.69338
戕	-9.69338
或	-9.69338
戗	-9.69338
战	-9.69338
戚	-9.69338
戛	-9.69338
戟	-9.69338
戡	-9.69338
戢	-9.69338
戣	-9.69338
戤	-9.69338
戥	-9.69338
截	-9.69338
戬	-9.69338
戭	-9.69338
戮	-9.69338
戳	-9.69338
戴	-9.69338
户	-9.69338
戽	-9.69338
戾	-9.69338
房	-9.69338
所	-9.69338
扁	-9.69338
扂	-9.69338
扃	-9.69338
扅	-9.69338
扆	-9.69338
扇	-9.69338
扈	-9.69338
扉	-9.69338
扊	-9.69338
手	-9.69338
才	-9.69338
扎	-9.69338
扑	-9.69338
扒	-9.69338
打	-9.69338
扔	-9.69338
托	-9.69338
扛	-9.69338
扞	-9.69338
扣	-9.69338
扦	-9.69338
执	-9.69338
扩	-9.69338
扪	-9.69338
扫	-9.69338
扬	-9.69338
扭	-9.69338
扮	-9.69338
扯	-9.69338
扰	-9.69338
扳	-9.69338
扶	-9.69338
批	-9.69338
扺	-9.69338
扼	-9.69338
扽	-9.69338
找	-9.69338
承	-9.69338
技	-9.69338
抃	-9.69338
抄	-9.69338
抉	-9.69338
把	-9.69338
抑	-9.69338
抒	-9.69338
抓	-9.69338
抔	-9.69338
投	-9.69338
抖	-9.69338
抗	-9.69338
折	-9.69338
抚	-9.69338
抛	-9.69338
抟	-9.69338
抠	-9.69338
抡	-9.69338
抢	-9.69338
护	-9.69338
报	-9.69338
抨	-9.69338
披	-9.69338
抬	-9.69338
抱	-9.69338
抵	-9.69338
抹	-9.69338
抻	-9.69338
押	-9.69338
抽	-9.69338
抿	-9.69338
拂	-9.69338
拃	-9.69338
拄	-9.69338
担	-9.69338
拆	-9.69338
拇	-9.69338
拈	-9.69338
拉	-9.69338
拊	-9.69338
拌	-9.69338
拍	-9.69338
拎	-9.69338
拐	-9.69338
拒	-9.69338
拓	-9.69338
拔	-9.69338
拖	-9.69338
拗	-9.69338
拘	-9.69338
拙	-9.69338
招	-9.69338
拜	-9.69338
拟	-9.69338
拢	-9.69338
拣	-9.69338
拤	-9.69338
拥	-9.69338
拦	-9.69338
拧	-9.69338
拨	-9.69338
择	-9.69338
括	-9.69338
拭	-9.69338
拮	-9.69338
拯	-9.69338
拱	-9.69338
拳	-9.69338
拴	-9.69338
拶	-9.69338
拷	-9.69338
拼	-9.69338
拽	-9.69338
拾	-9.69338
拿	-9.69338
持	-9.69338
挂	-9.69338
指	-9.69338
挈	-9.69338
按	-9.69338
挎	-9.69338
挑	-9.69338
挓	-9.69338
挖	-9.69338
挚	-9.69338
挛	-9.69338
挝	-9.69338
挞	-9.69338
挟	-9.69338
挠	-9.69338
挡	-9.69338
挣	-9.69338
挤	-9.69338
挥	-9.69338
挦	-9.69338
挨	-9.69338
挪	-9.69338
挫	-9.69338
振	-9.69338
挲	-9.69338
挹	-9.69338
挺	-9.69338
挽	-9.69338
捂	-9.69338
捃	-9.69338
捅	-9.69338
捆	-9.69338
捉	-9.69338
捋	-9.69338
捌	-9.69338
捍	-9.69338
捎	-9.69338
捏	-9.69338
捐	-9.69338
捕	-9.69338
捞	-9.69338
损	-9.69338
捡	-9.69338
换	-9.69338
捣	-9.69338
捧	-9.69338
捩	-9.69338
捭	-9.69338
据	-9.69338
捯	-9.69338
捶	-9.69338
捷	-9.69338
捺	-9.69338
捻	-9.69338
捽	-9.69338
掀	-9.69338
掂	-9.69338
掇	-9.69338
授	-9.69338
掉	-9.69338
掊	-9.69338
掌	-9.69338
掎	-9.69338
掏	-9.69338
掐	-9.69338
排	-9.69338
掖	-9.69338
掘	-9.69338
掞	-9.69338
掠	-9.69338
探	-9.69338
掣	-9.69338
接	-9.69338
控	-9.69338
推	-9.69338
掩	-9.69338
措	-9.69338
掬	-9.69338
掭	-9.69338
掮	-9.69338
掰	-9.69338
掳	-9.69338
掴	-9.69338
掷	-9.69338
掸	-9.69338
掺	-9.69338
掼	-9.69338
掾	-9.69338
揄	-9.69338
揆	-9.69338
揉	-9.69338
揍	-9.69338
描	-9.69338
提	-9.69338
插	-9.69338
揕	-9.69338
揖	-9.69338
揠	-9.69338
握	-9.69338
揣	-9.69338
揩	-9.69338
揪	-9.69338
揭	-9.69338
揳	-9.69338
援	-9.69338
揶	-9.69338
揸	-9.69338
揽	-9.69338
揿	-9.69338
搀	-9.69338
搁	-9.69338
搂	-9.69338
搅	-9.69338
搋	-9.69338
搌	-9.69338
搏	-9.69338
搐	-9.69338
搒	-9.69338
搓	-9.69338
搔	-9.69338
搛	-9.69338
搜	-9.69338
搞	-9.69338
搠	-9.69338
搡	-9.69338
搦	-9.69338
搪	-9.69338
搬	-9.69338
搭	-9.69338
搴	-9.69338
携	-9.69338
搽	-9.69338
摁	-9.69338
摄	-9.69338
摅	-9.69338
摆	-9.69338
摇	-9.69338
摈	-9.69338
摊	-9.69338
摏	-9.69338
摒	-9.69338
摔	-9.69338
摘	-9.69338
摛	-9.69338
摞	-9.69338
摧	-9.69338
摩	-9.69338
摭	-9.69338
摴	-9.69338
摸	-9.69338
摹	-9.69338
摽	-9.69338
撂	-9.69338
撄	-9.69338
撅	-9.69338
撇	-9.69338
撑	-9.69338
撒	-9.69338
撕	-9.69338
撖	-9.69338
撙	-9.69338
撞	-9.69338
撤	-9.69338
撩	-9.69338
撬	-9.69338
播	-9.69338
撮	-9.69338
撰	-9.69338
撵	-9.69338
撷	-9.69338
撸	-9.69338
撺	-9.69338
撼	-9.69338
擀	-9.69338
擂	-9.69338
擅	-9.69338
操	-9.69338
擎	-9.69338
擐	-9.69338
擒	-9.69338
擘	-9.69338
擞	-9.69338
擢	-9.69338
擤	-9.69338
擦	-9.69338
擿	-9.69338
攀	-9.69338
攉	-9.69338
攒	-9.69338
攘	-9.69338
攥	-9.69338
攫	-9.69338
攮	-9.69338
支	-9.69338
收	-9.69338
攸	-9.69338
改	-9.69338
攻	-9.69338
攽	-9.69338
放	-9.69338
政	-9.69338
故	-9.69338
效	-9.69338
敉	-9.69338
敌	-9.69338
敏	-9.69338
救	-9.69338
敔	-9.69338
敕	-9.69338
敖	-9.69338
教	-9.69338
敛	-9.69338
敝	-9.69338
敞	-9.69338
敢	-9.69338
散	-9.69338
敦	-9.69338
敩	-9.69338
敫	-9.69338
敬	-9.69338
数	-9.69338
敲	-9.69338
整	-9.69338
敷	-9.69338
文	-9.69338
斋	-9.69338
斌	-9.69338
斐	-9.69338
斑	-9.69338
斓	-9.69338
斗	-9.69338
料	-9.69338
斛	-9.69338
斜	-9.69338
斝	-9.69338
斟	-9.69338
斠	-9.69338
斡	-9.69338
斤	-9.69338
斥	-9.69338
斧	-9.69338
斩	-9.69338
斫	-9.69338
断	-9.69338
斯	-9.69338
新	-9.69338
斶	-9.69338
方	-9.69338
於	-9.69338
施	-9.69338
旁	-9.69338
旃	-9.69338
旄	-9.69338
旅	-9.69338
旆	-9.69338
旋	-9.69338
旌	-9.69338
旎	-9.69338
族	-9.69338
旐	-9.69338
旒	-9.69338
旖	-9.69338
旗	-9.69338
旞	-9.69338
无	-9.69338
既	-9.69338
日	-9.69338
旦	-9.69338
旧	-9.69338
旨	-9.69338
早	-9.69338
旬	-9.69338
旭	-9.69338
旮	-9.69338
旯	-9.69338
旰	-9.69338
旱	-9.69338
旴	-9.69338
旵	-9.69338
时	-9.69338
旷	-9.69338
旸	-9.69338
旺	-9.69338
旻	-9.69338
旿	-9.69338
昀	-9.69338
昂	-9.69338
昃	-9.69338
昄	-9.69338
昆	-9.69338
昇	-9.69338
昈	-9.69338
昉	-9.69338
昊	-9.69338
昌	-9.69338
明	-9.69338
昏	-9.69338
昒	-9.69338
易	-9.69338
昔	-9.69338
昕	-9.69338
昙	-9.69338
昝	-9.69338
星	-9.69338
映	-9.69338
昡	-9.69338
昣	-9.69338
昤	-9.69338
春	-9.69338
昧	-9.69338
昨	-9.69338
昪	-9.69338
昫	-9.69338
昭	-9.69338
是	-9.69338
昱	-9.69338
昳	-9.69338
昴	-9.69338
昵	-9.69338
昶	-9.69338
昺	-9.69338
昼	-9.69338
昽	-9.69338
显	-9.69338
晁	-9.69338
晃	-9.69338
晅	-9.69338
晊	-9.69338
晋	-9.69338
晌	-9.69338
晏	-9.69338
晐	-9.69338
晒	-9.69338
晓	-9.69338
晔	-9.69338
晕	-9.69338
晖	-9.69338
晗	-9.69338
晙	-9.69338
晚	-9.69338
晞	-9.69338
晟	-9.69338
晡	-9.69338
晢	-9.69338
晤	-9.69338
晦	-9.69338
晨	-9.69338
晪	-9.69338
晫	-9.69338
普	-9.69338
景	-9.69338
晰	-9.69338
晱	-9.69338
晴	-9.69338
晶	-9.69338
晷	-9.69338
智	-9.69338
晾	-9.69338
暂	-9.69338
暄	-9.69338
暅	-9.69338
暇	-9.69338
暌	-9.69338
暑	-9.69338
暕	-9.69338
暖	-9.69338
暗	-9.69338
暝	-9.69338
暧	-9.69338
暨	-9.69338
暮	-9.69338
暲	-9.69338
暴	-9.69338
暵	-9.69338
暶	-9.69338
暹	-9.69338
暾	-9.69338
暿	-9.69338
曈	-9.69338
曌	-9.69338
曙	-9.69338
曛	-9.69338
曜	-9.69338
曝	-9.69338
曦	-9.69338
曩	-9.69338
曰	-9.69338
曲	-9.69338
曳	-9.69338
更	-9.69338
曷	-9.69338
曹	-9.69338
曼	-9.69338
曾	-9.69338
替	-9.69338
最	-9.69338
月	-9.69338
有	-9.69338
朋	-9.69338
服	-9.69338
朏	-9.69338
朐	-9.69338
朓	-9.69338
朔	-9.69338
朕	-9.69338
朗	-9.69338
望	-9.69338
朝	-9.69338
期	-9.69338
朦	-9.69338
木	-9.69338
未	-9.69338
末	-9.69338
本	-9.69338
札	-9.69338
术	-9.69338
朱	-9.69338
朳	-9.69338
朴	-9.69338
朵	-9.69338
朸	-9.69338
机	-9.69338
朽	-9.69338
杀	-9.69338
杂	-9.69338
权	-9.69338
杄	-9.69338
杆	-9.69338
杈	-9.69338
杉	-9.69338
杌	-9.69338
李	-9.69338
杏	-9.69338
材	-9.69338
村	-9.69338
杓	-9.69338
杕	-9.69338
杖	-9.69338
杙	-9.69338
杜	-9.69338
杞	-9.69338
束	-9.69338
杠	-9.69338
条	-9.69338
来	-9.69338
杧	-9.69338
杨	-9.69338
杩	-9.69338
杪	-9.69338
杭	-9.69338
杯	-9.69338
杰	-9.69338
杲	-9.69338
杳	-9.69338
杵	-9.69338
杷	-9.69338
杻	-9.69338
杼	-9.69338
松	-9.69338
板	-9.69338
极	-9.69338
构	-9.69338
枅	-9.69338
枇	-9.69338
枉	-9.69338
枋	-9.69338
枍	-9.69338
析	-9.69338
枕	-9.69338
林	-9.69338
枘	-9.69338
枚	-9.69338
果	-9.69338
枝	-9.69338
枞	-9.69338
枢	-9.69338
枣	-9.69338
枥	-9.69338
枧	-9.69338
枨	-9.69338
枪	-9.69338
枫	-9.69338
枭	-9.69338
枯	-9.69338
枰	-9.69338
枲	-9.69338
枳	-9.69338
枵	-9.69338
架	-9.69338
枷	-9.69338
枸	-9.69338
枹	-9.69338
柁	-9.69338
柃	-9.69338
柄	-9.69338
柈	-9.69338
柊	-9.69338
柏	-9.69338
某	-9.69338
柑	-9.69338
柒	-9.69338
染	-9.69338
柔	-9.69338
柖	-9.69338
柘	-9.69338
柙	-9.69338
柚	-9.69338
柜	-9.69338
柝	-9.69338
柞	-9.69338
柠	-9.69338
柢	-9.69338
查	-9.69338
柩	-9.69338
柬	-9.69338
柯	-9.69338
柰	-9.69338
柱	-9.69338
柳	-9.69338
柴	-9.69338
柷	-9.69338
柽	-9.69338
柿	-9.69338
栀	-9.69338
栅	-9.69338
标	-9.69338
栈	-9.69338
栉	-9.69338
栊	-9.69338
栋	-9.69338
栌	-9.69338
栎	-9.69338
栏	-9.69338
栐	-9.69338
树	-9.69338
栒	-9.69338
栓	-9.69338
栖	-9.69338
栗	-9.69338
栝	-9.69338
栟	-9.69338
校	-9.69338
栩	-9.69338
株	-9.69338
栲	-9.69338
栳	-9.69338
栴	-9.69338
样	-9.69338
核	-9.69338
根	-9.69338
栻	-9.69338
格	-9.69338
栽	-9.69338
栾	-9.69338
桀	-9.69338
桁	-9.69338
桂	-9.69338
桃	-9.69338
桄	-9.69338
桅	-9.69338
框	-9.69338
案	-9.69338
桉	-9.69338
桊	-9.69338
桌	-9.69338
桎	-9.69338
桐	-9.69338
桑	-9.69338
桓	-9.69338
桔	-9.69338
桕	-9.69338
桠	-9.69338
桡	-9.69338
桢	-9.69338
档	-9.69338
桤	-9.69338
桥	-9.69338
桦	-9.69338
桧	-9.69338
桨	-9.69338
桩	-9.69338
桫	-9.69338
桯	-9.69338
桲	-9.69338
桴	-9.69338
桶	-9.69338
桷	-9.69338
桹	-9.69338
梁	-9.69338
梃	-9.69338
梅	-9.69338
梆	-9.69338
梌	-9.69338
梏	-9.69338
梓	-9.69338
梗	-9.69338
梠	-9.69338
梢	-9.69338
梣	-9.69338
梦	-9.69338
梧	-9.69338
梨	-9.69338
梭	-9.69338
梯	-9.69338
械	-9.69338
梳	-9.69338
梴	-9.69338
梵	-9.69338
梼	-9.69338
梽	-9.69338
梾	-9.69338
梿	-9.69338
检	-9.69338
棁	-9.69338
棂	-9.69338
棉	-9.69338
棋	-9.69338
棍	-9.69338
棐	-9.69338
棒	-9.69338
棓	-9.69338
棕	-9.69338
棘	-9.69338
棚	-9.69338
棠	-9.69338
棣	-9.69338
棤	-9.69338
棨	-9.69338
棪	-9.69338
棫	-9.69338
棬	-9.69338
森	-9.69338
棰	-9.69338
棱	-9.69338
棵	-9.69338
棹	-9.69338
棺	-9.69338
棻	-9.69338
棼	-9.69338
棽	-9.69338
椀	-9.69338
椁	-9.69338
椅	-9.69338
椆	-9.69338
椋	-9.69338
植	-9.69338
椎	-9.69338
椐	-9.69338
椑	-9.69338
椒	-9.69338
椓	-9.69338
椟	-9.69338
椠	-9.69338
椤	-9.69338
椪	-9.69338
椭	-9.69338
椰	-9.69338
椴	-9.69338
椸	-9.69338
椹	-9.69338
椽	-9.69338
椿	-9.69338
楂	-9.69338
楒	-9.69338
楔	-9.69338
楗	-9.69338
楙	-9.69338
楚	-9.69338
楝	-9.69338
楞	-9.69338
楠	-9.69338
楣	-9.69338
楦	-9.69338
楩	-9.69338
楪	-9.69338
楫	-9.69338
楮	-9.69338
楯	-9.69338
楷	-9.69338
楸	-9.69338
楹	-9.69338
楼	-9.69338
概	-9.69338
榃	-9.69338
榄	-9.69338
榅	-9.69338
榆	-9.69338
榇	-9.69338
榈	-9.69338
榉	-9.69338
榍	-9.69338
榑	-9.69338
榔	-9.69338
榕	-9.69338
榖	-9.69338
榛	-9.69338
榜	-9.69338
榧	-9.69338
榨	-9.69338
榫	-9.69338
榭	-9.69338
榰	-9.69338
榱	-9.69338
榴	-9.69338
榷	-9.69338
榻	-9.69338
槁	-9.69338
槃	-9.69338
槊	-9.69338
槌	-9.69338
槎	-9.69338
槐	-9.69338
槔	-9.69338
槚	-9.69338
槛	-9.69338
槜	-9.69338
槟	-9.69338
槠	-9.69338
槭	-9.69338
槱	-9.69338
槲	-9.69338
槽	-9.69338
槿	-9.69338
樊	-9.69338
樗	-9.69338
樘	-9.69338
樟	-9.69338
模	-9.69338
樨	-9.69338
横	-9.69338
樯	-9.69338
樱	-9.69338
樵	-9.69338
樽	-9.69338
樾	-9.69338
橄	-9.69338
橇	-9.69338
橐	-9.69338
橑	-9.69338
橘	-9.69338
橙	-9.69338
橛	-9.69338
橞	-9.69338
橡	-9.69338
橥	-9.69338
橦	-9.69338
橱	-9.69338
橹	-9.69338
橼	-9.69338
檀	-9.69338
檄	-9.69338
檎	-9.69338
檐	-9.69338
檑	-9.69338
檗	-9.69338
檞	-9.69338
檠	-9.69338
檩	-9.69338
檫	-9.69338
檬	-9.69338
櫆	-9.69338
欂	-9.69338
欠	-9.69338
次	-9.69338
欢	-9.69338
欣	-9.69338
欤	-9.69338
欧	-9.69338
欲	-9.69338
欸	-9.69338
欹	-9.69338
欺	-9.69338
欻	-9.69338
款	-9.69338
歃	-9.69338
歅	-9.69338
歆	-9.69338
歇	-9.69338
歉	-9.69338
歌	-9.69338
歙	-9.69338
止	-9.69338
正	-9.69338
此	-9.69338
步	-9.69338
武	-9.69338
歧	-9.69338
歪	-9.69338
歹	-9.69338
死	-9.69338
歼	-9.69338
殁	-9.69338
殂	-9.69338
殃	-9.69338
殄	-9.69338
殆	-9.69338
殇	-9.69338
殉	-9.69338
殊	-9.69338
残	-9.69338
殍	-9.69338
殒	-9.69338
殓	-9.69338
殖	-9.69338
殚	-9.69338
殛	-9.69338
殡	-9.69338
殣	-9.69338
殪	-9.69338
殳	-9.69338
殴	-9.69338
段	-9.69338
殷	-9.69338
殿	-9.69338
毁	-9.69338
毂	-9.69338
毅	-9.69338
毋	-9.69338
毌	-9.69338
母	-9.69338
每	-9.69338
毐	-9.69338
毒	-9.69338
毓	-9.69338
比	-9.69338
毕	-9.69338
毖	-9.69338
毗	-9.69338
毙	-9.69338
毛	-9.69338
毡	-9.69338
毪	-9.69338
毫	-9.69338
毯	-9.69338
毳	-9.69338
毵	-9.69338
毹	-9.69338
毽	-9.69338
氅	-9.69338
氆	-9.69338
氇	-9.69338
氍	-9.69338
氏	-9.69338
氐	-9.69338
民	-9.69338
氓	-9.69338
气	-9.69338
氕	-9.69338
氖	-9.69338
氘	-9.69338
氙	-9.69338
氚	-9.69338
氛	-9.69338
氟	-9.69338
氡	-9.69338
氢	-9.69338
氤	-9.69338
氦	-9.69338
氧	-9.69338
氨	-9.69338
氩	-9.69338
氪	-9.69338
氮	-9.69338
氯	-9.69338
氰	-9.69338
氲	-9.69338
水	-9.69338
永	-9.69338
氾	-9.69338
氿	-9.69338
汀	-9.69338
汁	-9.69338
求	-9.69338
汆	-9.69338
汇	-9.69338
汈	-9.69338
汉	-9.69338
汊	-9.69338
汋	-9.69338
汐	-9.69338
汔	-9.69338
汕	-9.69338
汗	-9.69338
汛	-9.69338
汜	-9.69338
汝	-9.69338
汞	-9.69338
江	-9.69338
池	-9.69338
污	-9.69338
汤	-9.69338
汧	-9.69338
汨	-9.69338
汩	-9.69338
汪	-9.69338
汫	-9.69338
汭	-9.69338
汰	-9.69338
汲	-9.69338
汴	-9.69338
汶	-9.69338
汹	-9.69338
汽	-9.69338
汾	-9.69338
沁	-9.69338
沂	-9.69338
沃	-9.69338
沄	-9.69338
沅	-9.69338
沆	-9.69338
沇	-9.69338
沈	-9.69338
沉	-9.69338
沌	-9.69338
沏	-9.69338
沐	-9.69338
沓	-9.69338
沔	-9.69338
沘	-9.69338
沙	-9.69338
沚	-9.69338
沛	-9.69338
沟	-9.69338
没	-9.69338
沣	-9.69338
沤	-9.69338
沥	-9.69338
沦	-9.69338
沧	-9.69338
沨	-9.69338
沩	-9.69338
沪	-9.69338
沫	-9.69338
沭	-9.69338
沮	-9.69338
沱	-9.69338
河	-9.69338
沸	-9.69338
油	-9.69338
沺	-9.69338
治	-9.69338
沼	-9.69338
沽	-9.69338
沾	-9.69338
沿	-9.69338
泂	-9.69338
泃	-9.69338
泄	-9.69338
泅	-9.69338
泇	-9.69338
泉	-9.69338
泊	-9.69338
泌	-9.69338
泐	-9.69338
泓	-9.69338
泔	-9.69338
法	-9.69338
泖	-9.69338
泗	-9.69338
泙	-9.69338
泚	-9.69338
泛	-9.69338
泜	-9.69338
泞	-9.69338
泠	-9.69338
泡	-9.69338
波	-9.69338
泣	-9.69338
泥	-9.69338
注	-9.69338
泪	-9.69338
泫	-9.69338
泮	-9.69338
泯	-9.69338
泰	-9.69338
泱	-9.69338
泳	-9.69338
泵	-9.69338
泷	-9.69338
泸	-9.69338
泺	-9.69338
泻	-9.69338
泼	-9.69338
泽	-9.69338
泾	-9.69338
洁	-9.69338
洄	-9.69338
洇	-9.69338
洈	-9.69338
洋	-9.69338
洌	-9.69338
洎	-9.69338
洑	-9.69338
洒	-9.69338
洓	-9.69338
洗	-9.69338
洘	-9.69338
洙	-9.69338
洚	-9.69338
洛	-9.69338
洞	-9.69338
洢	-9.69338
洣	-9.69338
津	-9.69338
洧	-9.69338
洨	-9.69338
洪	-9.69338
洫	-9.69338
洭	-9.69338
洮	-9.69338
洱	-9.69338
洲	-9.69338
洳	-9.69338
洴	-9.69338
洵	-9.69338
洸	-9.69338
洹	-9.69338
洺	-9.69338
活	-9.69338
洼	-9.69338
洽	-9.69338
派	-9.69338
洿	-9.69338
流	-9.69338
浃	-9.69338
浅	-9.69338
浆	-9.69338
浇	-9.69338
浈	-9.69338
浉	-9.69338
浊	-9.69338
测	-9.69338
浍	-9.69338
济	-9.69338
浏	-9.69338
浐	-9.69338
浑	-9.69338
浒	-9.69338
浓	-9.69338
浔	-9.69338
浕	-9.69338
浙	-9.69338
浚	-9.69338
浛	-9.69338
浜	-9.69338
浞	-9.69338
浟	-9.69338
浠	-9.69338
浡	-9.69338
浣	-9.69338
浥	-9.69338
浦	-9.69338
浩	-9.69338
浪	-9.69338
浬	-9.69338
浭	-9.69338
浮	-9.69338
浯	-9.69338
浰	-9.69338
浲	-9.69338
浴	-9.69338
海	-9.69338
浸	-9.69338
浼	-9.69338
涂	-9.69338
涄	-9.69338
涅	-9.69338
消	-9.69338
涉	-9.69338
涌	-9.69338
涍	-9.69338
涎	-9.69338
涐	-9.69338
涑	-9.69338
涓	-9.69338
涔	-9.69338
涕	-9.69338
涘	-9.69338
涛	-9.69338
涝	-9.69338
涞	-9.69338
涟	-9.69338
涠	-9.69338
涡	-9.69338
涢	-9.69338
涣	-9.69338
涤	-9.69338
润	-9.69338
涧	-9.69338
涨	-9.69338
涩	-9.69338
涪	-9.69338
涫	-9.69338
涮	-9.69338
涯	-9.69338
液	-9.69338
涴	-9.69338
涵	-9.69338
涸	-9.69338
涿	-9.69338
淀	-9.69338
淄	-9.69338
淅	-9.69338
淆	-9.69338
淇	-9.69338
淋	-9.69338
淌	-9.69338
淏	-9.69338
淑	-9.69338
淖	-9.69338
淘	-9.69338
淙	-9.69338
淜	-9.69338
淝	-9.69338
淞	-9.69338
淟	-9.69338
淠	-9.69338
淡	-9.69338
淤	-9.69338
淦	-9.69338
淫	-9.69338
淬	-9.69338
淮	-9.69338
淯	-9.69338
深	-9.69338
淳	-9.69338
淴	-9.69338
混	-9.69338
淹	-9.69338
添	-9.69338
淼	-9.69338
清	-9.69338
渊	-9.69338
渌	-9.69338
渍	-9.69338
渎	-9.69338
渐	-9.69338
渑	-9.69338
渔	-9.69338
渗	-9.69338
渚	-9.69338
渝	-9.69338
渟	-9.69338
渠	-9.69338
渡	-9.69338
渣	-9.69338
渤	-9.69338
渥	-9.69338
温	-9.69338
渫	-9.69338
渭	-9.69338
港	-9.69338
渰	-9.69338
渲	-9.69338
渴	-9.69338
游	-9.69338
渺	-9.69338
渼	-9.69338
湃	-9.69338
湄	-9.69338
湉	-9.69338
湍	-9.69338
湎	-9.69338
湑	-9.69338
湓	-9.69338
湔	-9.69338
湖	-9.69338
湘	-9.69338
湛	-9.69338
湜	-9.69338
湝	-9.69338
湟	-9.69338
湣	-9.69338
湫	-9.69338
湮	-9.69338
湲	-9.69338
湴	-9.69338
湾	-9.69338
湿	-9.69338
溁	-9.69338
溃	-9.69338
溅	-9.69338
溆	-9.69338
溇	-9.69338
溉	-9.69338
溍	-9.69338
溏	-9.69338
源	-9.69338
溘	-9.69338
溚	-9.69338
溜	-9.69338
溞	-9.69338
溟	-9.69338
溠	-9.69338
溢	-9.69338
溥	-9.69338
溦	-9.69338
溧	-9.69338
溪	-9.69338
溯	-9.69338
溱	-9.69338
溲	-9.69338
溴	-9.69338
溵	-9.69338
溶	-9.69338
溷	-9.69338
溹	-9.69338
溺	-9.69338
溻	-9.69338
溽	-9.69338
滁	-9.69338
滂	-9.69338
滃	-9.69338
滆	-9.69338
滇	-9.69338
滉	-9.69338
滋	-9.69338
滍	-9.69338
滏	-9.69338
滑	-9.69338
滓	-9.69338
滔	-9.69338
滕	-9.69338
滗	-9.69338
滘	-9.69338
滚	-9.69338
滞	-9.69338
滟	-9.69338
滠	-9.69338
满	-9.69338
滢	-9.69338
滤	-9.69338
滥	-9.69338
滦	-9.69338
滧	-9.69338
滨	-9.69338
滩	-9.69338
滪	-9.69338
滫	-9.69338
滴	-9.69338
滹	-9.69338
漂	-9.69338
漆	-9.69338
漈	-9.69338
漉	-9.69338
漋	-9.69338
漏	-9.69338
漓	-9.69338
演	-9.69338
漕	-9.69338
漖	-9.69338
漠	-9.69338
漤	-9.69338
漦	-9.69338
漩	-9.69338
漪	-9.69338
漫	-9.69338
漭	-9.69338
漯	-9.69338
漱	-9.69338
漳	-9.69338
漴	-9.69338
漶	-9.69338
漷	-9.69338
漹	-9.69338
漻	-9.69338
漼	-9.69338
漾	-9.69338
潆	-9.69338
潇	-9.69338
潋	-9.69338
潍	-9.69338
潏	-9.69338
潖	-9.69338
潘	-9.69338
潜	-9.69338
潞	-9.69338
潟	-9.69338
潢	-9.69338
潦	-9.69338
潩	-9.69338
潭	-9.69338
潮	-9.69338
潲	-9.69338
潴	-9.69338
潵	-9.69338
潸	-9.69338
潺	-9.69338
潼	-9.69338
潽	-9.69338
潾	-9.69338
澂	-9.69338
澄	-9.69338
澈	-9.69338
澉	-9.69338
澌	-9.69338
澍	-9.69338
澎	-9.69338
澛	-9.69338
澜	-9.69338
澡	-9.69338
澥	-9.69338
澧	-9.69338
澪	-9.69338
澭	-9.69338
澳	-9.69338
澴	-9.69338
澶	-9.69338
澹	-9.69338
澼	-9.69338
澽	-9.69338
激	-9.69338
濂	-9.69338
濉	-9.69338
濋	-9.69338
濑	-9.69338
濒	-9.69338
濞	-9.69338
濠	-9.69338
濡	-9.69338
濩	-9.69338
濮	-9.69338
濯	-9.69338
瀌	-9.69338
瀍	-9.69338
瀑	-9.69338
瀔	-9.69338
瀚	-9.69338
瀛	-9.69338
瀣	-9.69338
瀱	-9.69338
瀵	-9.69338
瀹	-9.69338
瀼	-9.69338
灈	-9.69338
灌	-9.69338
灏	-9.69338
灞	-9.69338
火	-9.69338
灭	-9.69338
灯	-9.69338
灰	-9.69338
灵	-9.69338
灶	-9.69338
灸	-9.69338
灼	-9.69338
灾	-9.69338
灿	-9.69338
炀	-9.69338
炅	-9.69338
炆	-9.69338
炉	-9.69338
炊	-9.69338
炌	-9.69338
炎	-9.69338
炒	-9.69338
炔	-9.69338
炕	-9.69338
炖	-9.69338
炘	-9.69338
炙	-9.69338
炜	-9.69338
炝	-9.69338
炟	-9.69338
炣	-9.69338
炫	-9.69338
炬	-9.69338
炭	-9.69338
炮	-9.69338
炯	-9.69338
炱	-9.69338
炳	-9.69338
炷	-9.69338
炸	-9.69338
点	-9.69338
炻	-9.69338
炼	-9.69338
炽	-9.69338
烀	-9.69338
烁	-9.69338
烂	-9.69338
烃	-9.69338
烈	-9.69338
烊	-9.69338
烔	-9.69338
烘	-9.69338
烙	-9.69338
烛	-9.69338
烜	-9.69338
烝	-9.69338
烟	-9.69338
烠	-9.69338
烤	-9.69338
烦	-9.69338
烧	-9.69338
烨	-9.69338
烩	-9.69338
烫	-9.69338
烬	-9.69338
热	-9.69338
烯	-9.69338
烶	-9.69338
烷	-9.69338
烹	-9.69338
烺	-9.69338
烻	-9.69338
烽	-9.69338
焆	-9.69338
焉	-9.69338
焊	-9.69338
焌	-9.69338
焐	-9.69338
焓	-9.69338
焕	-9.69338
焖	-9.69338
焗	-9.69338
焘	-9.69338
焙	-9.69338
焚	-9.69338
焜	-9.69338
焞	-9.69338
焦	-9.69338
焯	-9.69338
焰	-9.69338
焱	-9.69338
然	-9.69338
煁	-9.69338
煃	-9.69338
煅	-9.69338
煊	-9.69338
煋	-9.69338
煌	-9.69338
煎	-9.69338
煓	-9.69338
煜	-9.69338
煞	-9.69338
煟	-9.69338
煤	-9.69338
煦	-9.69338
照	-9.69338
煨	-9.69338
煮	-9.69338
煲	-9.69338
煳	-9.69338
煴	-9.69338
煸	-9.69338
煺	-9.69338
煽	-9.69338
熄	-9.69338
熇	-9.69338
熊	-9.69338
熏	-9.69338
熔	-9.69338
熘	-9.69338
熙	-9.69338
熛	-9.69338
熜	-9.69338
熟	-9.69338
熠	-9.69338
熥	-9.69338
熨	-9.69338
熬	-9.69338
熵	-9.69338
熹	-9.69338
熻	-9.69338
燃	-9.69338
燊	-9.69338
燋	-9.69338
燎	-9.69338
燏	-9.69338
燔	-9.69338
燕	-9.69338
燚	-9.69338
燠	-9.69338
燥	-9.69338
燧	-9.69338
燮	-9.69338
燹	-9.69338
爆	-9.69338
爇	-9.69338
爔	-9.69338
爚	-9.69338
爝	-9.69338
爟	-9.69338
爨	-9.69338
爪	-9.69338
爬	-9.69338
爰	-9.69338
爱	-9.69338
爵	-9.69338
父	-9.69338
爷	-9.69338
爸	-9.69338
爹	-9.69338
爻	-9.69338
爽	-9.69338
爿	-9.69338
牁	-9.69338
牂	-9.69338
片	-9.69338
版	-9.69338
牌	-9.69338
牍	-9.69338
牒	-9.69338
牖	-9.69338
牙	-9.69338
牚	-9.69338
牛	-9.69338
牝	-9.69338
牟	-9.69338
牡	-9.69338
牢	-9.69338
牤	-9.69338
牥	-9.69338
牦	-9.69338
牧	-9.69338
物	-9.69338
牮	-9.69338
牯	-9.69338
牲	-9.69338
牵	-9.69338
特	-9.69338
牺	-9.69338
牻	-9.69338
牾	-9.69338
牿	-9.69338
犀	-9.69338
犁	-9.69338
犄	-9.69338
犇	-9.69338
犊	-9.69338
犋	-9.69338
犍	-9.69338
犏	-9.69338
犒	-9.69338
犟	-9.69338
犨	-9.69338
犬	-9.69338
犯	-9.69338
犰	-9.69338
犴	-9.69338
状	-9.69338
犷	-9.69338
犸	-9.69338
犹	-9.69338
狁	-9.69338
狂	-9.69338
狃	-9.69338
狄	-9.69338
狈	-9.69338
狉	-9.69338
狍	-9.69338
狎	-9.69338
狐	-9.69338
狒	-9.69338
狗	-9.69338
狙	-9.69338
狝	-9.69338
狞	-9.69338
狠	-9.69338
狡	-9.69338
狨	-9.69338
狩	-9.69338
独	-9.69338
狭	-9.69338
狮	-9.69338
狯	-9.69338
狰	-9.69338
狱	-9.69338
狲	-9.69338
狳	-9.69338
狴	-9.69338
狷	-9.69338
狸	-9.69338
狺	-9.69338
狻	-9.69338
狼	-9.69338
猁	-9.69338
猃	-9.69338
猄	-9.69338
猇	-9.69338
猊	-9.69338
猎	-9.69338
猕	-9.69338
猖	-9.69338
猗	-9.69338
猛	-9.69338
猜	-9.69338
猝	-9.69338
猞	-9.69338
猡	-9.69338
猢	-9.69338
猥	-9.69338
猩	-9.69338
猪	-9.69338
猫	-9.69338
猬	-9.69338
献	-9.69338
猯	-9.69338
猰	-9.69338
猱	-9.69338
猴	-9.69338
猷	-9.69338
猹	-9.69338
猺	-9.69338
猾	-9.69338
猿	-9.69338
獍	-9.69338
獐	-9.69338
獒	-9.69338
獗	-9.69338
獠	-9.69338
獬	-9.69338
獭	-9.69338
獯	-9.69338
獴	-9.69338
獾	-9.69338
玃	-9.69338
玄	-9.69338
率	-9.69338
玉	-9.69338
王	-9.69338
玎	-9.69338
玑	-9.69338
玒	-9.69338
玓	-9.69338
玕	-9.69338
玖	-9.69338
玘	-9.69338
玙	-9.69338
玚	-9.69338
玛	-9.69338
玞	-9.69338
玟	-9.69338
玠	-9.69338
玡	-9.69338
玢	-9.69338
玤	-9.69338
玥	-9.69338
玦	-9.69338
玩	-9.69338
玫	-9.69338
玭	-9.69338
玮	-9.69338
环	-9.69338
现	-9.69338
玱	-9.69338
玲	-9.69338
玳	-9.69338
玶	-9.69338
玷	-9.69338
玹	-9.69338
玺	-9.69338
玻	-9.69338
玼	-9.69338
玿	-9.69338
珀	-9.69338
珂	-9.69338
珅	-9.69338
珇	-9.69338
珈	-9.69338
珉	-9.69338
珊	-9.69338
珋	-9.69338
珌	-9.69338
珍	-9.69338
珏	-9.69338
珐	-9.69338
珑	-9.69338
珒	-9.69338
珕	-9.69338
珖	-9.69338
珙	-9.69338
珛	-9.69338
珝	-9.69338
珞	-9.69338
珠	-9.69338
珢	-9.69338
珣	-9.69338
珥	-9.69338
珦	-9.69338
珧	-9.69338
珩	-9.69338
珪	-9.69338
珫	-9.69338
班	-9.69338
珰	-9.69338
珲	-9.69338
珵	-9.69338
珷	-9.69338
珸	-9.69338
珹	-9.69338
珺	-9.69338
珽	-9.69338
琀	-9.69338
球	-9.69338
琄	-9.69338
琅	-9.69338
理	-9.69338
琇	-9.69338
琈	-9.69338
琉	-9.69338
琊	-9.69338
琎	-9.69338
琏	-9.69338
琐	-9.69338
琔	-9.69338
琚	-9.69338
琛	-9.69338
琟	-9.69338
琡	-9.69338
琢	-9.69338
琤	-9.69338
琥	-9.69338
琦	-9.69338
琨	-9.69338
琪	-9.69338
琫	-9.69338
琬	-9.69338
琭	-9.69338
琮	-9.69338
琯	-9.69338
琰	-9.69338
琲	-9.69338
琳	-9.69338
琴	-9.69338
琵	-9.69338
琶	-9.69338
琼	-9.69338
瑀	-9.69338
瑁	-9.69338
瑂	-9.69338
瑃	-9.69338
瑄	-9.69338
瑅	-9.69338
瑆	-9.69338
瑑	-9.69338
瑓	-9.69338
瑔	-9.69338
瑕	-9.69338
瑖	-9.69338
瑗	-9.69338
瑙	-9.69338
瑚	-9.69338
瑛	-9.69338
瑜	-9.69338
瑝	-9.69338
瑞	-9.69338
瑟	-9.69338
瑢	-9.69338
瑧	-9.69338
瑨	-9.69338
瑬	-9.69338
瑭	-9.69338
瑰	-9.69338
瑱	-9.69338
瑳	-9.69338
瑶	-9.69338
瑷	-9.69338
瑾	-9.69338
璀	-9.69338
璁	-9.69338
璃	-9.69338
璆	-9.69338
璇	-9.69338
璈	-9.69338
璋	-9.69338
璎	-9.69338
璐	-9.69338
璒	-9.69338
璘	-9.69338
璜	-9.69338
璞	-9.69338
璟	-9.69338
璠	-9.69338
璥	-9.69338
璧	-9.69338
璨	-9.69338
璩	-9.69338
璪	-9.69338
璬	-9.69338
璮	-9.69338
璱	-9.69338
璲	-9.69338
璺	-9.69338
瓀	-9.69338
瓒	-9.69338
瓖	-9.69338
瓘	-9.69338
瓜	-9.69338
瓞	-9.69338
瓠	-9.69338
瓢	-9.69338
瓣	-9.69338
瓤	-9.69338
瓦	-9.69338
瓮	-9.69338
瓯	-9.69338
瓴	-9.69338
瓶	-9.69338
瓷	-9.69338
瓻	-9.69338
瓿	-9.69338
甄	-9.69338
甍	-9.69338
甏	-9.69338
甑	-9.69338
甓	-9.69338
甗	-9.69338
甘	-9.69338
甚	-9.69338
甜	-9.69338
生	-9.69338
甡	-9.69338
甥	-9.69338
甦	-9.69338
用	-9.69338
甩	-9.69338
甪	-9.69338
甫	-9.69338
甬	-9.69338
甭	-9.69338
甯	-9.69338
田	-9.69338
由	-9.69338
甲	-9.69338
申	-9.69338
电	-9.69338
男	-9.69338
甸	-9.69338
町	-9.69338
画	-9.69338
甾	-9.69338
畀	-9.69338
畅	-9.69338
畈	-9.69338
畋	-9.69338
界	-9.69338
畎	-9.69338
畏	-9.69338
畔	-9.69338
畖	-9.69338
留	-9.69338
畚	-9.69338
畛	-9.69338
畜	-9.69338
畤	-9.69338
略	-9.69338
畦	-9.69338
番	-9.69338
畬	-9.69338
畯	-9.69338
畲	-9.69338
畴	-9.69338
畸	-9.69338
畹	-9.69338
畿	-9.69338
疁	-9.69338
疃	-9.69338
疆	-9.69338
疍	-9.69338
疏	-9.69338
疐	-9.69338
疑	-9.69338
疔	-9.69338
疖	-9.69338
疗	-9.69338
疙	-9.69338
疚	-9.69338
疝	-9.69338
疟	-9.69338
疠	-9.69338
疡	-9.69338
疢	-9.69338
疣	-9.69338
疤	-9.69338
疥	-9.69338
疫	-9.69338
疬	-9.69338
疭	-9.69338
疮	-9.69338
疯	-9.69338
疰	-9.69338
疱	-9.69338
疲	-9.69338
疳	-9.69338
疴	-9.69338
疵	-9.69338
疸	-9.69338
疹	-9.69338
疼	-9.69338
疽	-9.69338
疾	-9.69338
痂	-9.69338
痃	-9.69338
痄	-9.69338
病	-9.69338
症	-9.69338
痈	-9.69338
痉	-9.69338
痊	-9.69338
痍	-9.69338
痒	-9.69338
痓	-9.69338
痔	-9.69338
痕	-9.69338
痘	-9.69338
痛	-9.69338
痞	-9.69338
痢	-9.69338
痣	-9.69338
痤	-9.69338
痦	-9.69338
痧	-9.69338
痨	-9.69338
痪	-9.69338
痫	-9.69338
痰	-9.69338
痱	-9.69338
痴	-9.69338
痹	-9.69338
痼	-9.69338
痿	-9.69338
瘀	-9.69338
瘁	-9.69338
瘃	-9.69338
瘅	-9.69338
瘆	-9.69338
瘊	-9.69338
瘌	-9.69338
瘐	-9.69338
瘕	-9.69338
瘗	-9.69338
瘘	-9.69338
瘙	-9.69338
瘛	-9.69338
瘟	-9.69338
瘠	-9.69338
瘢	-9.69338
瘤	-9.69338
瘥	-9.69338
瘦	-9.69338
瘩	-9.69338
瘪	-9.69338
瘫	-9.69338
瘭	-9.69338
瘰	-9.69338
瘳	-9.69338
瘴	-9.69338
瘵	-9.69338
瘸	-9.69338
瘼	-9.69338
瘾	-9.69338
瘿	-9.69338
癀	-9.69338
癃	-9.69338
癌	-9.69338
癍	-9.69338
癔	-9.69338
癖	-9.69338
癗	-9.69338
癜	-9.69338
癞	-9.69338
癣	-9.69338
癫	-9.69338
癯	-9.69338
癸	-9.69338
登	-9.69338
白	-9.69338
百	-9.69338
癿	-9.69338
皂	-9.69338
的	-9.69338
皆	-9.69338
皇	-9.69338
皈	-9.69338
皋	-9.69338
皎	-9.69338
皑	-9.69338
皓	-9.69338
皕	-9.69338
皖	-9.69338
皙	-9.69338
皛	-9.69338
皞	-9.69338
皤	-9.69338
皦	-9.69338
皭	-9.69338
皮	-9.69338
皱	-9.69338
皲	-9.69338
皴	-9.69338
皿	-9.69338
盂	-9.69338
盅	-9.69338
盆	-9.69338
盈	-9.69338
盉	-9.69338
益	-9.69338
盍	-9.69338
盎	-9.69338
盏	-9.69338
盐	-9.69338
监	-9.69338
盒	-9.69338
盔	-9.69338
盖	-9.69338
盗	-9.69338
盘	-9.69338
盛	-9.69338
盟	-9.69338
盥	-9.69338
盦	-9.69338
目	-9.69338
盯	-9.69338
盱	-9.69338
盲	-9.69338
直	-9.69338
盷	-9.69338
相	-9.69338
盹	-9.69338
盼	-9.69338
盾	-9.69338
省	-9.69338
眄	-9.69338
眇	-9.69338
眈	-9.69338
眉	-9.69338
眊	-9.69338
看	-9.69338
眍	-9.69338
眙	-9.69338
眚	-9.69338
真	-9.69338
眠	-9.69338
眢	-9.69338
眦	-9.69338
眨	-9.69338
眩	-9.69338
眬	-9.69338
眭	-9.69338
眯	-9.69338
眵	-9.69338
眶	-9.69338
眷	-9.69338
眸	-9.69338
眺	-9.69338
眼	-9.69338
着	-9.69338
睁	-9.69338
睃	-9.69338
睄	-9.69338
睇	-9.69338
睎	-9.69338
睐	-9.69338
睑	-9.69338
睚	-9.69338
睛	-9.69338
睡	-9.69338
睢	-9.69338
督	-9.69338
睥	-9.69338
睦	-9.69338
睨	-9.69338
睫	-9.69338
睬	-9.69338
睹	-9.69338
睽	-9.69338
睾	-9.69338
睿	-9.69338
瞀	-9.69338
瞄	-9.69338
瞅	-9.69338
瞋	-9.69338
瞌	-9.69338
瞍	-9.69338
瞎	-9.69338
瞑	-9.69338
瞒	-9.69338
瞟	-9.69338
瞠	-9.69338
瞢	-9.69338
瞥	-9.69338
瞧	-9.69338
瞩	-9.69338
瞪	-9.69338
瞫	-9.69338
瞬	-9.69338
瞭	-9.69338
瞰	-9.69338
瞳	-9.69338
瞵	-9.69338
瞻	-9.69338
瞽	-9.69338
瞿	-9.69338
矍	-9.69338
矗	-9.69338
矛	-9.69338
矜	-9.69338
矞	-9.69338
矢	-9.69338
矣	-9.69338
知	-9.69338
矧	-9.69338
矩	-9.69338
矫	-9.69338
矬	-9.69338
短	-9.69338
矮	-9.69338
矰	-9.69338
石	-9.69338
矶	-9.69338
矸	-9.69338
矻	-9.69338
矼	-9.69338
矾	-9.69338
矿	-9.69338
砀	-9.69338
码	-9.69338
砂	-9.69338
砄	-9.69338
砆	-9.69338
砉	-9.69338
砌	-9.69338
砍	-9.69338
砑	-9.69338
砒	-9.69338
研	-9.69338
砖	-9.69338
砗	-9.69338
砘	-9.69338
砚	-9.69338
砜	-9.69338
砝	-9.69338
砟	-9.69338
砠	-9.69338
砣	-9.69338
砥	-9.69338
砧	-9.69338
砫	-9.69338
砬	-9.69338
砭	-9.69338
砮	-9.69338
砰	-9.69338
破	-9.69338
砵	-9.69338
砷	-9.69338
砸	-9.69338
砹	-9.69338
砺	-9.69338
砻	-9.69338
砼	-9.69338
砾	-9.69338
础	-9.69338
硁	-9.69338
硅	-9.69338
硇	-9.69338
硊	-9.69338
硌	-9.69338
硍	-9.69338
硎	-9.69338
硐	-9.69338
硒	-9.69338
硔	-9.69338
硕	-9.69338
硖	-9.69338
硗	-9.69338
硙	-9.69338
硚	-9.69338
硝	-9.69338
硪	-9.69338
硫	-9.69338
硬	-9.69338
硭	-9.69338
确	-9.69338
硼	-9.69338
硿	-9.69338
碃	-9.69338
碇	-9.69338
碈	-9.69338
碉	-9.69338
碌	-9.69338
碍	-9.69338
碎	-9.69338
碏	-9.69338
碑	-9.69338
碓	-9.69338
碗	-9.69338
碘	-9.69338
碚	-9.69338
碛	-9.69338
碜	-9.69338
碟	-9.69338
碡	-9.69338
碣	-9.69338
碥	-9.69338
碧	-9.69338
碨	-9.69338
碰	-9.69338
碱	-9.69338
碲	-9.69338
碳	-9.69338
碴	-9.69338
碶	-9.69338
碹	-9.69338
碾	-9.69338
磁	-9.69338
磅	-9.69338
磉	-9.69338
磊	-9.69338
磋	-9.69338
磏	-9.69338
磐	-9.69338
磔	-9.69338
磕	-9.69338
磙	-9.69338
磜	-9.69338
磡	-9.69338
磨	-9.69338
磬	-9.69338
磲	-9.69338
磴	-9.69338
磷	-9.69338
磹	-9.69338
磻	-9.69338
礁	-9.69338
礅	-9.69338
礌	-9.69338
礓	-9.69338
礞	-9.69338
礴	-9.69338
礵	-9.69338
示	-9.69338
礼	-9.69338
社	-9.69338
祀	-9.69338
祁	-9.69338
祃	-9.69338
祆	-9.69338
祇	-9.69338
祈	-9.69338
祉	-9.69338
祊	-9.69338
祋	-9.69338
祎	-9.69338
祏	-9.69338
祐	-9.69338
祓	-9.69338
祕	-9.69338
祖	-9.69338
祗	-9.69338
祚	-9.69338
祛	-9.69338
祜	-9.69338
祝	-9.69338
神	-9.69338
祟	-9.69338
祠	-9.69338
祢	-9.69338
祥	-9.69338
祧	-9.69338
票	-9.69338
祭	-9.69338
祯	-9.69338
祲	-9.69338
祷	-9.69338
祸	-9.69338
祺	-9.69338
祼	-9.69338
祾	-9.69338
禀	-9.69338
禁	-9.69338
禄	-9.69338
禅	-9.69338
禊	-9.69338
禋	-9.69338
福	-9.69338
禒	-9.69338
禔	-9.69338
禘	-9.69338
禚	-9.69338
禛	-9.69338
禤	-9.69338
禧	-9.69338
禳	-9.69338
禹	-9.69338
禺	-9.69338
离	-9.69338
禽	-9.69338
禾	-9.69338
秀	-9.69338
私	-9.69338
秃	-9.69338
秆	-9.69338
秉	-9.69338
秋	-9.69338
种	-9.69338
科	-9.69338
秒	-9.69338
秕	-9.69338
秘	-9.69338
租	-9.69338
秣	-9.69338
秤	-9.69338
秦	-9.69338
秧	-9.69338
秩	-9.69338
秫	-9.69338
秬	-9.69338
秭	-9.69338
积	-9.69338
称	-9.69338
秸	-9.69338
移	-9.69338
秽	-9.69338
秾	-9.69338
稀	-9.69338
稂	-9.69338
稃	-9.69338
稆	-9.69338
程	-9.69338
稌	-9.69338
稍	-9.69338
税	-9.69338
稑	-9.69338
稔	-9.69338
稗	-9.69338
稙	-9.69338
稚	-9.69338
稞	-9.69338
稠	-9.69338
稣	-9.69338
稳	-9.69338
稷	-9.69338
稹	-9.69338
稻	-9.69338
稼	-9.69338
稽	-9.69338
稿	-9.69338
穄	-9.69338
穆	-9.69338
穑	-9.69338
穗	-9.69338
穙	-9.69338
穜	-9.69338
穟	-9.69338
穰	-9.69338
穴	-9.69338
究	-9.69338
穷	-9.69338
穸	-9.69338
穹	-9.69338
空	-9.69338
穿	-9.69338
窀	-9.69338
突	-9.69338
窃	-9.69338
窄	-9.69338
窅	-9.69338
窈	-9.69338
窊	-9.69338
窍	-9.69338
窎	-9.69338
窑	-9.69338
窒	-9.69338
窕	-9.69338
窖	-9.69338
窗	-9.69338
窘	-9.69338
窜	-9.69338
窝	-9.69338
窟	-9.69338
窠	-9.69338
窣	-9.69338
窥	-9.69338
窦	-9.69338
窨	-9.69338
窬	-9.69338
窭	-9.69338
窳	-9.69338
窸	-9.69338
窿	-9.69338
立	-9.69338
竑	-9.69338
竖	-9.69338
竘	-9.69338
站	-9.69338
竞	-9.69338
竟	-9.69338
章	-9.69338
竣	-9.69338
童	-9.69338
竦	-9.69338
竫	-9.69338
竭	-9.69338
端	-9.69338
竹	-9.69338
竺	-9.69338
竽	-9.69338
竿	-9.69338
笃	-9.69338
笄	-9.69338
笆	-9.69338
笈	-9.69338
笊	-9.69338
笋	-9.69338
笏	-9.69338
笑	-9.69338
笔	-9.69338
笕	-9.69338
笙	-9.69338
笛	-9.69338
笞	-9.69338
笠	-9.69338
笤	-9.69338
笥	-9.69338
符	-9.69338
笨	-9.69338
笪	-9.69338
笫	-9.69338
第	-9.69338
笮	-9.69338
笯	-9.69338
笱	-9.69338
笳	-9.69338
笸	-9.69338
笺	-9.69338
笼	-9.69338
笾	-9.69338
筀	-9.69338
筅	-9.69338
筇	-9.69338
等	-9.69338
筋	-9.69338
筌	-9.69338
筏	-9.69338
筐	-9.69338
筑	-9.69338
筒	-9.69338
答	-9.69338
策	-9.69338
筘	-9.69338
筚	-9.69338
筛	-9.69338
筜	-9.69338
筝	-9.69338
筠	-9.69338
筢	-9.69338
筤	-9.69338
筥	-9.69338
筦	-9.69338
筮	-9.69338
筱	-9.69338
筲	-9.69338
筵	-9.69338
筶	-9.69338
筷	-9.69338
筹	-9.69338
筻	-9.69338
筼	-9.69338
签	-9.69338
简	-9.69338
箅	-9.69338
箍	-9.69338
箐	-9.69338
箓	-9.69338
箔	-9.69338
箕	-9.69338
箖	-9.69338
算	-9.69338
箜	-9.69338
管	-9.69338
箢	-9.69338
箦	-9.69338
箧	-9.69338
箨	-9.69338
箩	-9.69338
箪	-9.69338
箫	-9.69338
箬	-9.69338
箭	-9.69338
箱	-9.69338
箴	-9.69338
箸	-9.69338
篁	-9.69338
篆	-9.69338
篇	-9.69338
篌	-9.69338
篑	-9.69338
篓	-9.69338
篙	-9.69338
篚	-9.69338
篝	-9.69338
篡	-9.69338
篥	-9.69338
篦	-9.69338
篪	-9.69338
篮	-9.69338
篯	-9.69338
篱	-9.69338
篷	-9.69338
篼	-9.69338
篾	-9.69338
簃	-9.69338
簇	-9.69338
簉	-9.69338
簋	-9.69338
簌	-9.69338
簏	-9.69338
簕	-9.69338
簖	-9.69338
簝	-9.69338
簟	-9.69338
簠	-9.69338
簧	-9.69338
簪	-9.69338
簰	-9.69338
簸	-9.69338
簿	-9.69338
籀	-9.69338
籁	-9.69338
籍	-9.69338
籥	-9.69338
米	-9.69338
籴	-9.69338
类	-9.69338
籼	-9.69338
籽	-9.69338
粉	-9.69338
粑	-9.69338
粒	-9.69338
粕	-9.69338
粗	-9.69338
粘	-9.69338
粜	-9.69338
粝	-9.69338
粞	-9.69338
粟	-9.69338
粢	-9.69338
粤	-9.69338
粥	-9.69338
粪	-9.69338
粮	-9.69338
粱	-9.69338
粲	-9.69338
粳	-9.69338
粹	-9.69338
粼	-9.69338
粽	-9.69338
精	-9.69338
粿	-9.69338
糁	-9.69338
糅	-9.69338
糇	-9.69338
糈	-9.69338
糊	-9.69338
糌	-9.69338
糍	-9.69338
糒	-9.69338
糕	-9.69338
糖	-9.69338
糗	-9.69338
糙	-9.69338
糜	-9.69338
糟	-9.69338
糠	-9.69338
糨	-9.69338
糯	-9.69338
糵	-9.69338
系	-9.69338
紊	-9.69338
素	-9.69338
索	-9.69338
紧	-9.69338
紫	-9.69338
累	-9.69338
絜	-9.69338
絮	-9.69338
絷	-9.69338
綦	-9.69338
綮	-9.69338
縠	-9.69338
縢	-9.69338
縻	-9.69338
繁	-9.69338
繄	-9.69338
繇	-9.69338
纂	-9.69338
纛	-9.69338
纠	-9.69338
纡	-9.69338
红	-9.69338
纣	-9.69338
纤	-9.69338
纥	-9.69338
约	-9.69338
级	-9.69338
纨	-9.69338
纩	-9.69338
纪	-9.69338
纫	-9.69338
纬	-9.69338
纭	-9.69338
纮	-9.69338
纯	-9.69338
纰	-9.69338
纱	-9.69338
纲	-9.69338
纳	-9.69338
纴	-9.69338
纵	-9.69338
纶	-9.69338
纷	-9.69338
纸	-9.69338
纹	-9.69338
纺	-9.69338
纻	-9.69338
纼	-9.69338
纽	-9.69338
纾	-9.69338
线	-9.69338
绀	-9.69338
绁	-9.69338
绂	-9.69338
练	-9.69338
组	-9.69338
绅	-9.69338
细	-9.69338
织	-9.69338
终	-9.69338
绉	-9.69338
绊	-9.69338
绋	-9.69338
绌	-9.69338
绍	-9.69338
绎	-9.69338
经	-9.69338
绐	-9.69338
绑	-9.69338
绒	-9.69338
结	-9.69338
绔	-9.69338
绕	-9.69338
绖	-9.69338
绗	-9.69338
绘	-9.69338
给	-9.69338
绚	-9.69338
绛	-9.69338
络	-9.69338
绝	-9.69338
绞	-9.69338
统	-9.69338
绠	-9.69338
绡	-9.69338
绢	-9.69338
绣	-9.69338
绤	-9.69338
绥	-9.69338
绦	-9.69338
继	-9.69338
绨	-9.69338
绩	-9.69338
绪	-9.69338
绫	-9.69338
续	-9.69338
绮	-9.69338
绯	-9.69338
绰	-9.69338
绱	-9.69338
绲	-9.69338
绳	-9.69338
维	-9.69338
绵	-9.69338
绶	-9.69338
绷	-9.69338
绸	-9.69338
绹	-9.69338
绺	-9.69338
绻	-9.69338
综	-9.69338
绽	-9.69338
绾	-9.69338
绿	-9.69338
缀	-9.69338
缁	-9.69338
缂	-9.69338
缃	-9.69338
缄	-9.69338
缅	-9.69338
缆	-9.69338
缇	-9.69338
缈	-9.69338
缉	-9.69338
缊	-9.69338
缌	-9.69338
缎	-9.69338
缐	-9.69338
缑	-9.69338
缒	-9.69338
缓	-9.69338
缔	-9.69338
缕	-9.69338
编	-9.69338
缗	-9.69338
缘	-9.69338
缙	-9.69338
缚	-9.69338
缛	-9.69338
缜	-9.69338
缝	-9.69338
缞	-9.69338
缟	-9.69338
缠	-9.69338
缡	-9.69338
缢	-9.69338
缣	-9.69338
缤	-9.69338
缥	-9.69338
缦	-9.69338
缧	-9.69338
缨	-9.69338
缩	-9.69338
缪	-9.69338
缫	-9.69338
缬	-9.69338
缭	-9.69338
缮	-9.69338
缯	-9.69338
缰	-9.69338
缱	-9.69338
缲	-9.69338
缳	-9.69338
缴	-9.69338
缵	-9.69338
缶	-9.69338
缸	-9.69338
缺	-9.69338
罂	-9.69338
罄	-9.69338
罅	-9.69338
罍	-9.69338
罐	-9.69338
网	-9.69338
罔	-9.69338
罕	-9.69338
罗	-9.69338
罘	-9.69338
罚	-9.69338
罟	-9.69338
罡	-9.69338
罢	-9.69338
罨	-9.69338
罩	-9.69338
罪	-9.69338
置	-9.69338
罱	-9.69338
署	-9.69338
罴	-9.69338
罶	-9.69338
罹	-9.69338
罽	-9.69338
罾	-9.69338
羁	-9.69338
羊	-9.69338
羌	-9.69338
美	-9.69338
羑	-9.69338
羓	-9.69338
羔	-9.69338
羕	-9.69338
羖	-9.69338
羚	-9.69338
羝	-9.69338
羞	-9.69338
羟	-9.69338
羡	-9.69338
群	-9.69338
羧	-9.69338
羯	-9.69338
羰	-9.69338
羱	-9.69338
羲	-9.69338
羸	-9.69338
羹	-9.69338
羼	-9.69338
羽	-9.69338
羿	-9.69338
翀	-9.69338
翁	-9.69338
翂	-9.69338
翃	-9.69338
翅	-9.69338
翈	-9.69338
翊	-9.69338
翌	-9.69338
翎	-9.69338
翔	-9.69338
翕	-9.69338
翘	-9.69338
翙	-9.69338
翚	-9.69338
翛	-9.69338
翟	-9.69338
翠	-9.69338
翡	-9.69338
翥	-9.69338
翦	-9.69338
翩	-9.69338
翮	-9.69338
翯	-9.69338
翰	-9.69338
翱	-9.69338
翳	-9.69338
翷	-9.69338
翻	-9.69338
翼	-9.69338
翾	-9.69338
耀	-9.69338
老	-9.69338
考	-9.69338
耄	-9.69338
者	-9.69338
耆	-9.69338
耇	-9.69338
耋	-9.69338
而	-9.69338
耍	-9.69338
耏	-9.69338
耐	-9.69338
耑	-9.69338
耒	-9.69338
耔	-9.69338
耕	-9.69338
耖	-9.69338
耗	-9.69338
耘	-9.69338
耙	-9.69338
耜	-9.69338
耠	-9.69338
耢	-9.69338
耤	-9.69338
耥	-9.69338
耦	-9.69338
耧	-9.69338
耨	-9.69338
耩	-9.69338
耪	-9.69338
耰	-9.69338
耱	-9.69338
耳	-9.69338
耵	-9.69338
耶	-9.69338
耷	-9.69338
耸	-9.69338
耻	-9.69338
耽	-9.69338
耿	-9.69338
聂	-9.69338
聃	-9.69338
聆	-9.69338
聊	-9.69338
聋	-9.69338
职	-9.69338
聍	-9.69338
聒	-9.69338
联	-9.69338
聘	-9.69338
聚	-9.69338
聩	-9.69338
聪	-9.69338
聱	-9.69338
聿	-9.69338
肃	-9.69338
肄	-9.69338
肆	-9.69338
肇	-9.69338
肉	-9.69338
肋	-9.69338
肌	-9.69338
肓	-9.69338
肖	-9.69338
肘	-9.69338
肚	-9.69338
肛	-9.69338
肝	-9.69338
肟	-9.69338
肠	-9.69338
股	-9.69338
肢	-9.69338
肤	-9.69338
肥	-9.69338
肩	-9.69338
肪	-9.69338
肫	-9.69338
肭	-9.69338
肮	-9.69338
肯	-9.69338
肱	-9.69338
育	-9.69338
肴	-9.69338
肷	-9.69338
肸	-9.69338
肺	-9.69338
肼	-9.69338
肽	-9.69338
肾	-9.69338
肿	-9.69338
胀	-9.69338
胁	-9.69338
胂	-9.69338
胃	-9.69338
胄	-9.69338
胆	-9.69338
胈	-9.69338
背	-9.69338
胍	-9.69338
胎	-9.69338
胖	-9.69338
胗	-9.69338
胙	-9.69338
胚	-9.69338
胛	-9.69338
胜	-9.69338
胝	-9.69338
胞	-9.69338
胠	-9.69338
胡	-9.69338
胣	-9.69338
胤	-9.69338
胥	-9.69338
胧	-9.69338
胨	-9.69338
胩	-9.69338
胪	-9.69338
胫	-9.69338
胬	-9.69338
胭	-9.69338
胯	-9.69338
胰	-9.69338
胱	-9.69338
胲	-9.69338
胳	-9.69338
胴	-9.69338
胶	-9.69338
胸	-9.69338
胺	-9.69338
胼	-9.69338
能	-9.69338
脂	-9.69338
脆	-9.69338
脉	-9.69338
脊	-9.69338
脍	-9.69338
脎	-9.69338
脏	-9.69338
脐	-9.69338
脑	-9.69338
脒	-9.69338
脓	-9.69338
脔	-9.69338
脖	-9.69338
脘	-9.69338
脚	-9.69338
脞	-9.69338
脟	-9.69338
脩	-9.69338
脬	-9.69338
脯	-9.69338
脱	-9.69338
脲	-9.69338
脶	-9.69338
脸	-9.69338
脾	-9.69338
脿	-9.69338
腆	-9.69338
腈	-9.69338
腊	-9.69338
腋	-9.69338
腌	-9.69338
腐	-9.69338
腑	-9.69338
腒	-9.69338
腓	-9.69338
腔	-9.69338
腕	-9.69338
腘	-9.69338
腙	-9.69338
腚	-9.69338
腠	-9.69338
腥	-9.69338
腧	-9.69338
腨	-9.69338
腩	-9.69338
腭	-9.69338
腮	-9.69338
腯	-9.69338
腰	-9.69338
腱	-9.69338
腴	-9.69338
腹	-9.69338
腺	-9.69338
腻	-9.69338
腼	-9.69338
腽	-9.69338
腾	-9.69338
腿	-9.69338
膀	-9.69338
膂	-9.69338
膈	-9.69338
膊	-9.69338
膏	-9.69338
膑	-9.69338
膘	-9.69338
膙	-9.69338
膛	-9.69338
膜	-9.69338
膝	-9.69338
膦	-9.69338
膨	-9.69338
膳	-9.69338
膺	-9.69338
膻	-9.69338
臀	-9.69338
臂	-9.69338
臃	-9.69338
臆	-9.69338
臊	-9.69338
臌	-9.69338
臑	-9.69338
臜	-9.69338
臣	-9.69338
臧	-9.69338
自	-9.69338
臬	-9.69338
臭	-9.69338
至	-9.69338
致	-9.69338
臻	-9.69338
臼	-9.69338
臾	-9.69338
舀	-9.69338
舁	-9.69338
舂	-9.69338
舄	-9.69338
舅	-9.69338
舆	-9.69338
舌	-9.69338
舍	-9.69338
舐	-9.69338
舒	-9.69338
舔	-9.69338
舛	-9.69338
舜	-9.69338
舞	-9.69338
舟	-9.69338
舠	-9.69338
舢	-9.69338
舣	-9.69338
舥	-9.69338
航	-9.69338
舫	-9.69338
般	-9.69338
舭	-9.69338
舯	-9.69338
舰	-9.69338
舱	-9.69338
舲	-9.69338
舳	-9.69338
舴	-9.69338
舵	-9.69338
舶	-9.69338
舷	-9.69338
舸	-9.69338
船	-9.69338
舻	-9.69338
舾	-9.69338
艄	-9.69338
艅	-9.69338
艇	-9.69338
艉	-9.69338
艋	-9.69338
艎	-9.69338
艏	-9.69338
艘	-9.69338
艚	-9.69338
艟	-9.69338
艨	-9.69338
艮	-9.69338
良	-9.69338
艰	-9.69338
色	-9.69338
艳	-9.69338
艴	-9.69338
艺	-9.69338
艽	-9.69338
艾	-9.69338
艿	-9.69338
节	-9.69338
芃	-9.69338
芄	-9.69338
芈	-9.69338
芊	-9.69338
芋	-9.69338
芍	-9.69338
芎	-9.69338
芏	-9.69338
芑	-9.69338
芒	-9.69338
芗	-9.69338
芘	-9.69338
芙	-9.69338
芜	-9.69338
芝	-9.69338
芟	-9.69338
芠	-9.69338
芡	-9.69338
芣	-9.69338
芤	-9.69338
芥	-9.69338
芦	-9.69338
芨	-9.69338
芩	-9.69338
芪	-9.69338
芫	-9.69338
芬	-9.69338
芭	-9.69338
芮	-9.69338
芯	-9.69338
芰	-9.69338
花	-9.69338
芳	-9.69338
芴	-9.69338
芷	-9.69338
芸	-9.69338
芹	-9.69338
芼	-9.69338
芽	-9.69338
芾	-9.69338
苁	-9.69338
苄	-9.69338
苇	-9.69338
苈	-9.69338
苉	-9.69338
苊	-9.69338
苋	-9.69338
苌	-9.69338
苍	-9.69338
苎	-9.69338
苏	-9.69338
苑	-9.69338
苒	-9.69338
苓	-9.69338
苔	-9.69338
苕	-9.69338
苗	-9.69338
苘	-9.69338
苛	-9.69338
苜	-9.69338
苞	-9.69338
苟	-9.69338
苠	-9.69338
苡	-9.69338
苣	-9.69338
苤	-9.69338
若	-9.69338
苦	-9.69338
苧	-9.69338
苫	-9.69338
苯	-9.69338
英	-9.69338
苴	-9.69338
苷	-9.69338
苹	-9.69338
苻	-9.69338
苾	-9.69338
茀	-9.69338
茁	-9.69338
茂	-9.69338
范	-9.69338
茄	-9.69338
茅	-9.69338
茆	-9.69338
茈	-9.69338
茉	-9.69338
茋	-9.69338
茌	-9.69338
茎	-9.69338
茏	-9.69338
茑	-9.69338
茓	-9.69338
茔	-9.69338
茕	-9.69338
茗	-9.69338
茚	-9.69338
茛	-9.69338
茜	-9.69338
茝	-9.69338
茧	-9.69338
茨	-9.69338
茫	-9.69338
茬	-9.69338
茭	-9.69338
茯	-9.69338
茱	-9.69338
茳	-9.69338
茴	-9.69338
茵	-9.69338
茶	-9.69338
茸	-9.69338
茹	-9.69338
茺	-9.69338
茼	-9.69338
茽	-9.69338
荀	-9.69338
荁	-9.69338
荃	-9.69338
荄	-9.69338
荆	-9.69338
荇	-9.69338
草	-9.69338
荏	-9.69338
荐	-9.69338
荑	-9.69338
荒	-9.69338
荓	-9.69338
荔	-9.69338
荖	-9.69338
荙	-9.69338
荚	-9.69338
荛	-9.69338
荜	-9.69338
荞	-9.69338
荟	-9.69338
荠	-9.69338
荡	-9.69338
荣	-9.69338
荤	-9.69338
荥	-9.69338
荦	-9.69338
荧	-9.69338
荨	-9.69338
荩	-9.69338
荪	-9.69338
荫	-9.69338
荬	-9.69338
荭	-9.69338
荮	-9.69338
药	-9.69338
荷	-9.69338
荸	-9.69338
荻	-9.69338
荼	-9.69338
荽	-9.69338
莅	-9.69338
莆	-9.69338
莉	-9.69338
莎	-9.69338
莒	-9.69338
莓	-9.69338
莘	-9.69338
莙	-9.69338
莛	-9.69338
莜	-9.69338
莝	-9.69338
莞	-9.69338
莠	-9.69338
莨	-9.69338
莩	-9.69338
莪	-9.69338
莫	-9.69338
莰	-9.69338
莱	-9.69338
莲	-9.69338
莳	-9.69338
莴	-9.69338
莶	-9.69338
获	-9.69338
莸	-9.69338
莹	-9.69338
莺	-9.69338
莼	-9.69338
莽	-9.69338
莿	-9.69338
菀	-9.69338
菁	-9.69338
菂	-9.69338
菅	-9.69338
菇	-9.69338
菉	-9.69338
菊	-9.69338
菌	-9.69338
菍	-9.69338
菏	-9.69338
菔	-9.69338
菖	-9.69338
菘	-9.69338
菜	-9.69338
菝	-9.69338
菟	-9.69338
菠	-9.69338
菡	-9.69338
菥	-9.69338
菩	-9.69338
菪	-9.69338
菰	-9.69338
菱	-9.69338
菲	-9.69338
菹	-9.69338
菼	-9.69338
菽	-9.69338
萁	-9.69338
萃	-9.69338
萄	-9.69338
萆	-9.69338
萋	-9.69338
萌	-9.69338
萍	-9.69338
萎	-9.69338
萏	-9.69338
萑	-9.69338
萘	-9.69338
萚	-9.69338
萜	-9.69338
萝	-9.69338
萣	-9.69338
萤	-9.69338
营	-9.69338
萦	-9.69338
萧	-9.69338
萨	-9.69338
萩	-9.69338
萱	-9.69338
萳	-9.69338
萸	-9.69338
萹	-9.69338
萼	-9.69338
落	-9.69338
葆	-9.69338
葎	-9.69338
葑	-9.69338
葖	-9.69338
著	-9.69338
葙	-9.69338
葚	-9.69338
葛	-9.69338
葜	-9.69338
葡	-9.69338
董	-9.69338
葩	-9.69338
葫	-9.69338
葬	-9.69338
葭	-9.69338
葰	-9.69338
葱	-9.69338
葳	-9.69338
葴	-9.69338
葵	-9.69338
葶	-9.69338
葸	-9.69338
葺	-9.69338
蒂	-9.69338
蒄	-9.69338
蒇	-9.69338
蒈	-9.69338
蒉	-9.69338
蒋	-9.69338
蒌	-9.69338
蒎	-9.69338
蒐	-9.69338
蒗	-9.69338
蒙	-9.69338
蒜	-9.69338
蒟	-9.69338
蒡	-9.69338
蒨	-9.69338
蒯	-9.69338
蒱	-9.69338
蒲	-9.69338
蒴	-9.69338
蒸	-9.69338
蒹	-9.69338
蒺	-9.69338
蒻	-9.69338
蒽	-9.69338
蒿	-9.69338
蓁	-9.69338
蓂	-9.69338
蓄	-9.69338
蓇	-9.69338
蓉	-9.69338
蓊	-9.69338
蓍	-9.69338
蓏	-9.69338
蓐	-9.69338
蓑	-9.69338
蓓	-9.69338
蓖	-9.69338
蓝	-9.69338
蓟	-9.69338
蓠	-9.69338
蓢	-9.69338
蓣	-9.69338
蓥	-9.69338
蓦	-9.69338
蓬	-9.69338
蓰	-9.69338
蓼	-9.69338
蓿	-9.69338
蔀	-9.69338
蔃	-9.69338
蔈	-9.69338
蔊	-9.69338
蔌	-9.69338
蔑	-9.69338
蔓	-9.69338
蔗	-9.69338
蔚	-9.69338
蔟	-9.69338
蔡	-9.69338
蔫	-9.69338
蔬	-9.69338
蔷	-9.69338
蔸	-9.69338
蔹	-9.69338
蔺	-9.69338
蔻	-9.69338
蔼	-9.69338
蔽	-9.69338
蕃	-9.69338
蕈	-9.69338
蕉	-9.69338
蕊	-9.69338
蕖	-9.69338
蕗	-9.69338
蕙	-9.69338
蕞	-9.69338
蕤	-9.69338
蕨	-9.69338
蕰	-9.69338
蕲	-9.69338
蕴	-9.69338
蕹	-9.69338
蕺	-9.69338
蕻	-9.69338
蕾	-9.69338
薁	-9.69338
薄	-9.69338
薅	-9.69338
薇	-9.69338
薏	-9.69338
薛	-9.69338
薜	-9.69338
薢	-9.69338
薤	-9.69338
薨	-9.69338
薪	-9.69338
薮	-9.69338
薯	-9.69338
薰	-9.69338
薳	-9.69338
薷	-9.69338
薸	-9.69338
薹	-9.69338
薿	-9.69338
藁	-9.69338
藉	-9.69338
藏	-9.69338
藐	-9.69338
藓	-9.69338
藕	-9.69338
藜	-9.69338
藟	-9.69338
藠	-9.69338
藤	-9.69338
藦	-9.69338
藨	-9.69338
藩	-9.69338
藻	-9.69338
藿	-9.69338
蘅	-9.69338
蘑	-9.69338
蘖	-9.69338
蘘	-9.69338
蘧	-9.69338
蘩	-9.69338
蘸	-9.69338
蘼	-9.69338
虎	-9.69338
虏	-9.69338
虐	-9.69338
虑	-9.69338
虒	-9.69338
虓	-9.69338
虔	-9.69338
虚	-9.69338
虞	-9.69338
虢	-9.69338
虤	-9.69338
虫	-9.69338
虬	-9.69338
虮	-9.69338
虱	-9.69338
虷	-9.69338
虸	-9.69338
虹	-9.69338
虺	-9.69338
虻	-9.69338
虼	-9.69338
虽	-9.69338
虾	-9.69338
虿	-9.69338
蚀	-9.69338
蚁	-9.69338
蚂	-9.69338
蚄	-9.69338
蚆	-9.69338
蚊	-9.69338
蚋	-9.69338
蚌	-9.69338
蚍	-9.69338
蚓	-9.69338
蚕	-9.69338
蚜	-9.69338
蚝	-9.69338
蚣	-9.69338
蚤	-9.69338
蚧	-9.69338
蚨	-9.69338
蚩	-9.69338
蚪	-9.69338
蚬	-9.69338
蚯	-9.69338
蚰	-9.69338
蚱	-9.69338
蚲	-9.69338
蚴	-9.69338
蚶	-9.69338
蚺	-9.69338
蛀	-9.69338
蛃	-9.69338
蛄	-9.69338
蛆	-9.69338
蛇	-9.69338
蛉	-9.69338
蛊	-9.69338
蛋	-9.69338
蛎	-9.69338
蛏	-9.69338
蛐	-9.69338
蛑	-9.69338
蛔	-9.69338
蛘	-9.69338
蛙	-9.69338
蛛	-9.69338
蛞	-9.69338
蛟	-9.69338
蛤	-9.69338
蛩	-9.69338
蛭	-9.69338
蛮	-9.69338
蛰	-9.69338
蛱	-9.69338
蛲	-9.69338
蛳	-9.69338
蛴	-9.69338
蛸	-9.69338
蛹	-9.69338
蛾	-9.69338
蜀	-9.69338
蜂	-9.69338
蜃	-9.69338
蜇	-9.69338
蜈	-9.69338
蜉	-9.69338
蜊	-9.69338
蜍	-9.69338
蜎	-9.69338
蜐	-9.69338
蜒	-9.69338
蜓	-9.69338
蜕	-9.69338
蜗	-9.69338
蜘	-9.69338
蜚	-9.69338
蜜	-9.69338
蜞	-9.69338
蜡	-9.69338
蜢	-9.69338
蜣	-9.69338
蜥	-9.69338
蜩	-9.69338
蜮	-9.69338
蜱	-9.69338
蜴	-9.69338
蜷	-9.69338
蜻	-9.69338
蜾	-9.69338
蜿	-9.69338
蝇	-9.69338
蝈	-9.69338
蝉	-9.69338
蝌	-9.69338
蝎	-9.69338
蝓	-9.69338
蝗	-9.69338
蝘	-9.69338
蝙	-9.69338
蝠	-9.69338
蝣	-9.69338
蝤	-9.69338
蝥	-9.69338
蝮	-9.69338
蝰	-9.69338
蝲	-9.69338
蝴	-9.69338
蝶	-9.69338
蝻	-9.69338
蝼	-9.69338
蝽	-9.69338
蝾	-9.69338
螂	-9.69338
螃	-9.69338
螅	-9.69338
螈	-9.69338
螋	-9.69338
融	-9.69338
螗	-9.69338
螟	-9.69338
螠	-9.69338
螣	-9.69338
螨	-9.69338
螫	-9.69338
螬	-9.69338
螭	-9.69338
螯	-9.69338
螱	-9.69338
螳	-9.69338
螵	-9.69338
螺	-9.69338
螽	-9.69338
蟀	-9.69338
蟆	-9.69338
蟊	-9.69338
蟋	-9.69338
蟏	-9.69338
蟑	-9.69338
蟒	-9.69338
蟛	-9.69338
蟠	-9.69338
蟥	-9.69338
蟪	-9.69338
蟫	-9.69338
蟮	-9.69338
蟹	-9.69338
蟾	-9.69338
蠃	-9.69338
蠊	-9.69338
蠋	-9.69338
蠓	-9.69338
蠕	-9.69338
蠖	-9.69338
蠡	-9.69338
蠢	-9.69338
蠲	-9.69338
蠹	-9.69338
蠼	-9.69338
血	-9.69338
衃	-9.69338
衄	-9.69338
衅	-9.69338
行	-9.69338
衍	-9.69338
衎	-9.69338
衒	-9.69338
衔	-9.69338
街	-9.69338
衙	-9.69338
衠	-9.69338
衡	-9.69338
衢	-9.69338
衣	-9.69338
补	-9.69338
表	-9.69338
衩	-9.69338
衫	-9.69338
衬	-9.69338
衮	-9.69338
衰	-9.69338
衲	-9.69338
衷	-9.69338
衽	-9.69338
衾	-9.69338
衿	-9.69338
袁	-9.69338
袂	-9.69338
袄	-9.69338
袅	-9.69338
袆	-9.69338
袈	-9.69338
袋	-9.69338
袍	-9.69338
袒	-9.69338
袖	-9.69338
袗	-9.69338
袜	-9.69338
袢	-9.69338
袤	-9.69338
袪	-9.69338
被	-9.69338
袭	-9.69338
袯	-9.69338
袱	-9.69338
袷	-9.69338
袼	-9.69338
裁	-9.69338
裂	-9.69338
装	-9.69338
裆	-9.69338
裈	-9.69338
裉	-9.69338
裎	-9.69338
裒	-9.69338
裔	-9.69338
裕	-9.69338
裘	-9.69338
裙	-9.69338
裛	-9.69338
裟	-9.69338
裢	-9.69338
裣	-9.69338
裤	-9.69338
裥	-9.69338
裨	-9.69338
裰	-9.69338
裱	-9.69338
裳	-9.69338
裴	-9.69338
裸	-9.69338
裹	-9.69338
裼	-9.69338
裾	-9.69338
褂	-9.69338
褊	-9.69338
褐	-9.69338
褒	-9.69338
褓	-9.69338
褕	-9.69338
褙	-9.69338
褚	-9.69338
褛	-9.69338
褟	-9.69338
褡	-9.69338
褥	-9.69338
褪	-9.69338
褫	-9.69338
褯	-9.69338
褰	-9.69338
褴	-9.69338
褶	-9.69338
襁	-9.69338
襄	-9.69338
襕	-9.69338
襚	-9.69338
襜	-9.69338
襞	-9.69338
襟	-9.69338
襦	-9.69338
襫	-9.69338
襻	-9.69338
西	-9.69338
要	-9.69338
覃	-9.69338
覆	-9.69338
见	-9.69338
观	-9.69338
觃	-9.69338
规	-9.69338
觅	-9.69338
视	-9.69338
觇	-9.69338
览	-9.69338
觉	-9.69338
觊	-9.69338
觋	-9.69338
觌	-9.69338
觎	-9.69338
觏	-9.69338
觐	-9.69338
觑	-9.69338
角	-9.69338
觖	-9.69338
觚	-9.69338
觜	-9.69338
觞	-9.69338
觟	-9.69338
解	-9.69338
觥	-9.69338
触	-9.69338
觫	-9.69338
觭	-9.69338
觯	-9.69338
觱	-9.69338
觳	-9.69338
觿	-9.69338
言	-9.69338
訄	-9.69338
訇	-9.69338
訚	-9.69338
訾	-9.69338
詈	-9.69338
詟	-9.69338
詹	-9.69338
誉	-9.69338
誊	-9.69338
誓	-9.69338
謇	-9.69338
警	-9.69338
譬	-9.69338
计	-9.69338
订	-9.69338
讣	-9.69338
认	-9.69338
讥	-9.69338
讦	-9.69338
讧	-9.69338
讨	-9.69338
让	-9.69338
讪	-9.69338
讫	-9.69338
训	-9.69338
议	-9.69338
讯	-9.69338
记	-9.69338
讱	-9.69338
讲	-9.69338
讳	-9.69338
讴	-9.69338
讵	-9.69338
讶	-9.69338
讷	-9.69338
许	-9.69338
讹	-9.69338
论	-9.69338
讻	-9.69338
讼	-9.69338
讽	-9.69338
设	-9.69338
访	-9.69338
诀	-9.69338
证	-9.69338
诂	-9.69338
诃	-9.69338
评	-9.69338
诅	-9.69338
识	-9.69338
诇	-9.69338
诈	-9.69338
诉	-9.69338
诊	-9.69338
诋	-9.69338
诌	-9.69338
词	-9.69338
诎	-9.69338
诏	-9.69338
诐	-9.69338
译	-9.69338
诒	-9.69338
诓	-9.69338
诔	-9.69338
试	-9.69338
诖	-9.69338
诗	-9.69338
诘	-9.69338
诙	-9.69338
诚	-9.69338
诛	-9.69338
诜	-9.69338
话	-9.69338
诞	-9.69338
诟	-9.69338
诠	-9.69338
诡	-9.69338
询	-9.69338
诣	-9.69338
诤	-9.69338
该	-9.69338
详	-9.69338
诧	-9.69338
诨	-9.69338
诩	-9.69338
诫	-9.69338
诬	-9.69338
语	-9.69338
诮	-9.69338
误	-9.69338
诰	-9.69338
诱	-9.69338
诲	-9.69338
诳	-9.69338
说	-9.69338
诵	-9.69338
请	-9.69338
诸	-9.69338
诹	-9.69338
诺	-9.69338
读	-9.69338
诼	-9.69338
诽	-9.69338
课	-9.69338
诿	-9.69338
谀	-9.69338
谁	-9.69338
谂	-9.69338
调	-9.69338
谄	-9.69338
谅	-9.69338
谆	-9.69338
谇	-9.69338
谈	-9.69338
谊	-9.69338
谋	-9.69338
谌	-9.69338
谍	-9.69338
谎	-9.69338
谏	-9.69338
谐	-9.69338
谑	-9.69338
谒	-9.69338
谓	-9.69338
谔	-9.69338
谕	-9.69338
谖	-9.69338
谗	-9.69338
谙	-9.69338
谚	-9.69338
谛	-9.69338
谜	-9.69338
谝	-9.69338
谞	-9.69338
谟	-9.69338
谠	-9.69338
谡	-9.69338
谢	-9.69338
谣	-9.69338
谤	-9.69338
谥	-9.69338
谦	-9.69338
谧	-9.69338
谨	-9.69338
谩	-9.69338
谪	-9.69338
谫	-9.69338
谬	-9.69338
谭	-9.69338
谮	-9.69338
谯	-9.69338
谰	-9.69338
谱	-9.69338
谲	-9.69338
谳	-9.69338
谴	-9.69338
谵	-9.69338
谶	-9.69338
谷	-9.69338
谼	-9.69338
谿	-9.69338
豁	-9.69338
豆	-9.69338
豇	-9.69338
豉	-9.69338
豌	-9.69338
豕	-9.69338
豚	-9.69338
象	-9.69338
豢	-9.69338
豨	-9.69338
豪	-9.69338
豫	-9.69338
豮	-9.69338
豳	-9.69338
豸	-9.69338
豹	-9.69338
豺	-9.69338
貂	-9.69338
貅	-9.69338
貆	-9.69338
貉	-9.69338
貊	-9.69338
貌	-9.69338
貔	-9.69338
貘	-9.69338
贝	-9.69338
贞	-9.69338
负	-9.69338
贡	-9.69338
财	-9.69338
责	-9.69338
贤	-9.69338
败	-9.69338
账	-9.69338
货	-9.69338
质	-9.69338
贩	-9.69338
贪	-9.69338
贫	-9.69338
贬	-9.69338
购	-9.69338
贮	-9.69338
贯	-9.69338
贰	-9.69338
贱	-9.69338
贲	-9.69338
贳	-9.69338
贴	-9.69338
贵	-9.69338
贶	-9.69338
贷	-9.69338
贸	-9.69338
费	-9.69338
贺	-9.69338
贻	-9.69338
贼	-9.69338
贽	-9.69338
贾	-9.69338
贿	-9.69338
赀	-9.69338
赁	-9.69338
赂	-9.69338
赃	-9.69338
资	-9.69338
赅	-9.69338
赆	-9.69338
赇	-9.69338
赈	-9.69338
赉	-9.69338
赊	-9.69338
赋	-9.69338
赌	-9.69338
赍	-9.69338
赎	-9.69338
赏	-9.69338
赐	-9.69338
赑	-9.69338
赒	-9.69338
赓	-9.69338
赔	-9.69338
赕	-9.69338
赖	-9.69338
赗	-9.69338
赘	-9.69338
赙	-9.69338
赚	-9.69338
赛	-9.69338
赜	-9.69338
赝	-9.69338
赞	-9.69338
赟	-9.69338
赠	-9.69338
赡	-9.69338
赢	-9.69338
赣	-9.69338
赤	-9.69338
赦	-9.69338
赧	-9.69338
赪	-9.69338
赫	-9.69338
赭	-9.69338
走	-9.69338
赳	-9.69338
赴	-9.69338
赵	-9.69338
赶	-9.69338
起	-9.69338
趁	-9.69338
趄	-9.69338
超	-9.69338
越	-9.69338
趋	-9.69338
趑	-9.69338
趔	-9.69338
趟	-9.69338
趣	-9.69338
趯	-9.69338
趱	-9.69338
足	-9.69338
趴	-9.69338
趵	-9.69338
趸	-9.69338
趺	-9.69338
趼	-9.69338
趾	-9.69338
趿	-9.69338
跂	-9.69338
跃	-9.69338
跄	-9.69338
跆	-9.69338
跋	-9.69338
跌	-9.69338
跎	-9.69338
跏	-9.69338
跐	-9.69338
跑	-9.69338
跖	-9.69338
跗	-9.69338
跚	-9.69338
跛	-9.69338
距	-9.69338
跞	-9.69338
跟	-9.69338
跣	-9.69338
跤	-9.69338
跨	-9.69338
跪	-9.69338
跬	-9.69338
路	-9.69338
跱	-9.69338
跳	-9.69338
践	-9.69338
跶	-9.69338
跷	-9.69338
跸	-9.69338
跹	-9.69338
跺	-9.69338
跻	-9.69338
跽	-9.69338
踅	-9.69338
踉	-9.69338
踊	-9.69338
踌	-9.69338
踏	-9.69338
踒	-9.69338
踔	-9.69338
踝	-9.69338
踞	-9.69338
踟	-9.69338
踢	-9.69338
踣	-9.69338
踦	-9.69338
踩	-9.69338
踪	-9.69338
踬	-9.69338
踮	-9.69338
踯	-9.69338
踱	-9.69338
踵	-9.69338
踶	-9.69338
踹	-9.69338
踺	-9.69338
踽	-9.69338
蹀	-9.69338
蹁	-9.69338
蹂	-9.69338
蹄	-9.69338
蹅	-9.69338
蹇	-9.69338
蹈	-9.69338
蹉	-9.69338
蹊	-9.69338
蹋	-9.69338
蹐	-9.69338
蹑	-9.69338
蹒	-9.69338
蹙	-9.69338
蹚	-9.69338
蹜	-9.69338
蹢	-9.69338
蹦	-9.69338
蹩	-9.69338
蹬	-9.69338
蹭	-9.69338
蹯	-9.69338
蹰	-9.69338
蹲	-9.69338
蹴	-9.69338
蹶	-9.69338
蹼	-9.69338
蹽	-9.69338
蹾	-9.69338
蹿	-9.69338
躁	-9.69338
躅	-9.69338
躇	-9.69338
躏	-9.69338
躐	-9.69338
躔	-9.69338
躜	-9.69338
躞	-9.69338
身	-9.69338
躬	-9.69338
躯	-9.69338
躲	-9.69338
躺	-9.69338
车	-9.69338
轧	-9.69338
轨	-9.69338
轩	-9.69338
轪	-9.69338
轫	-9.69338
转	-9.69338
轭	-9.69338
轮	-9.69338
软	-9.69338
轰	-9.69338
轱	-9.69338
轲	-9.69338
轳	-9.69338
轴	-9.69338
轵	-9.69338
轶	-9.69338
轷	-9.69338
轸	-9.69338
轹	-9.69338
轺	-9.69338
轻	-9.69338
轼	-9.69338
载	-9.69338
轾	-9.69338
轿	-9.69338
辀	-9.69338
辁	-9.69338
辂	-9.69338
较	-9.69338
辄	-9.69338
辅	-9.69338
辆	-9.69338
辇	-9.69338
辈	-9.69338
辉	-9.69338
辊	-9.69338
辋	-9.69338
辌	-9.69338
辍	-9.69338
辎	-9.69338
辏	-9.69338
辐	-9.69338
辑	-9.69338
辒	-9.69338
输	-9.69338
辔	-9.69338
辕	-9.69338
辖	-9.69338
辗	-9.69338
辘	-9.69338
辙	-9.69338
辚	-9.69338
辛	-9.69338
辜	-9.69338
辞	-9.69338
辟	-9.69338
辣	-9.69338
辨	-9.69338
辩	-9.69338
辫	-9.69338
辰	-9.69338
辱	-9.69338
边	-9.69338
辽	-9.69338
达	-9.69338
辿	-9.69338
迁	-9.69338
迂	-9.69338
迄	-9.69338
迅	-9.69338
过	-9.69338
迈	-9.69338
迎	-9.69338
运	-9.69338
近	-9.69338
迓	-9.69338
返	-9.69338
迕	-9.69338
还	-9.69338
这	-9.69338
进	-9.69338
远	-9.69338
违	-9.69338
连	-9.69338
迟	-9.69338
迢	-9.69338
迤	-9.69338
迥	-9.69338
迦	-9.69338
迨	-9.69338
迩	-9.69338
迪	-9.69338
迫	-9.69338
迭	-9.69338
迮	-9.69338
述	-9.69338
迳	-9.69338
迷	-9.69338
迸	-9.69338
迹	-9.69338
迺	-9.69338
追	-9.69338
退	-9.69338
送	-9.69338
适	-9.69338
逃	-9.69338
逄	-9.69338
逅	-9.69338
逆	-9.69338
选	-9.69338
逊	-9.69338
逋	-9.69338
逍	-9.69338
透	-9.69338
逐	-9.69338
逑	-9.69338
递	-9.69338
途	-9.69338
逖	-9.69338
逗	-9.69338
通	-9.69338
逛	-9.69338
逝	-9.69338
逞	-9.69338
速	-9.69338
造	-9.69338
逡	-9.69338
逢	-9.69338
逦	-9.69338
逭	-9.69338
逮	-9.69338
逯	-9.69338
逴	-9.69338
逵	-9.69338
逶	-9.69338
逸	-9.69338
逻	-9.69338
逼	-9.69338
逾	-9.69338
遁	-9.69338
遂	-9.69338
遄	-9.69338
遆	-9.69338
遇	-9.69338
遍	-9.69338
遏	-9.69338
遐	-9.69338
遑	-9.69338
遒	-9.69338
道	-9.69338
遗	-9.69338
遘	-9.69338
遛	-9.69338
遢	-9.69338
遣	-9.69338
遥	-9.69338
遨	-9.69338
遭	-9.69338
遮	-9.69338
遴	-9.69338
遵	-9.69338
遹	-9.69338
遽	-9.69338
避	-9.69338
邀	-9.69338
邂	-9.69338
邃	-9.69338
邈	-9.69338
邋	-9.69338
邑	-9.69338
邓	-9.69338
邕	-9.69338
邗	-9.69338
邘	-9.69338
邙	-9.69338
邛	-9.69338
邝	-9.69338
邠	-9.69338
邡	-9.69338
邢	-9.69338
那	-9.69338
邦	-9.69338
邨	-9.69338
邪	-9.69338
邬	-9.69338
邮	-9.69338
邯	-9.69338
邰	-9.69338
邱	-9.69338
邲	-9.69338
邳	-9.69338
邴	-9.69338
邵	-9.69338
邶	-9.69338
邸	-9.69338
邹	-9.69338
邺	-9.69338
邻	-9.69338
邽	-9.69338
邾	-9.69338
邿	-9.69338
郁	-9.69338
郃	-9.69338
郄	-9.69338
郅	-9.69338
郇	-9.69338
郈	-9.69338
郊	-9.69338
郎	-9.69338
郏	-9.69338
郐	-9.69338
郑	-9.69338
郓	-9.69338
郗	-9.69338
郚	-9.69338
郛	-9.69338
郜	-9.69338
郝	-9.69338
郡	-9.69338
郢	-9.69338
郤	-9.69338
郦	-9.69338
郧	-9.69338
部	-9.69338
郪	-9.69338
郫	-9.69338
郭	-9.69338
郯	-9.69338
郴	-9.69338
郸	-9.69338
都	-9.69338
郾	-9.69338
郿	-9.69338
鄀	-9.69338
鄂	-9.69338
鄃	-9.69338
鄄	-9.69338
鄅	-9.69338
鄌	-9.69338
鄑	-9.69338
鄗	-9.69338
鄘	-9.69338
鄙	-9.69338
鄚	-9.69338
鄜	-9.69338
鄞	-9.69338
鄠	-9.69338
鄢	-9.69338
鄣	-9.69338
鄫	-9.69338
鄯	-9.69338
鄱	-9.69338
鄹	-9.69338
酂	-9.69338
酃	-9.69338
酅	-9.69338
酆	-9.69338
酉	-9.69338
酊	-9.69338
酋	-9.69338
酌	-9.69338
配	-9.69338
酎	-9.69338
酏	-9.69338
酐	-9.69338
酒	-9.69338
酗	-9.69338
酚	-9.69338
酝	-9.69338
酞	-9.69338
酡	-9.69338
酢	-9.69338
酣	-9.69338
酤	-9.69338
酥	-9.69338
酦	-9.69338
酩	-9.69338
酪	-9.69338
酬	-9.69338
酮	-9.69338
酯	-9.69338
酰	-9.69338
酱	-9.69338
酲	-9.69338
酴	-9.69338
酵	-9.69338
酶	-9.69338
酷	-9.69338
酸	-9.69338
酹	-9.69338
酺	-9.69338
酽	-9.69338
酾	-9.69338
酿	-9.69338
醅	-9.69338
醇	-9.69338
醉	-9.69338
醋	-9.69338
醌	-9.69338
醍	-9.69338
醐	-9.69338
醑	-9.69338
醒	-9.69338
醚	-9.69338
醛	-9.69338
醢	-9.69338
醨	-9.69338
醪	-9.69338
醭	-9.69338
醮	-9.69338
醯	-9.69338
醴	-9.69338
醵	-9.69338
醺	-9.69338
醾	-9.69338
采	-9.69338
釉	-9.69338
释	-9.69338
里	-9.69338
重	-9.69338
野	-9.69338
量	-9.69338
釐	-9.69338
金	-9.69338
釜	-9.69338
鉴	-9.69338
銎	-9.69338
銮	-9.69338
鋆	-9.69338
鋈	-9.69338
錾	-9.69338
鍪	-9.69338
鎏	-9.69338
鏊	-9.69338
鏖	-9.69338
鐾	-9.69338
鑫	-9.69338
钆	-9.69338
钇	-9.69338
针	-9.69338
钉	-9.69338
钊	-9.69338
钋	-9.69338
钌	-9.69338
钍	-9.69338
钎	-9.69338
钏	-9.69338
钐	-9.69338
钒	-9.69338
钓	-9.69338
钔	-9.69338
钕	-9.69338
钖	-9.69338
钗	-9.69338
钘	-9.69338
钙	-9.69338
钚	-9.69338
钛	-9.69338
钜	-9.69338
钝	-9.69338
钞	-9.69338
钟	-9.69338
钠	-9.69338
钡	-9.69338
钢	-9.69338
钣	-9.69338
钤	-9.69338
钥	-9.69338
钦	-9.69338
钧	-9.69338
钨	-9.69338
钩	-9.69338
钪	-9.69338
钫	-9.69338
钬	-9.69338
钭	-9.69338
钮	-9.69338
钯	-9.69338
钰	-9.69338
钱	-9.69338
钲	-9.69338
钳	-9.69338
钴	-9.69338
钵	-9.69338
钷	-9.69338
钹	-9.69338
钺	-9.69338
钻	-9.69338
钼	-9.69338
钽	-9.69338
钾	-9.69338
钿	-9.69338
铀	-9.69338
铁	-9.69338
铂	-9.69338
铃	-9.69338
铄	-9.69338
铅	-9.69338
铆	-9.69338
铈	-9.69338
铉	-9.69338
铊	-9.69338
铋	-9.69338
铌	-9.69338
铍	-9.69338
铎	-9.69338
铏	-9.69338
铐	-9.69338
铑	-9.69338
铒	-9.69338
铕	-9.69338
铖	-9.69338
铗	-9.69338
铘	-9.69338
铙	-9.69338
铚	-9.69338
铛	-9.69338
铜	-9.69338
铝	-9.69338
铞	-9.69338
铟	-9.69338
铠	-9.69338
铡	-9.69338
铢	-9.69338
铣	-9.69338
铤	-9.69338
铥	-9.69338
铧	-9.69338
铨	-9.69338
铩	-9.69338
铪	-9.69338
铫	-9.69338
铬	-9.69338
铭	-9.69338
铮	-9.69338
铯	-9.69338
铰	-9.69338
铱	-9.69338
铲	-9.69338
铳	-9.69338
铴	-9.69338
铵	-9.69338
银	-9.69338
铷	-9.69338
铸	-9.69338
铹	-9.69338
铺	-9.69338
铻	-9.69338
铼	-9.69338
铽	-9.69338
链	-9.69338
铿	-9.69338
销	-9.69338
锁	-9.69338
锂	-9.69338
锃	-9.69338
锄	-9.69338
锅	-9.69338
锆	-9.69338
锇	-9.69338
锈	-9.69338
锉	-9.69338
锊	-9.69338
锋	-9.69338
锌	-9.69338
锍	-9.69338
锎	-9.69338
锏	-9.69338
锐	-9.69338
锑	-9.69338
锒	-9.69338
锓	-9.69338
锔	-9.69338
锕	-9.69338
锖	-9.69338
锗	-9.69338
锘	-9.69338
错	-9.69338
锚	-9.69338
锛	-9.69338
锜	-9.69338
锝	-9.69338
锞	-9.69338
锟	-9.69338
锡	-9.69338
锢	-9.69338
锣	-9.69338
锤	-9.69338
锥	-9.69338
锦	-9.69338
锧	-9.69338
锨	-9.69338
锩	-9.69338
锪	-9.69338
锫	-9.69338
锬	-9.69338
锭	-9.69338
键	-9.69338
锯	-9.69338
锰	-9.69338
锱	-9.69338
锲	-9.69338
锳	-9.69338
锴	-9.69338
锵	-9.69338
锶	-9.69338
锷	-9.69338
锸	-9.69338
锹	-9.69338
锺	-9.69338
锻	-9.69338
锼	-9.69338
锽	-9.69338
锾	-9.69338
锿	-9.69338
镀	-9.69338
镁	-9.69338
镂	-9.69338
镃	-9.69338
镄	-9.69338
镅	-9.69338
镆	-9.69338
镇	-9.69338
镈	-9.69338
镉	-9.69338
镊	-9.69338
镋	-9.69338
镌	-9.69338
镍	-9.69338
镎	-9.69338
镏	-9.69338
镐	-9.69338
镑	-9.69338
镒	-9.69338
镓	-9.69338
镔	-9.69338
镕	-9.69338
镖	-9.69338
镗	-9.69338
镘	-9.69338
镚	-9.69338
镛	-9.69338
镜	-9.69338
镝	-9.69338
镞	-9.69338
镠	-9.69338
镡	-9.69338
镢	-9.69338
镣	-9.69338
镤	-9.69338
镥	-9.69338
镦	-9.69338
镧	-9.69338
镨	-9.69338
镩	-9.69338
镪	-9.69338
镫	-9.69338
镬	-9.69338
镭	-9.69338
镮	-9.69338
镯	-9.69338
镰	-9.69338
镱	-9.69338
镲	-9.69338
镳	-9.69338
镴	-9.69338
镵	-9.69338
镶	-9.69338
长	-9.69338
门	-9.69338
闩	-9.69338
闪	-9.69338
闫	-9.69338
闭	-9.69338
问	-9.69338
闯	-9.69338
闰	-9.69338
闱	-9.69338
闲	-9.69338
闳	-9.69338
间	-9.69338
闵	-9.69338
闶	-9.69338
闷	-9.69338
闸	-9.69338
闹	-9.69338
闺	-9.69338
闻	-9.69338
闼	-9.69338
闽	-9.69338
闾	-9.69338
闿	-9.69338
阀	-9.69338
阁	-9.69338
阂	-9.69338
阃	-9.69338
阄	-9.69338
阅	-9.69338
阆	-9.69338
阇	-9.69338
阈	-9.69338
阉	-9.69338
阊	-9.69338
阋	-9.69338
阌	-9.69338
阍	-9.69338
阎	-9.69338
阏	-9.69338
阐	-9.69338
阑	-9.69338
阒	-9.69338
阔	-9.69338
阕	-9.69338
阖	-9.69338
阗	-9.69338
阘	-9.69338
阙	-9.69338
阚	-9.69338
阜	-9.69338
队	-9.69338
阡	-9.69338
阪	-9.69338
阮	-9.69338
阱	-9.69338
防	-9.69338
阳	-9.69338
阴	-9.69338
阵	-9.69338
阶	-9.69338
阻	-9.69338
阼	-9.69338
阽	-9.69338
阿	-9.69338
陀	-9.69338
陂	-9.69338
附	-9.69338
际	-9.69338
陆	-9.69338
陇	-9.69338
陈	-9.69338
陉	-9.69338
陋	-9.69338
陌	-9.69338
降	-9.69338
陎	-9.69338
限	-9.69338
陑	-9.69338
陔	-9.69338
陕	-9.69338
陛	-9.69338
陞	-9.69338
陟	-9.69338
陡	-9.69338
院	-9.69338
除	-9.69338
陧	-9.69338
陨	-9.69338
险	-9.69338
陪	-9.69338
陬	-9.69338
陲	-9.69338
陴	-9.69338
陵	-9.69338
陶	-9.69338
陷	-9.69338
隃	-9.69338
隅	-9.69338
隆	-9.69338
隈	-9.69338
隋	-9.69338
隍	-9.69338
随	-9.69338
隐	-9.69338
隔	-9.69338
隗	-9.69338
隘	-9.69338
隙	-9.69338
障	-9.69338
隧	-9.69338
隩	-9.69338
隰	-9.69338
隳	-9.69338
隶	-9.69338
隹	-9.69338
隺	-9.69338
隼	-9.69338
隽	-9.69338
难	-9.69338
雀	-9.69338
雁	-9.69338
雄	-9.69338
雅	-9.69338
集	-9.69338
雇	-9.69338
雉	-9.69338
雊	-9.69338
雌	-9.69338
雍	-9.69338
雎	-9.69338
雏	-9.69338
雒	-9.69338
雕	-9.69338
雠	-9.69338
雨	-9.69338
雩	-9.69338
雪	-9.69338
雯	-9.69338
雱	-9.69338
雳	-9.69338
零	-9.69338
雷	-9.69338
雹	-9.69338
雾	-9.69338
需	-9.69338
霁	-9.69338
霄	-9.69338
霅	-9.69338
霆	-9.69338
震	-9.69338
霈	-9.69338
霉	-9.69338
霍	-9.69338
霎	-9.69338
霏	-9.69338
霓	-9.69338
霖	-9.69338
霜	-9.69338
霞	-9.69338
霨	-9.69338
霪	-9.69338
霭	-9.69338
霰	-9.69338
露	-9.69338
霸	-9.69338
霹	-9.69338
霾	-9.69338
青	-9.69338
靓	-9.69338
靖	-9.69338
静	-9.69338
靛	-9.69338
非	-9.69338
靠	-9.69338
靡	-9.69338
面	-9.69338
靥	-9.69338
革	-9.69338
靬	-9.69338
靰	-9.69338
靳	-9.69338
靴	-9.69338
靶	-9.69338
靸	-9.69338
靺	-9.69338
靼	-9.69338
靽	-9.69338
靿	-9.69338
鞁	-9.69338
鞅	-9.69338
鞋	-9.69338
鞍	-9.69338
鞑	-9.69338
鞒	-9.69338
鞔	-9.69338
鞘	-9.69338
鞠	-9.69338
鞡	-9.69338
鞣	-9.69338
鞧	-9.69338
鞨	-9.69338
鞫	-9.69338
鞬	-9.69338
鞭	-9.69338
鞮	-9.69338
鞯	-9.69338
鞲	-9.69338
鞳	-9.69338
鞴	-9.69338
韂	-9.69338
韦	-9.69338
韧	-9.69338
韨	-9.69338
韩	-9.69338
韪	-9.69338
韫	-9.69338
韬	-9.69338
韭	-9.69338
音	-9.69338
韵	-9.69338
韶	-9.69338
页	-9.69338
顶	-9.69338
顷	-9.69338
顸	-9.69338
项	-9.69338
顺	-9.69338
须	-9.69338
顼	-9.69338
顽	-9.69338
顾	-9.69338
顿	-9.69338
颀	-9.69338
颁	-9.69338
颂	-9.69338
颃	-9.69338
预	-9.69338
颅	-9.69338
领	-9.69338
颇	-9.69338
颈	-9.69338
颉	-9.69338
颊	-9.69338
颋	-9.69338
颌	-9.69338
颍	-9.69338
颎	-9.69338
颏	-9.69338
颐	-9.69338
频	-9.69338
颓	-9.69338
颔	-9.69338
颖	-9.69338
颗	-9.69338
题	-9.69338
颙	-9.69338
颚	-9.69338
颛	-9.69338
颜	-9.69338
额	-9.69338
颞	-9.69338
颟	-9.69338
颠	-9.69338
颡	-9.69338
颢	-9.69338
颤	-9.69338
颥	-9.69338
颦	-9.69338
颧	-9.69338
风	-9.69338
飏	-9.69338
飐	-9.69338
飑	-9.69338
飒	-9.69338
飓	-9.69338
飔	-9.69338
飕	-9.69338
飗	-9.69338
飘	-9.69338
飙	-9.69338
飞	-9.69338
食	-9.69338
飧	-9.69338
飨	-9.69338
餍	-9.69338
餐	-9.69338
餮	-9.69338
饔	-9.69338
饕	-9.69338
饥	-9.69338
饧	-9.69338
饨	-9.69338
饩	-9.69338
饪	-9.69338
饫	-9.69338
饬	-9.69338
饭	-9.69338
饮	-9.69338
饯	-9.69338
饰	-9.69338
饱	-9.69338
饲	-9.69338
饳	-9.69338
饴	-9.69338
饵	-9.69338
饶	-9.69338
饷	-9.69338
饸	-9.69338
饹	-9.69338
饺	-9.69338
饻	-9.69338
饼	-9.69338
饽	-9.69338
饿	-9.69338
馁	-9.69338
馃	-9.69338
馄	-9.69338
馅	-9.69338
馆	-9.69338
馇	-9.69338
馈	-9.69338
馉	-9.69338
馊	-9.69338
馋	-9.69338
馌	-9.69338
馍	-9.69338
馏	-9.69338
馐	-9.69338
馑	-9.69338
馒	-9.69338
馓	-9.69338
馔	-9.69338
馕	-9.69338
首	-9.69338
馗	-9.69338
馘	-9.69338
香	-9.69338
馝	-9.69338
馞	-9.69338
馥	-9.69338
馧	-9.69338
馨	-9.69338
马	-9.69338
驭	-9.69338
驮	-9.69338
驯	-9.69338
驰	-9.69338
驱	-9.69338
驲	-9.69338
驳	-9.69338
驴	-9.69338
驵	-9.69338
驶	-9.69338
驷	-9.69338
驸	-9.69338
驹	-9.69338
驺	-9.69338
驻	-9.69338
驼	-9.69338
驽	-9.69338
驾	-9.69338
驿	-9.69338
骀	-9.69338
骁	-9.69338
骂	-9.69338
骃	-9.69338
骄	-9.69338
骅	-9.69338
骆	-9.69338
骇	-9.69338
骈	-9.69338
骉	-9.69338
骊	-9.69338
骋	-9.69338
验	-9.69338
骍	-9.69338
骎	-9.69338
骏	-9.69338
骐	-9.69338
骑	-9.69338
骒	-9.69338
骓	-9.69338
骕	-9.69338
骖	-9.69338
骗	-9.69338
骘	-9.69338
骙	-9.69338
骚	-9.69338
骛	-9.69338
骜	-9.69338
骝	-9.69338
骞	-9.69338
骟	-9.69338
骠	-9.69338
骡	-9.69338
骢	-9.69338
骣	-9.69338
骤	-9.69338
骥	-9.69338
骦	-9.69338
骧	-9.69338
骨	-9.69338
骰	-9.69338
骱	-9.69338
骶	-9.69338
骷	-9.69338
骸	-9.69338
骺	-9.69338
骼	-9.69338
髀	-9.69338
髁	-9.69338
髂	-9.69338
髃	-9.69338
髅	-9.69338
髋	-9.69338
髌	-9.69338
髎	-9.69338
髑	-9.69338
髓	-9.69338
高	-9.69338
髡	-9.69338
髢	-9.69338
髦	-9.69338
髫	-9.69338
髭	-9.69338
髯	-9.69338
髹	-9.69338
髻	-9.69338
髽	-9.69338
鬃	-9.69338
鬈	-9.69338
鬏	-9.69338
鬒	-9.69338
鬓	-9.69338
鬘	-9.69338
鬟	-9.69338
鬣	-9.69338
鬯	-9.69338
鬲	-9.69338
鬶	-9.69338
鬷	-9.69338
鬻	-9.69338
鬼	-9.69338
魁	-9.69338
魂	-9.69338
魃	-9.69338
魄	-9.69338
魅	-9.69338
魆	-9.69338
魇	-9.69338
魈	-9.69338
魉	-9.69338
魋	-9.69338
魍	-9.69338
魏	-9.69338
魑	-9.69338
魔	-9.69338
鱼	-9.69338
鱽	-9.69338
鱾	-9.69338
鱿	-9.69338
鲀	-9.69338
鲁	-9.69338
鲂	-9.69338
鲃	-9.69338
鲅	-9.69338
鲆	-9.69338
鲇	-9.69338
鲈	-9.69338
鲉	-9.69338
鲊	-9.69338
鲋	-9.69338
鲌	-9.69338
鲍	-9.69338
鲎	-9.69338
鲏	-9.69338
鲐	-9.69338
鲑	-9.69338
鲒	-9.69338
鲔	-9.69338
鲕	-9.69338
鲖	-9.69338
鲗	-9.69338
鲘	-9.69338
鲙	-9.69338
鲚	-9.69338
鲛	-9.69338
鲜	-9.69338
鲝	-9.69338
鲞	-9.69338
鲟	-9.69338
鲠	-9.69338
鲡	-9.69338
鲢	-9.69338
鲣	-9.69338
鲤	-9.69338
鲥	-9.69338
鲦	-9.69338
鲧	-9.69338
鲨	-9.69338
鲩	-9.69338
鲪	-9.69338
鲫	-9.69338
鲬	-9.69338
鲭	-9.69338
鲮	-9.69338
鲯	-9.69338
鲰	-9.69338
鲱	-9.69338
鲲	-9.69338
鲳	-9.69338
鲴	-9.69338
鲵	-9.69338
鲷	-9.69338
鲸	-9.69338
鲹	-9.69338
鲺	-9.69338
鲻	-9.69338
鲼	-9.69338
鲽	-9.69338
鲾	-9.69338
鲿	-9.69338
鳀	-9.69338
鳁	-9.69338
鳂	-9.69338
鳃	-9.69338
鳄	-9.69338
鳅	-9.69338
鳇	-9.69338
鳈	-9.69338
鳉	-9.69338
鳊	-9.69338
鳌	-9.69338
鳍	-9.69338
鳎	-9.69338
鳏	-9.69338
鳐	-9.69338
鳑	-9.69338
鳒	-9.69338
鳓	-9.69338
鳔	-9.69338
鳕	-9.69338
鳖	-9.69338
鳗	-9.69338
鳘	-9.69338
鳙	-9.69338
鳚	-9.69338
鳛	-9.69338
鳜	-9.69338
鳝	-9.69338
鳞	-9.69338
鳟	-9.69338
鳠	-9.69338
鳡	-9.69338
鳢	-9.69338
鳣	-9.69338
鳤	-9.69338
鸟	-9.69338
鸠	-9.69338
鸡	-9.69338
鸢	-9.69338
鸣	-9.69338
鸤	-9.69338
鸥	-9.69338
鸦	-9.69338
鸧	-9.69338
鸨	-9.69338
鸩	-9.69338
鸪	-9.69338
鸫	-9.69338
鸬	-9.69338
鸭	-9.69338
鸮	-9.69338
鸯	-9.69338
鸰	-9.69338
鸱	-9.69338
鸲	-9.69338
鸳	-9.69338
鸵	-9.69338
鸶	-9.69338
鸷	-9.69338
鸸	-9.69338
鸹	-9.69338
鸺	-9.69338
鸻	-9.69338
鸼	-9.69338
鸽	-9.69338
鸾	-9.69338
鸿	-9.69338
鹀	-9.69338
鹁	-9.69338
鹂	-9.69338
鹃	-9.69338
鹄	-9.69338
鹅	-9.69338
鹆	-9.69338
鹇	-9.69338
鹈	-9.69338
鹉	-9.69338
鹊	-9.69338
鹋	-9.69338
鹌	-9.69338
鹍	-9.69338
鹎	-9.69338
鹏	-9.69338
鹐	-9.69338
鹑	-9.69338
鹒	-9.69338
鹔	-9.69338
鹕	-9.69338
鹖	-9.69338
鹗	-9.69338
鹘	-9.69338
鹙	-9.69338
鹚	-9.69338
鹛	-9.69338
鹜	-9.69338
鹝	-9.69338
鹞	-9.69338
鹟	-9.69338
鹠	-9.69338
鹡	-9.69338
鹢	-9.69338
鹣	-9.69338
鹤	-9.69338
鹦	-9.69338
鹧	-9.69338
鹨	-9.69338
鹩	-9.69338
鹪	-9.69338
鹫	-9.69338
鹬	-9.69338
鹭	-9.69338
鹮	-9.69338
鹯	-9.69338
鹰	-9.69338
鹱	-9.69338
鹲	-9.69338
鹳	-9.69338
鹴	-9.69338
鹾	-9.69338
鹿	-9.69338
麀	-9.69338
麂	-9.69338
麇	-9.69338
麈	-9.69338
麋	-9.69338
麑	-9.69338
麒	-9.69338
麓	-9.69338
麖	-9.69338
麝	-9.69338
麟	-9.69338
麦	-9.69338
麸	-9.69338
麹	-9.69338
麻	-9.69338
麽	-9.69338
麾	-9.69338
黄	-9.69338
黇	-9.69338
黉	-9.69338
黍	-9.69338
黎	-9.69338
黏	-9.69338
黑	-9.69338
黔	-9.69338
默	-9.69338
黛	-9.69338
黜	-9.69338
黝	-9.69338
黟	-9.69338
黠	-9.69338
黡	-9.69338
黢	-9.69338
黥	-9.69338
黧	-9.69338
黩	-9.69338
黪	-9.69338
黯	-9.69338
黹	-9.69338
黻	-9.69338
黼	-9.69338
黾	-9.69338
鼋	-9.69338
鼍	-9.69338
鼎	-9.69338
鼐	-9.69338
鼒	-9.69338
鼓	-9.69338
鼗	-9.69338
鼙	-9.69338
鼠	-9.69338
鼢	-9.69338
鼩	-9.69338
鼫	-9.69338
鼬	-9.69338
鼯	-9.69338
鼱	-9.69338
鼷	-9.69338
鼹	-9.69338
鼻	-9.69338
鼽	-9.69338
鼾	-9.69338
齁	-9.69338
齇	-9.69338
齉	-9.69338
齐	-9.69338
齑	-9.69338
齿	-9.69338
龀	-9.69338
龁	-9.69338
龂	-9.69338
龃	-9.69338
龄	-9.69338
龅	-9.69338
龆	-9.69338
龇	-9.69338
龈	-9.69338
龉	-9.69338
龊	-9.69338
龋	-9.69338
龌	-9.69338
龙	-9.69338
龚	-9.69338
龛	-9.69338
龟	-9.69338
龠	-9.69338
龢	-9.69338
鿍	-9.69338
鿎	-9.69338
鿏	-9.69338
𠅤	-9.69338
𠙶	-9.69338
𠳐	-9.69338
𡎚	-9.69338
𡐓	-9.69338
𣗋	-9.69338
𣲗	-9.69338
𣲘	-9.69338
𣸣	-9.69338
𤧛	-9.69338
𤩽	-9.69338
𤫉	-9.69338
𥔲	-9.69338
𥕢	-9.69338
𥖨	-9.69338
𥻗	-9.69338
𦈡	-9.69338
𦒍	-9.69338
𦙶	-9.69338
𦝼	-9.69338
𦭜	-9.69338
𦰡	-9.69338
𧿹	-9.69338
𨐈	-9.69338
𨙸	-9.69338
𨚕	-9.69338
𨟠	-9.69338
𨭉	-9.69338
𨱇	-9.69338
𨱏	-9.69338
𨱑	-9.69338
𨱔	-9.69338
𨺙	-9.69338
𩽾	-9.69338
𩾃	-9.69338
𩾌	-9.69338
𪟝	-9.69338
𪣻	-9.69338
𪤗	-9.69338
𪨰	-9.69338
𪨶	-9.69338
𪩘	-9.69338
𪾢	-9.69338
𫄧	-9.69338
𫄨	-9.69338
𫄷	-9.69338
𫄸	-9.69338
𫇭	-9.69338
𫌀	-9.69338
𫍣	-9.69338
𫍯	-9.69338
𫍲	-9.69338
𫍽	-9.69338
𫐄	-9.69338
𫐐	-9.69338
𫐓	-9.69338
𫑡	-9.69338
𫓧	-9.69338
𫓯	-9.69338
𫓶	-9.69338
𫓹	-9.69338
𫔍	-9.69338
𫔎	-9.69338
𫔶	-9.69338
𫖮	-9.69338
𫖯	-9.69338
𫖳	-9.69338
𫗧	-9.69338
𫗴	-9.69338
𫘜	-9.69338
𫘝	-9.69338
𫘦	-9.69338
𫘧	-9.69338
𫘨	-9.69338
𫘪	-9.69338
𫘬	-9.69338
𫚕	-9.69338
𫚖	-9.69338
𫚭	-9.69338
𫛭	-9.69338
𫞩	-9.69338
𫟅	-9.69338
𫟦	-9.69338
𫟹	-9.69338
𫟼	-9.69338
𫠆	-9.69338
𫠊	-9.69338
𫠜	-9.69338
𫢸	-9.69338
𫫇	-9.69338
𫭟	-9.69338
𫭢	-9.69338
𫭼	-9.69338
𫮃	-9.69338
𫰛	-9.69338
𫵷	-9.69338
𫶇	-9.69338
𫷷	-9.69338
𫸩	-9.69338
𬀩	-9.69338
𬀪	-9.69338
𬂩	-9.69338
𬃊	-9.69338
𬇕	-9.69338
𬇙	-9.69338
𬇹	-9.69338
𬉼	-9.69338
𬊈	-9.69338
𬊤	-9.69338
𬌗	-9.69338
𬍛	-9.69338
𬍡	-9.69338
𬍤	-9.69338
𬒈	-9.69338
𬒔	-9.69338
𬒗	-9.69338
𬕂	-9.69338
𬘓	-9.69338
𬘘	-9.69338
𬘡	-9.69338
𬘩	-9.69338
𬘫	-9.69338
𬘬	-9.69338
𬘭	-9.69338
𬘯	-9.69338
𬙂	-9.69338
𬙊	-9.69338
𬙋	-9.69338
𬜬	-9.69338
𬜯	-9.69338
𬞟	-9.69338
𬟁	-9.69338
𬟽	-9.69338
𬣙	-9.69338
𬣞	-9.69338
𬣡	-9.69338
𬣳	-9.69338
𬤇	-9.69338
𬤊	-9.69338
𬤝	-9.69338
𬨂	-9.69338
𬨎	-9.69338
𬩽	-9.69338
𬪩	-9.69338
𬬩	-9.69338
𬬭	-9.69338
𬬮	-9.69338
𬬱	-9.69338
𬬸	-9.69338
𬬹	-9.69338
𬬻	-9.69338
𬬿	-9.69338
𬭁	-9.69338
𬭊	-9.69338
𬭎	-9.69338
𬭚	-9.69338
𬭛	-9.69338
𬭤	-9.69338
𬭩	-9.69338
𬭬	-9.69338
𬭯	-9.69338
𬭳	-9.69338
𬭶	-9.69338
𬭸	-9.69338
𬭼	-9.69338
𬮱	-9.69338
𬮿	-9.69338
𬯀	-9.69338
𬯎	-9.69338
𬱖	-9.69338
𬱟	-9.69338
𬳵	-9.69338
𬳶	-9.69338
𬳽	-9.69338
𬳿	-9.69338
𬴂	-9.69338
𬴃	-9.69338
𬴊	-9.69338
𬶋	-9.69338
𬶍	-9.69338
𬶏	-9.69338
𬶐	-9.69338
𬶟	-9.69338
𬶠	-9.69338
𬶨	-9.69338
𬶭	-9.69338
𬶮	-9.69338
𬷕	-9.69338
𬸘	-9.69338
𬸚	-9.69338
𬸣	-9.69338
𬸦	-9.69338
𬸪	-9.69338
𬹼	-9.69338
𬺈	-9.69338
𬺓	-9.69338
嘅	-9.69338
咁	-9.69338
佢	-9.69338
哋	-9.69338
嚟	-9.69338
冇	-9.69338
啲	-9.69338
咗	-9.69338
喺	-9.69338
嘢	-9.69338
嗰	-9.69338
诶	-9.69338
啱	-9.69338
攞	-9.69338
嗱	-9.69338
搵	-9.69338
瞓	-9.69338
噃	-9.69338
係	-9.69338
嬲	-9.69338
喎	-9.69338
見	-9.69338
喐	-9.69338
時	-9.69338
気	-9.69338
間	-9.69338
啩	-9.69338
揾	-9.69338
攰	-9.69338
嫲	-9.69338
殺	-9.69338
個	-9.69338
話	-9.69338
嘥	-9.69338
後	-9.69338
唞	-9.69338
僕	-9.69338
様	-9.69338
抌	-9.69338
誰	-9.69338
場	-9.69338
無	-9.69338
戦	-9.69338
黐	-9.69338
動	-9.69338
聞	-9.69338
氹	-9.69338
長	-9.69338
違	-9.69338
掟	-9.69338
強	-9.69338
勝	-9.69338
決	-9.69338
込	-9.69338
実	-9.69338
開	-9.69338
悪	-9.69338
夢	-9.69338
會	-9.69338
確	-9.69338
冚	-9.69338
連	-9.69338
愛	-9.69338
別	-9.69338
対	-9.69338
冧	-9.69338
過	-9.69338
現	-9.69338
発	-9.69338
掹	-9.69338
張	-9.69338
緒	-9.69338
絶	-9.69338
飛	-9.69338
続	-9.69338
戻	-9.69338
帰	-9.69338
結	-9.69338
機	-9.69338
終	-9.69338
楽	-9.69338
屌	-9.69338
覚	-9.69338
風	-9.69338
點	-9.69338
負	-9.69338
嘰	-9.69338
顔	-9.69338
試	-9.69338
親	-9.69338
頼	-9.69338
電	-9.69338
伝	-9.69338
頭	-9.69338
問	-9.69338
島	-9.69338
馬	-9.69338
員	-9.69338
撃	-9.69338
乗	-9.69338
書	-9.69338
願	-9.69338
敵	-9.69338
計	-9.69338
孭	-9.69338
抜	-9.69338
車	-9.69338
調	-9.69338
為	-9.69338
進	-9.69338
復	-9.69338
優	-9.69338
組	-9.69338
離	-9.69338
約	-9.69338
講	-9.69338
術	-9.69338
運	-9.69338
選	-9.69338
隠	-9.69338
関	-9.69338
説	-9.69338
験	-9.69338
揼	-9.69338
記	-9.69338
頑	-9.69338
謎	-9.69338
頃	-9.69338
題	-9.69338
傷	-9.69338
諗	-9.69338
樣	-9.69338
貴	-9.69338
証	-9.69338
円	-9.69338
遠	-9.69338
細	-9.69338
歩	-9.69338
葉	-9.69338
団	-9.69338
聖	-9.69338
幾	-9.69338
黒	-9.69338
達	-9.69338
報	-9.69338
對	-9.69338
跡	-9.69338
霊	-9.69338
業	-9.69338
爺	-9.69338
壊	-9.69338
飲	-9.69338
難	-9.69338
許	-9.69338
師	-9.69338
輩	-9.69338
緊	-9.69338
買	-9.69338
備	-9.69338
獣	-9.69338
涙	-9.69338
裏	-9.69338
応	-9.69338
議	-9.69338
単	-9.69338
険	-9.69338
構	-9.69338
來	-9.69338
雲	-9.69338
認	-9.69338
隊	-9.69338
軍	-9.69338
剣	-9.69338
囖	-9.69338
階	-9.69338
陣	-9.69338
嬢	-9.69338
東	-9.69338
鍵	-9.69338
焼	-9.69338
紙	-9.69338
遅	-9.69338
沢	-9.69338
僆	-9.69338
諦	-9.69338
姉	-9.69338
輝	-9.69338
遊	-9.69338
態	-9.69338
門	-9.69338
遺	-9.69338
売	-9.69338
經	-9.69338
㗎	-9.69338
奪	-9.69338
邊	-9.69338
識	-9.69338
極	-9.69338
襲	-9.69338
語	-9.69338
劇	-9.69338
拠	-9.69338
種	-9.69338
絵	-9.69338
読	-9.69338
質	-9.69338
簡	-9.69338
査	-9.69338
転	-9.69338
呪	-9.69338
熱	-9.69338
謝	-9.69338
捱	-9.69338
園	-9.69338
獄	-9.69338
掛	-9.69338
陽	-9.69338
閉	-9.69338
闇	-9.69338
驚	-9.69338
館	-9.69338
厲	-9.69338
護	-9.69338
該	-9.69338
滅	-9.69338
實	-9.69338
毎	-9.69338
樖	-9.69338
搣	-9.69338
練	-9.69338
産	-9.69338
窓	-9.69338
覧	-9.69338
傾	-9.69338
談	-9.69338
図	-9.69338
視	-9.69338
義	-9.69338
這	-9.69338
経	-9.69338
線	-9.69338
薬	-9.69338
準	-9.69338
踎	-9.69338
敗	-9.69338
麗	-9.69338
請	-9.69338
習	-9.69338
務	-9.69338
弾	-9.69338
絡	-9.69338
憶	-9.69338
匂	-9.69338
駄	-9.69338
減	-9.69338
應	-9.69338
飯	-9.69338
巻	-9.69338
慣	-9.69338
將	-9.69338
隻	-9.69338
響	-9.69338
財	-9.69338
發	-9.69338
両	-9.69338
広	-9.69338
繋	-9.69338
異	-9.69338
仮	-9.69338
類	-9.69338
條	-9.69338
捨	-9.69338
兩	-9.69338
済	-9.69338
鳥	-9.69338
銀	-9.69338
尋	-9.69338
瀬	-9.69338
満	-9.69338
聽	-9.69338
際	-9.69338
駆	-9.69338
鏡	-9.69338
資	-9.69338
収	-9.69338
龍	-9.69338
誘	-9.69338
銃	-9.69338
吔	-9.69338
宮	-9.69338
導	-9.69338
錢	-9.69338
騒	-9.69338
増	-9.69338
踭	-9.69338
側	-9.69338
況	-9.69338
偵	-9.69338
週	-9.69338
黙	-9.69338
嘩	-9.69338
蔵	-9.69338
當	-9.69338
衛	-9.69338
曱	-9.69338
勢	-9.69338
輪	-9.69338
甴	-9.69338
偽	-9.69338
脷	-9.69338
闘	-9.69338
幫	-9.69338
囲	-9.69338
魚	-9.69338
掃	-9.69338
汚	-9.69338
層	-9.69338
鳴	-9.69338
給	-9.69338
並	-9.69338
岡	-9.69338
論	-9.69338
監	-9.69338
脅	-9.69338
訳	-9.69338
詰	-9.69338
責	-9.69338
帯	-9.69338
級	-9.69338
綺	-9.69338
覺	-9.69338
姫	-9.69338
億	-9.69338
桜	-9.69338
屘	-9.69338
検	-9.69338
協	-9.69338
歳	-9.69338
辺	-9.69338
鎖	-9.69338
賊	-9.69338
華	-9.69338
純	-9.69338
払	-9.69338
罠	-9.69338
効	-9.69338
順	-9.69338
換	-9.69338
潰	-9.69338
隣	-9.69338
竜	-9.69338
辦	-9.69338
捜	-9.69338
興	-9.69338
倉	-9.69338
紹	-9.69338
煙	-9.69338
髪	-9.69338
學	-9.69338
讐	-9.69338
齊	-9.69338
労	-9.69338
犠	-9.69338
孫	-9.69338
惡	-9.69338
編	-9.69338
設	-9.69338
淨	-9.69338
恥	-9.69338
偉	-9.69338
織	-9.69338
戰	-9.69338
誕	-9.69338
製	-9.69338
値	-9.69338
戸	-9.69338
標	-9.69338
競	-9.69338
働	-9.69338
變	-9.69338
処	-9.69338
厳	-9.69338
咲	-9.69338
貸	-9.69338
穩	-9.69338
揃	-9.69338
紋	-9.69338
継	-9.69338
閒	-9.69338
錯	-9.69338
媽	-9.69338
滝	-9.69338
揺	-9.69338
呂	-9.69338
脳	-9.69338
預	-9.69338
徹	-9.69338
職	-9.69338
納	-9.69338
賞	-9.69338
萬	-9.69338
繰	-9.69338
課	-9.69338
騙	-9.69338
養	-9.69338
節	-9.69338
蘇	-9.69338
氷	-9.69338
緑	-9.69338
鉄	-9.69338
數	-9.69338
囉	-9.69338
権	-9.69338
荘	-9.69338
補	-9.69338
臓	-9.69338
雑	-9.69338
価	-9.69338
帶	-9.69338
積	-9.69338
關	-9.69338
訓	-9.69338
夠	-9.69338
橋	-9.69338
𠮶	-9.69338
従	-9.69338
領	-9.69338
訪	-9.69338
統	-9.69338
單	-9.69338
紳	-9.69338
執	-9.69338
氣	-9.69338
詳	-9.69338
軽	-9.69338
庫	-9.69338
録	-9.69338
衝	-9.69338
禰	-9.69338
覗	-9.69338
羅	-9.69338
獲	-9.69338
療	-9.69338
観	-9.69338
糸	-9.69338
儀	-9.69338
鑽	-9.69338
雖	-9.69338
噁	-9.69338
懸	-9.69338
噉	-9.69338
輸	-9.69338
餸	-9.69338
揀	-9.69338
亂	-9.69338
測	-9.69338
擊	-9.69338
晩	-9.69338
嵐	-9.69338
凍	-9.69338
諸	-9.69338
誤	-9.69338
挙	-9.69338
頂	-9.69338
適	-9.69338
歴	-9.69338
壺	-9.69338
専	-9.69338
費	-9.69338
針	-9.69338
煩	-9.69338
陸	-9.69338
懐	-9.69338
複	-9.69338
総	-9.69338
縁	-9.69338
國	-9.69338
賽	-9.69338
婦	-9.69338
歯	-9.69338
說	-9.69338
圧	-9.69338
還	-9.69338
審	-9.69338
憑	-9.69338
慮	-9.69338
飾	-9.69338
棄	-9.69338
聲	-9.69338
舊	-9.69338
霧	-9.69338
稟	-9.69338
栄	-9.69338
靈	-9.69338
扱	-9.69338
悩	-9.69338
鑑	-9.69338
體	-9.69338
禮	-9.69338
駅	-9.69338
罰	-9.69338
額	-9.69338
縛	-9.69338
誇	-9.69338
酔	-9.69338
總	-9.69338
災	-9.69338
陰	-9.69338
飼	-9.69338
靚	-9.69338
釣	-9.69338
們	-9.69338
寶	-9.69338
恵	-9.69338
締	-9.69338
麼	-9.69338
躍	-9.69338
噠	-9.69338
庁	-9.69338
殲	-9.69338
闆	-9.69338
榮	-9.69338
喚	-9.69338
劍	-9.69338
賭	-9.69338
樹	-9.69338
斬	-9.69338
児	-9.69338
枱	-9.69338
剛	-9.69338
償	-9.69338
埲	-9.69338
揮	-9.69338
轉	-9.69338
誠	-9.69338
絞	-9.69338
舎	-9.69338
損	-9.69338
堅	-9.69338
亀	-9.69338
縦	-9.69338
瘋	-9.69338
嘖	-9.69338
艦	-9.69338
傳	-9.69338
湯	-9.69338
絆	-9.69338
塗	-9.69338
盡	-9.69338
廃	-9.69338
險	-9.69338
曉	-9.69338
営	-9.69338
騎	-9.69338
評	-9.69338
臨	-9.69338
錬	-9.69338
磺	-9.69338
紛	-9.69338
鈴	-9.69338
創	-9.69338
謀	-9.69338
規	-9.69338
餌	-9.69338
鍛	-9.69338
砕	-9.69338
擾	-9.69338
絕	-9.69338
嘆	-9.69338
郷	-9.69338
紅	-9.69338
蓮	-9.69338
塊	-9.69338
紀	-9.69338
醫	-9.69338
剤	-9.69338
貫	-9.69338
鬥	-9.69338
託	-9.69338
筆	-9.69338
鍾	-9.69338
県	-9.69338
盤	-9.69338
樓	-9.69338
択	-9.69338
載	-9.69338
農	-9.69338
揞	-9.69338
績	-9.69338
處	-9.69338
鐘	-9.69338
馴	-9.69338
遲	-9.69338
採	-9.69338
砲	-9.69338
沖	-9.69338
漢	-9.69338
範	-9.69338
仏	-9.69338
齋	-9.69338
贏	-9.69338
塚	-9.69338
彈	-9.69338
嚇	-9.69338
則	-9.69338
巣	-9.69338
帳	-9.69338
獸	-9.69338
鲶	-9.69338
辻	-9.69338
診	-9.69338
噛	-9.69338
碁	-9.69338
圍	-9.69338
內	-9.69338
擔	-9.69338
蘭	-9.69338
譲	-9.69338
畑	-9.69338
貨	-9.69338
縄	-9.69338
拝	-9.69338
澤	-9.69338
築	-9.69338
劉	-9.69338
濃	-9.69338
慶	-9.69338
嗎	-9.69338
儲	-9.69338
環	-9.69338
顧	-9.69338
煉	-9.69338
沒	-9.69338
兇	-9.69338
討	-9.69338
誌	-9.69338
廻	-9.69338
貼	-9.69338
鷹	-9.69338
嬌	-9.69338
塩	-9.69338
紐	-9.69338
專	-9.69338
貧	-9.69338
噹	-9.69338
瞞	-9.69338
賛	-9.69338
雰	-9.69338
枠	-9.69338
網	-9.69338
聴	-9.69338
賢	-9.69338
維	-9.69338
樂	-9.69338
詮	-9.69338
奮	-9.69338
脈	-9.69338
燒	-9.69338
號	-9.69338
摺	-9.69338
傑	-9.69338
續	-9.69338
俠	-9.69338
傘	-9.69338
鱗	-9.69338
菓	-9.69338
賣	-9.69338
嬸	-9.69338
詞	-9.69338
壞	-9.69338
謂	-9.69338
癒	-9.69338
鮮	-9.69338
箇	-9.69338
佮	-9.69338
膠	-9.69338
櫻	-9.69338
涼	-9.69338
鋼	-9.69338
啟	-9.69338
漬	-9.69338
烏	-9.69338
噴	-9.69338
醜	-9.69338
蝦	-9.69338
須	-9.69338
鋭	-9.69338
縮	-9.69338
撲	-9.69338
戲	-9.69338
豈	-9.69338
稲	-9.69338
證	-9.69338
渉	-9.69338
參	-9.69338
駒	-9.69338
靜	-9.69338
鞄	-9.69338
寫	-9.69338
擺	-9.69338
雞	-9.69338
寧	-9.69338
喰	-9.69338
斎	-9.69338
齢	-9.69338
羨	-9.69338
啓	-9.69338
丼	-9.69338
脇	-9.69338
譜	-9.69338
屍	-9.69338
繼	-9.69338
隱	-9.69338
團	-9.69338
馳	-9.69338
蓋	-9.69338
滿	-9.69338
妬	-9.69338
較	-9.69338
槍	-9.69338
腳	-9.69338
礎	-9.69338
睜	-9.69338
飽	-9.69338
觀	-9.69338
從	-9.69338
陳	-9.69338
戯	-9.69338
鳳	-9.69338
斷	-9.69338
潔	-9.69338
喪	-9.69338
錠	-9.69338
徴	-9.69338
揈	-9.69338
瀨	-9.69338
畫	-9.69338
冊	-9.69338
藥	-9.69338
裡	-9.69338
蛍	-9.69338
懲	-9.69338
歓	-9.69338
聯	-9.69338
陥	-9.69338
碼	-9.69338
膚	-9.69338
渋	-9.69338
徳	-9.69338
歷	-9.69338
豊	-9.69338
鎮	-9.69338
粋	-9.69338
潤	-9.69338
鎧	-9.69338
嘗	-9.69338
楊	-9.69338
販	-9.69338
價	-9.69338
雙	-9.69338
搶	-9.69338
圖	-9.69338
捲	-9.69338
釈	-9.69338
嚴	-9.69338
裝	-9.69338
訴	-9.69338
讚	-9.69338
鐵	-9.69338
湧	-9.69338
腦	-9.69338
驗	-9.69338
爭	-9.69338
獅	-9.69338
摻	-9.69338
貓	-9.69338
隨	-9.69338
詩	-9.69338
綾	-9.69338
權	-9.69338
藍	-9.69338
穏	-9.69338
鈍	-9.69338
腸	-9.69338
賀	-9.69338
蟲	-9.69338
薔	-9.69338
瑠	-9.69338
吶	-9.69338
兒	-9.69338
喫	-9.69338
軟	-9.69338
渦	-9.69338
餅	-9.69338
溫	-9.69338
幹	-9.69338
鋪	-9.69338
饅	-9.69338
趕	-9.69338
獨	-9.69338
懷	-9.69338
慳	-9.69338
頬	-9.69338
殻	-9.69338
歡	-9.69338
畳	-9.69338
劃	-9.69338
濕	-9.69338
暫	-9.69338
勞	-9.69338
贈	-9.69338
蕭	-9.69338
讀	-9.69338
膽	-9.69338
髄	-9.69338
篠	-9.69338
犧	-9.69338
詐	-9.69338
爾	-9.69338
據	-9.69338
項	-9.69338
輕	-9.69338
眾	-9.69338
帥	-9.69338
曇	-9.69338
鍋	-9.69338
髒	-9.69338
駐	-9.69338
亞	-9.69338
擁	-9.69338
獎	-9.69338
區	-9.69338
鎌	-9.69338
揚	-9.69338
軌	-9.69338
韓	-9.69338
纏	-9.69338
痩	-9.69338
〇	-9.69338
衆	-9.69338
鉱	-9.69338
籠	-9.69338
窮	-9.69338
莊	-9.69338
骯	-9.69338
廳	-9.69338
貯	-9.69338
釘	-9.69338
慾	-9.69338
隕	-9.69338
屬	-9.69338
漁	-9.69338
呑	-9.69338
薫	-9.69338
牆	-9.69338
嗮	-9.69338
讓	-9.69338
擇	-9.69338
瀕	-9.69338
魯	-9.69338
歲	-9.69338
嚕	-9.69338
趙	-9.69338
鬆	-9.69338
璽	-9.69338
黃	-9.69338
蜆	-9.69338
豬	-9.69338
壓	-9.69338
悶	-9.69338
咭	-9.69338
禍	-9.69338
斉	-9.69338
嗺	-9.69338
蠍	-9.69338
勁	-9.69338
溝	-9.69338
緩	-9.69338
彫	-9.69338
臟	-9.69338
劏	-9.69338
薩	-9.69338
鄉	-9.69338
睏	-9.69338
縫	-9.69338
與	-9.69338
倫	-9.69338
慘	-9.69338
爛	-9.69338
暈	-9.69338
廢	-9.69338
哅	-9.69338
歸	-9.69338
喲	-9.69338
齣	-9.69338
圏	-9.69338
銘	-9.69338
掲	-9.69338
囂	-9.69338
痺	-9.69338
釋	-9.69338
櫃	-9.69338
拡	-9.69338
窩	-9.69338
穂	-9.69338
藝	-9.69338
銭	-9.69338
雜	-9.69338
儚	-9.69338
篤	-9.69338
闊	-9.69338
浄	-9.69338
營	-9.69338
畢	-9.69338
諾	-9.69338
咅	-9.69338
貝	-9.69338
舉	-9.69338
詫	-9.69338
鮫	-9.69338
憂	-9.69338
簽	-9.69338
糧	-9.69338
覇	-9.69338
祂	-9.69338
塵	-9.69338
囧	-9.69338
曬	-9.69338
鹽	-9.69338
綿	-9.69338
茲	-9.69338
戶	-9.69338
渇	-9.69338
產	-9.69338
狀	-9.69338
鶴	-9.69338
憐	-9.69338
檻	-9.69338
諒	-9.69338
錦	-9.69338
殘	-9.69338
呎	-9.69338
輔	-9.69338
贄	-9.69338
髮	-9.69338
盜	-9.69338
緝	-9.69338
腍	-9.69338
姦	-9.69338
錄	-9.69338
壇	-9.69338
噓	-9.69338
峠	-9.69338
廣	-9.69338
債	-9.69338
苺	-9.69338
嘔	-9.69338
繩	-9.69338
嗚	-9.69338
薦	-9.69338
滾	-9.69338
閣	-9.69338
洩	-9.69338
攜	-9.69338
嶺	-9.69338
粧	-9.69338
閃	-9.69338
冨	-9.69338
囗	-9.69338
貰	-9.69338
曖	-9.69338
薙	-9.69338
歐	-9.69338
褲	-9.69338
壽	-9.69338
兎	-9.69338
傭	-9.69338
銅	-9.69338
鹹	-9.69338
贅	-9.69338
鬧	-9.69338
囁	-9.69338
餓	-9.69338
峯	-9.69338
貢	-9.69338
雫	-9.69338
睺	-9.69338
蟻	-9.69338
賺	-9.69338
龜	-9.69338
檢	-9.69338
暁	-9.69338
鄭	-9.69338
淵	-9.69338
漿	-9.69338
褸	-9.69338
貪	-9.69338
佈	-9.69338
鶏	-9.69338
牠	-9.69338
軸	-9.69338
遙	-9.69338
燭	-9.69338
駕	-9.69338
絲	-9.69338
曽	-9.69338
擬	-9.69338
詛	-9.69338
彌	-9.69338
滲	-9.69338
廚	-9.69338
燈	-9.69338
墜	-9.69338
鬱	-9.69338
堀	-9.69338
嘜	-9.69338
賑	-9.69338
寵	-9.69338
繊	-9.69338
亜	-9.69338
顯	-9.69338
佔	-9.69338
囮	-9.69338
冴	-9.69338
訂	-9.69338
蝋	-9.69338
嚛	-9.69338
撐	-9.69338
侶	-9.69338
靭	-9.69338
頓	-9.69338
紡	-9.69338
鯨	-9.69338
鉢	-9.69338
虛	-9.69338
癲	-9.69338
圓	-9.69338
閪	-9.69338
顎	-9.69338
倆	-9.69338
隷	-9.69338
謙	-9.69338
轄	-9.69338
軒	-9.69338
暦	-9.69338
勸	-9.69338
馀	-9.69338
稱	-9.69338
鉛	-9.69338
楓	-9.69338
雛	-9.69338
撚	-9.69338
啞	-9.69338
奧	-9.69338
鴨	-9.69338
腫	-9.69338
遜	-9.69338
勧	-9.69338
夾	-9.69338
猟	-9.69338
撿	-9.69338
綱	-9.69338
樋	-9.69338
棟	-9.69338
濁	-9.69338
覓	-9.69338
購	-9.69338
佇	-9.69338
厭	-9.69338
騰	-9.69338
盧	-9.69338
郵	-9.69338
飢	-9.69338
吋	-9.69338
唄	-9.69338
疊	-9.69338
戀	-9.69338
賠	-9.69338
韻	-9.69338
幣	-9.69338
竈	-9.69338
嗶	-9.69338
錫	-9.69338
穫	-9.69338
踐	-9.69338
攬	-9.69338
唸	-9.69338
揹	-9.69338
訊	-9.69338
撈	-9.69338
錆	-9.69338
鮎	-9.69338
醤	-9.69338
潛	-9.69338
驅	-9.69338
猶	-9.69338
飚	-9.69338
貞	-9.69338
瑪	-9.69338
嚮	-9.69338
舖	-9.69338
蝟	-9.69338
賴	-9.69338
灣	-9.69338
嚥	-9.69338
氂	-9.69338
轟	-9.69338
頸	-9.69338
欄	-9.69338
傢	-9.69338
啢	-9.69338
糞	-9.69338
閥	-9.69338
蕎	-9.69338
褄	-9.69338
豐	-9.69338
瓊	-9.69338
蝕	-9.69338
騷	-9.69338
掻	-9.69338
奨	-9.69338
廠	-9.69338
腎	-9.69338
嫐	-9.69338
籤	-9.69338
鄧	-9.69338
檔	-9.69338
賓	-9.69338
劑	-9.69338
搗	-9.69338
鯉	-9.69338
呉	-9.69338
賜	-9.69338
黨	-9.69338
壯	-9.69338
麥	-9.69338
聰	-9.69338
籌	-9.69338
騢	-9.69338
妝	-9.69338
粛	-9.69338
渾	-9.69338
濟	-9.69338
漸	-9.69338
綴	-9.69338
咘	-9.69338
禎	-9.69338
棲	-9.69338
贊	-9.69338
舗	-9.69338
攝	-9.69338
榊	-9.69338
槻	-9.69338
獵	-9.69338
𩠌	-9.69338
囝	-9.69338
縱	-9.69338
吀	-9.69338
缽	-9.69338
毀	-9.69338
遷	-9.69338
貿	-9.69338
湊	-9.69338
虜	-9.69338
嘐	-9.69338
迴	-9.69338
搖	-9.69338
綠	-9.69338
咾	-9.69338
罵	-9.69338
駛	-9.69338
嘦	-9.69338
賃	-9.69338
氭	-9.69338
緣	-9.69338
朧	-9.69338
塀	-9.69338
遡	-9.69338
餃	-9.69338
醬	-9.69338
訣	-9.69338
蠟	-9.69338
鮪	-9.69338
搾	-9.69338
啗	-9.69338
懶	-9.69338
笹	-9.69338
癮	-9.69338
儘	-9.69338
譽	-9.69338
灘	-9.69338
搨	-9.69338
麺	-9.69338
綁	-9.69338
孮	-9.69338
撫	-9.69338
誹	-9.69338
鷄	-9.69338
勲	-9.69338
祿	-9.69338
訶	-9.69338
淺	-9.69338
徬	-9.69338
疎	-9.69338
墳	-9.69338
廁	-9.69338
銷	-9.69338
懺	-9.69338
嬰	-9.69338
顏	-9.69338
緯	-9.69338
閻	-9.69338
絹	-9.69338
僑	-9.69338
擄	-9.69338
僱	-9.69338
萊	-9.69338
穀	-9.69338
淚	-9.69338
勵	-9.69338
蒼	-9.69338
頻	-9.69338
併	-9.69338
鮭	-9.69338
嶋	-9.69338
齒	-9.69338
藪	-9.69338
魎	-9.69338
諭	-9.69338
麵	-9.69338
撳	-9.69338
瘍	-9.69338
糾	-9.69338
馮	-9.69338
喬	-9.69338
掙	-9.69338
贋	-9.69338
觸	-9.69338
謗	-9.69338
惱	-9.69338
曆	-9.69338
咑	-9.69338
遼	-9.69338
咵	-9.69338
鏈	-9.69338
狽	-9.69338
駿	-9.69338
挿	-9.69338
蹤	-9.69338
虧	-9.69338
摂	-9.69338
礫	-9.69338
睭	-9.69338
龐	-9.69338
爲	-9.69338
搲	-9.69338
攪	-9.69338
嘑	-9.69338
濫	-9.69338
蔭	-9.69338
躊	-9.69338
矽	-9.69338
凈	-9.69338
擲	-9.69338
僅	-9.69338
讃	-9.69338
瑩	-9.69338
孨	-9.69338
紗	-9.69338
鑊	-9.69338
嬅	-9.69338
贖	-9.69338
鋒	-9.69338
柵	-9.69338
囃	-9.69338
穢	-9.69338
謳	-9.69338
嬋	-9.69338
鱳	-9.69338
嚐	-9.69338
